t h 20191663
i n 14410568
th e</w> 12539235
a n 11853988
r e 8778078
क े</w> 7601716
e r 7590848
a r 7474067
t i 7284289
e n 7157164
e d</w> 7156547
o n 6265804
म े 6107511
न े</w> 6024418
e r</w> 6017127
in g</w> 5913893
o n</w> 5878942
् र 5700136
o f</w> 5606031
t o</w> 5408497
o u 5387913
an d</w> 5328970
s t 5319661
o r 5306587
i n</w> 5239945
मे ं</w> 5220786
a l 4891024
क ी</w> 4805922
a t 4697198
र ् 4636333
ह ै</w> 4610933
i t 4549494
h a 4323046
स े</w> 4187805
e s</w> 4095187
य ा</w> 4071622
ो ं</w> 4065110
r o 3816425
i s</w> 3566754
स ् 3488227
i c 3383943
i l 3358980
क ा 3358377
p o 3279232
i s 3273941
a t</w> 3265437
a l</w> 3262260
व ा 3189111
क ो</w> 3124302
क ा</w> 3116175
o r</w> 3112581
a c 3063524
a s 3022048
d e 2950384
क ् 2923183
a n</w> 2845387
म ा 2779263
o m 2726960
a s</w> 2698829
d i 2635382
त ा</w> 2496743
र ा 2485412
l e 2477380
प ्र 2474500
ल ि 2399920
औ र</w> 2385369
u r 2366436
ti on</w> 2354504
a m 2335110
en t</w> 2311700
स ा 2279046
s e 2225656
व ि 2222181
ब ा 2220361
ज ा 2207207
क ि 2198589
e n</w> 2197556
न ा</w> 2122060
c h 2112018
e s 2106509
l i 2098577
w h 2093059
u n 2062905
r a 2059784
क र 2053557
s a 2051886
s i 2006186
् य 1994561
l y</w> 1982077
v e</w> 1979764
प र</w> 1970095
o t</w> 1968892
भ ी</w> 1936318
ै ं</w> 1935729
f or</w> 1911396
r i 1900946
क र</w> 1896928
क ि</w> 1883696
l o 1881483
b e 1832822
a d 1801910
ल ा 1799292
th at</w> 1798686
c on 1798570
न ि 1775823
q u 1759499
ह ी</w> 1724336
i t</w> 1723392
s h 1720847
ह ा 1682196
ह ैं</w> 1666287
t s</w> 1661410
द े 1652854
l a 1625689
न ् 1602508
र ी</w> 1598783
ह ो 1587585
s u 1584120
द ि 1571142
त ् 1564924
ी ं</w> 1559136
c om 1548962
2 0 1545552
ड ़ 1533869
प ा 1525646
त े</w> 1507619
a g 1506485
न ा 1485069
a y</w> 1469970
त ा 1466423
l e</w> 1464764
p ro 1438781
र ि 1436054
ह ीं</w> 1410299
a po 1410098
er s</w> 1405288
s t</w> 1402250
n e 1390775
th e 1389944
w it 1388972
a r</w> 1388432
i d</w> 1370296
ल े</w> 1358656
apo s</w> 1356676
o l 1355872
ह ु 1355470
v er 1334007
स ं 1308963
c e</w> 1305646
wit h</w> 1305083
p e 1303922
ल े 1296960
e m 1293260
a b 1270988
भ ा 1258398
i r 1229983
र ह 1227375
w as</w> 1222282
न हीं</w> 1220051
न ी</w> 1209907
ti on 1194979
a k 1186786
म ि 1182302
ए क</w> 1176491
च ा 1175873
er e</w> 1162858
य ा 1162430
b y</w> 1160985
लि ए</w> 1145924
sa id</w> 1138981
b u 1126745
20 1 1105780
e l 1079576
o p 1078676
m o 1077364
re s 1070674
c i 1070648
ar e</w> 1070408
स ि 1064712
at e</w> 1060405
a tion</w> 1058989
त ी</w> 1055418
म ु 1053063
b e</w> 1050236
ज ि 1037958
थ ा</w> 1031907
t r 1029203
ou n 1027691
m ent</w> 1026594
ha s</w> 1026549
ं ग 1023184
ल ी</w> 1016644
g o 1012841
ल ा</w> 994411
qu ot</w> 991632
f ro 989736
fro m</w> 983001
p ar 979039
t ed</w> 978099
f f 977975
e x 970013
g h 963298
अ प 962997
h e</w> 951150
स ी</w> 946351
u s 946336
a p 942953
क् ष 938864
त ो</w> 934094
इ स</w> 931888
i st 920896
ल ् 916903
द ् 913925
t e 912593
f or 907303
in di 901589
d u 898394
ह ि 891562
द ा 883352
य ों</w> 875160
र ा</w> 864637
ह ो</w> 864326
il l</w> 864009
ha ve</w> 861630
n o 860290
v i 859336
t er</w> 858882
it y</w> 857055
l d</w> 856605
प ु 854881
र े</w> 852814
i r</w> 852354
d ay</w> 850004
त ि</w> 841888
m in 838886
क ु 836654
त ि 834494
त ्र 816843
m e 816364
s o</w> 793154
t h</w> 792009
t o 784984
p or 784618
स म 782451
ल ो 781527
i m 774906
w ill</w> 769178
्य ा 760098
ou t</w> 757385
स ु 756617
े ं</w> 753617
श ा 748790
w e 746802
c h</w> 746530
v e 743784
द ी</w> 743697
ग ा 736842
n ot</w> 734810
क ो 733399
कि या</w> 726345
p u 715303
th is</w> 715277
र ो 713675
इ स 712273
th er</w> 711568
an d 710558
on e</w> 706829
क ह 706527
u m 705168
य ह</w> 703151
re d</w> 698431
y e 692303
w or 690744
at ed</w> 689567
h is</w> 689381
य े</w> 688768
p er 688197
v er</w> 685649
ग ा</w> 682468
ग या</w> 679069
b o 672030
al l</w> 667513
h i 665319
प ू 664554
r u 663520
ou ld</w> 661053
tion s</w> 660501
s e</w> 647660
h o 646161
ध ा 645838
in g 644011
m a 640804
m e</w> 637112
का र</w> 628824
t er 625042
य ो 623668
p l 622304
ou r 621295
re c 612168
or e</w> 605643
t ing</w> 602401
ष ् 599173
e t</w> 596424
ि त</w> 593132
a m</w> 592891
d ing</w> 592376
कर ने</w> 586143
क े 583224
ज ा</w> 582040
m an 582014
indi a</w> 579724
श ् 576852
f e 574340
u l 568129
ic e</w> 567370
ou r</w> 566733
p re 565492
a f 565475
d s</w> 563671
ha d</w> 562696
it s</w> 561880
bu t</w> 560429
श ि 556034
n a 552582
al so</w> 549940
ic h</w> 547225
a d</w> 546648
w e</w> 541921
a u 538413
t y</w> 538183
g e</w> 535555
उ न 534172
उ स 533096
स् थ 533003
m ar 532980
h e 529273
सा थ</w> 528807
c o 527667
wh ich</w> 524615
न ों</w> 522769
re n 522459
र ू 522168
the ir</w> 521699
स ी 520466
बा द</w> 518544
d er</w> 515227
म ं 513864
ver n 511861
d o 511262
अ ध 509987
be en</w> 506920
र ी 506919
go vern 504973
ब ि 499548
उ न् 499133
c l 498202
en ts</w> 496933
ट ी</w> 495910
त क</w> 494922
com m 494105
ग ी</w> 493901
min ist 493898
प ह 492923
f i 492534
es t</w> 491927
wh o</w> 491544
फ ि 491208
न े 489454
t a 488615
gh t</w> 487365
ं ग</w> 486833
po l 485855
ur e</w> 485365
d e</w> 485261
र े 483676
p a 483133
त ी 482443
the y</w> 479858
d ed</w> 479510
1 2 479156
म ् 478139
रा ज 477464
क ्र 472580
थ ी</w> 472248
त् र</w> 472240
w ere</w> 470198
o ff 468540
ट ्र 467397
कह ा</w> 465158
ar y</w> 462436
is t</w> 458626
रह े</w> 458127
t u 458083
g i 453301
as t</w> 451503
u p 451117
b er</w> 450292
0 0</w> 449045
अप ने</w> 446503
दि या</w> 442461
m on 441836
ज ी</w> 441411
व र् 440597
च ् 440486
ज ी 438894
स क 438453
त र 436599
ब ी 436058
y s</w> 436005
s p 435972
st r 434863
ड ि 434152
, 201 433499
govern ment</w> 431247
g h</w> 431088
न ी 430438
स े 429008
प ् 427859
दे श</w> 427643
रह ा</w> 427094
र ु 427037
वा र</w> 426208
c re 426063
u p</w> 425990
ओ ं</w> 425791
स र 425201
ख ा 425046
g u 418491
af ter</w> 416554
e c 415292
s o 415163
ं द 414906
e v 411871
com p 411240
थ े</w> 410217
an t</w> 409185
j u 408486
स ा</w> 408064
h ar 406115
d is 404437
y o 403953
g r 401942
व े 401686
ti c 397799
c oun 397628
al ly</w> 396488
l ed</w> 395659
ज ो</w> 394673
k e 393959
p r 392948
ड ़</w> 391957
कु छ</w> 390251
ग ु 388500
om e</w> 386816
u s</w> 386077
st ate</w> 385289
an ce</w> 381851
il e</w> 381686
प ी 379737
f ir 377306
ब े 377124
् य</w> 376949
म ी 376904
ं ने</w> 376574
h i</w> 375476
व ह</w> 374000
च ु 373289
ग ्र 373281
का र् 371576
र ों</w> 371436
न ु 371237
ह र</w> 369965
k s</w> 369690
on g</w> 369602
f in 368104
en ce</w> 367859
द ू 365727
र ही</w> 364925
o ther</w> 364743
स् ट 364687
हु ए</w> 363553
कि न</w> 362838
t w 362090
ढ ़ 361978
प ि 361379
म ा</w> 361238
tion al</w> 359633
le c 358992
ब ् 358339
t ra 358022
th ere</w> 357782
t ak 357773
k e</w> 357081
ne w</w> 355792
en t 354696
ग ई</w> 354547
du c 352439
p res 351363
ले किन</w> 351157
श ु 350986
श न</w> 349615
s er 349222
च ि 349094
o d</w> 348536
h er</w> 347503
ti es</w> 347455
c r 345870
अध ि 345152
m u 343542
व ा</w> 342689
yo u</w> 340571
म ो 339339
ti ve</w> 338935
pe op 338614
प रि 338194
द ा</w> 336488
minist er</w> 334809
peop le</w> 334805
w n</w> 334499
ye ar</w> 334073
w ould</w> 333588
ग र</w> 329959
को ई</w> 328670
द ु 327781
ol d</w> 327694
f o 327560
र ण</w> 327063
ou s</w> 326878
k ing</w> 326634
g e 325854
for m 325726
हा ं</w> 325500
भा र 325478
ab out</w> 324671
m ore</w> 324631
o ver</w> 323623
f ac 322934
s pe 321819
c a 320996
es s</w> 320919
ट ि 320774
ic i 320584
ंग े</w> 320539
as h 318317
w ar 318048
ब ं 317508
c or 315867
ग ों</w> 315120
सि ं 313650
त ु 313595
am e</w> 313078
स ू 312875
ड़ ी</w> 311317
a in 310773
12 4</w> 310359
con t 309497
wh en</w> 307411
tw o</w> 306567
al s</w> 306141
व े</w> 305783
ag e</w> 305749
स ो 305063
c an</w> 304038
k ed</w> 303814
ab le</w> 303178
i es</w> 302974
an y</w> 302744
si d 301534
b an 301238
ब ै 300991
p er</w> 298405
oun d</w> 296951
ar s</w> 296517
द ो 295703
ज ़ 295643
t e</w> 294976
c e 294753
ख ि 294571
ब ता 294506
य ु 293774
p ri 293445
अ ब</w> 293130
v is 292221
हो ंने</w> 292007
wh ile</w> 291760
म ी</w> 291613
1 9 291378
w s</w> 290806
श ्र 290805
i d 290712
m ak 290611
द र् 289251
se c 288736
a v 288337
de l 287555
इ ं 286614
हो ने</w> 285066
व ्य 285061
अ ं 284915
प े 284819
si on</w> 283758
s s</w> 283374
at t 283135
b r 282732
ट र</w> 282368
ti me</w> 282259
c ha 282143
in e</w> 282104
त र</w> 281386
no w</w> 281224
u d 280909
ac k</w> 280893
त्र ी</w> 280874
s ed</w> 280652
सिं ह</w> 280115
ड़ ा</w> 279857
i f</w> 279735
ou gh</w> 279684
ल ों</w> 279295
पह ले</w> 279092
as e</w> 278684
म ै 278573
का री</w> 276719
ग ए</w> 276592
s ti 276418
ल ग 276334
वा ले</w> 275715
लो गों</w> 275264
p la 274724
s in 274254
पु लि 273987
is h 273630
ट ी 273593
म ौ 273199
b i 273159
बा त</w> 272673
w a 272449
कि सी</w> 272351
क ों</w> 272081
आ प 271935
s ing 271718
s en 270889
उन् होंने</w> 269826
ब ना 269440
res s</w> 269240
t or</w> 269122
re e</w> 269078
pol ice</w> 268924
e f</w> 268543
दे ख 268314
w i 268136
s ha 267784
sh e</w> 267344
म ैं</w> 266635
अ नु 266287
नि र् 265050
i c</w> 264925
इ न</w> 264263
अप नी</w> 263885
sh i 263029
पू र् 262546
i on</w> 261885
र ख 261282
o c 260350
r s</w> 260349
em ber</w> 259948
ग ि 259802
re s</w> 259586
पुलि स</w> 259268
or s</w> 258622
उ प 258598
f il 258519
b a 257695
am p</w> 257689
y ing</w> 257313
j o 257118
ट ा 256453
ह ें</w> 255240
i l</w> 255048
ै से</w> 254860
por t</w> 254653
n o</w> 254363
व ी 253888
on s</w> 253825
सर कार</w> 253777
b j 253551
ब ु 253471
ज ब</w> 253319
h el 252398
प्र ा 251350
cl u 250625
द ो</w> 250113
t ri 249740
ल ी 249484
ch i 249194
म ह 248644
स्थ ा 248524
ब र</w> 248296
es e</w> 247695
तर ह</w> 247596
an g 247585
v ed</w> 246349
r a</w> 246229
b l 246042
em ent</w> 245284
up d 245234
ag ain 244677
बा र</w> 244526
again st</w> 244518
क् या</w> 244386
fir st</w> 243632
ं ड 243393
ज ् 243171
p m</w> 242828
क र् 242728
c our 242621
आ प</w> 242580
at es</w> 241925
ज े 241626
प ी</w> 241484
कर ते</w> 241469
मा न</w> 240748
us e</w> 240642
जा ए 240333
प ो 240065
m il 239884
ver y</w> 239375
चा र</w> 238937
इस के</w> 238862
m is 238656
sh o 238437
st e 238317
del hi</w> 238232
m y</w> 238132
n i 237854
in ter 237580
क्ष ा</w> 237194
an s</w> 237166
ड़ े</w> 237072
ब ो 236731
ह म</w> 236629
le ad 236257
m s</w> 236158
ं च</w> 235965
the m</w> 235929
o k</w> 235800
p p 235621
ur ing</w> 235207
हु आ</w> 235015
ci al</w> 234866
s ch 234831
द् र</w> 234359
j a 234358
w ay</w> 233730
upd ated</w> 233352
m ad 233228
l ing</w> 232439
ट े 231997
भ ि 231438
al i 231098
en d 230517
c ol 229389
c es</w> 228940
, 0 228661
d er 228102
li ke</w> 227864
रू प</w> 227463
indi an</w> 226902
c en 226789
ब हु 226258
th an</w> 226082
l s</w> 225345
en g 225070
na tional</w> 225041
क् त</w> 224897
ट ् 224700
ं ड</w> 224265
e lec 223763
de c 222954
ं च 222790
त े 222216
दि न</w> 221547
ख ु 221091
w el 220457
com e</w> 220203
प्र ति 220075
मा न 219875
ज ु 219874
d i</w> 219864
सम य</w> 219457
p h 219118
on ly</w> 219077
f u 218897
ing s</w> 218849
chi ef</w> 218836
par ty</w> 218780
ac e</w> 218657
p s</w> 218554
m an</w> 217586
ल गा 217223
le g 217189
ी य</w> 216707
be t 215472
1 0</w> 215014
in to</w> 214989
ha t</w> 214751
ज न</w> 214511
m ay</w> 213834
क ृ 213720
प हु 213618
it e</w> 213584
जि स 213469
y a</w> 213431
l ast</w> 213396
द् वा 213360
or y</w> 213137
c u 213071
s ome</w> 212797
2 0</w> 212638
v ing</w> 211860
मं त्री</w> 211597
का म</w> 210852
स मा 210527
t ur 210398
क ई</w> 210398
लि या</w> 210218
हु ई</w> 209722
फ ा 209617
20 0 209241
उन के</w> 208956
un der</w> 208687
बता या</w> 208111
द ौ 207774
g en 207714
ड ा 207249
ह ू 207157
f a 206991
g et</w> 206453
ye ars</w> 206080
्र े 205475
n ing</w> 205282
ज न 205038
di rec 204868
क् ष</w> 204208
फि र</w> 203367
t en 202899
जा ता</w> 202641
tr y</w> 202265
a tions</w> 201990
be ing</w> 201014
i g 200877
lo w 200263
बहु त</w> 200179
च् च 198471
n ed</w> 198163
v es</w> 197620
g ress</w> 197470
m at 197184
उ त् 196707
लो ग</w> 196665
l l</w> 196652
प ा</w> 195986
at ing</w> 195691
sing h</w> 195490
th ese</w> 194726
st s</w> 194553
w hat</w> 194456
d a 193552
द ी 193552
b as 193182
पु र</w> 192916
व न</w> 192278
ar i 192187
s ur 192108
bj p</w> 192015
us ed</w> 191956
र् ट</w> 191946
is su 191770
द्वा रा</w> 191173
जा न 191067
स ब 190907
wor ld</w> 190876
ज ू 190692
ग ो 190583
re g 189831
जा ने</w> 189542
भार त</w> 189053
हो ता</w> 188835
hi m</w> 188827
ac h 188807
मा म 188715
व ी</w> 188521
ले कर</w> 188095
c an 188061
t ure</w> 187449
अ न् 187414
lo c 187223
d uring</w> 187186
मि ल</w> 186824
mo st</w> 186470
ज ो 186048
पा स</w> 185949
h a</w> 185824
स र</w> 185019
सा ल</w> 184950
at e 184844
k et</w> 184712
u e</w> 184232
क ै 184123
v o 183990
आ ज</w> 183880
स भी</w> 183859
c ap 183819
उन् हें</w> 183734
र ू</w> 183198
कार् य 183181
छ ा 182348
फ ़ 182062
su ch</w> 181948
d o</w> 181711
श े 181580
ev en</w> 181242
per s 181164
उ से</w> 180498
मु ख 180452
at er</w> 180220
स् ता 180190
e ar 180010
क्ष े 179193
सक ता</w> 179150
st ud 179014
d ic 178829
con gress</w> 178597
ना म</w> 178228
पा र् 178137
st ar 177792
st ed</w> 177284
se l 177199
th r 177101
s es</w> 176964
य ू 176842
s ing</w> 176683
उस के</w> 176647
ं ट</w> 176383
हो गा</w> 176146
por t 176088
s c 176035
भ ू 175855
उ स</w> 174908
ड ी 174720
ar d</w> 174536
off ici 174333
wh ere</w> 174196
si g 174123
sh ould</w> 174053
cour t</w> 173984
th ree</w> 173924
in clu 173536
द ि</w> 173466
v ic 173349
घ र</w> 173286
द े</w> 173162
en ti 172988
1 0 172966
क ू 172634
क ॉ 172454
f e</w> 172449
a re 172102
फ ् 171723
गा ं 171521
o f 171386
s h</w> 171182
मा र</w> 170541
str ic 170503
st ru 170335
em p 170124
ल य</w> 170098
mad e</w> 169923
is e</w> 169895
छ ो 169867
ve lo 169859
र् थ 169745
म हा 169347
ए स 169164
s y 168991
क ं 168725
ac h</w> 168358
ha n</w> 168281
य र</w> 168038
h ome</w> 167975
ट े</w> 167963
w om 167691
de velo 167538
त ों</w> 167529
व र</w> 167203
an s 166939
ch an 166741
च् छ 166647
कर ना</w> 166003
par t 165991
ह मा 165987
ब च्च 165796
क रा 164903
t i</w> 164850
b le</w> 164788
v en 164361
po li 164354
c ent</w> 164171
दू स 163617
wor k</w> 163175
प र 162672
for e</w> 162621
pe c 162615
cen tr 162555
g a 161554
sid ent</w> 161505
ज् ञ 160960
en d</w> 160959
ध ि 160943
ख े 160937
man y</w> 160175
प ै 160108
ब ढ़ 159807
रु प 159690
यो ग</w> 159500
il y</w> 159386
ti c</w> 159122
f t</w> 158969
ल ने</w> 158775
ए व 158458
in v 157714
ch ar 157678
मु झ 157468
sti tu 157415
क म</w> 157361
5 0</w> 157056
o se</w> 156914
po in 156899
un i 156820
सा म 156729
t t 156470
r an 156415
sa ys</w> 156414
tak e</w> 156057
च ी 155945
h u 155940
भा ग</w> 155720
p ra 155612
f un 154868
ह म 154604
ac t</w> 154266
coun try</w> 154233
wi th 153969
v en</w> 153786
रा न</w> 152711
ट ा</w> 152704
g an 152425
c ould</w> 152286
एव ं</w> 152229
wel l</w> 152128
po w 152057
म हि 152050
g ra 151901
an n 151785
ं कि</w> 151750
ढ ़</w> 151748
ं द्र</w> 151493
ड े 151245
्य ू 151191
चा हि 151079
ंग ्रे 150838
जा र</w> 150768
e l</w> 150673
व ो</w> 150600
c er 150599
3 0</w> 150287
वा ली</w> 150186
d y</w> 150174
प ं 149928
न ो 149362
develo p 149323
it al</w> 149059
अ व 149035
रा ष् 148896
प र् 148427
h ou 148155
lo g 148054
f ri 148038
का रण</w> 147970
b il 147725
m i 147666
cr ore</w> 147483
g re 147369
l u 147319
c y</w> 147033
इ न 146997
ज े</w> 146494
h in 146209
शु रू</w> 146204
me di 146084
चा ह 145888
c ur 145834
ar m 145766
it ed</w> 145430
es day</w> 145108
या ं</w> 145062
ca use</w> 144585
ब द 144177
r y</w> 143913
th ing</w> 143908
1 5</w> 143885
f am 143840
c al 143830
thr ough</w> 143582
l es</w> 143540
ल ग</w> 143511
,0 00</w> 143507
at a</w> 143468
h ere</w> 143270
खि ला 143250
ए ं</w> 143150
c as 143021
e i 142915
हा ँ</w> 142876
क् ति</w> 142834
स् व 142787
we e 142373
pre sident</w> 142323
क ी 142143
m p 142083
th en</w> 141963
be fore</w> 141912
म ू 141526
p an 141482
उन की</w> 141426
g ro 141365
poli tic 141146
stru c 141088
in ed</w> 141058
u m</w> 140639
vi e 140513
ren t</w> 140367
k ash 140333
b ack</w> 140319
ती य</w> 140081
स् ट</w> 139774
बै ठ 139683
c ar 139475
फि ल् 139389
ज ब 139208
di stric 139073
ou t 138707
दे श 138476
di ff 138115
मुझ े</w> 138063
त था</w> 137904
स र् 137852
ho w</w> 137679
फ ो 137533
रि यों</w> 137415
ग्र ा 137353
r it 137293
j ec 137286
क्र ि 137231
ra j 137149
ज्ञ ा 137059
दो नों</w> 137041
ऐ से</w> 136864
we en</w> 136836
सम ् 136656
m ents</w> 136654
mak e</w> 136599
य हां</w> 136541
ju st</w> 136493
क ल</w> 136364
gen er 136296
bet ween</w> 136204
ड ी</w> 136186
is ed</w> 135960
t al 135867
प्र े 135859
चाहि ए</w> 135805
य ी</w> 135592
वि श् 135587
lo w</w> 135525
श ी 135259
c ase</w> 135135
de m 134843
kash m 134546
r e</w> 134458
च ौ 134456
p ak 134280
थ ा 133903
ग े</w> 133883
म न</w> 133456
c le 133365
par t</w> 133154
त ै 132947
hi gh</w> 132743
आ रो 132522
अ भि 132433
s ou 132200
shi p</w> 132147
1 1 132095
ac c 131901
बं ध 131238
ल न</w> 131180
वि धा 131103
ओ र</w> 130985
बी च</w> 130850
se t</w> 130760
ba i</w> 130756
g g 130656
at h</w> 130189
सक ते</w> 130178
लि ख 130139
ist an</w> 130136
of f</w> 130062
ती न</w> 129768
ख ् 129749
li c</w> 129690
po s 129603
y our</w> 129506
दौ रान</w> 129466
ग त</w> 129389
p on 129293
ि यों</w> 129263
हो ती</w> 129225
ti m 129210
त ं 129015
मा र् 128538
सब से</w> 128473
दा न</w> 128308
ब ी</w> 128169
pro duc 128079
आ ई</w> 127974
c ri 127797
अ च्छ 127646
स न</w> 127602
स् वा 127542
o l</w> 127335
नि य 127328
li on</w> 126683
we ver</w> 126557
ho wever</w> 126494
st ri 126403
ज ्या 126315
कु मार</w> 126313
t ly</w> 126128
is h</w> 126056
ठ ा 125662
ौ र</w> 125398
a ir 125309
fil m</w> 125252
ं स</w> 125141
k h 124948
ch il 124131
su p 124120
दा र</w> 123993
v il 123976
1 2</w> 123839
al l 123780
n um 123705
m um 123641
po si 123550
श ा</w> 123454
दे ने</w> 123450
क्षे त्र</w> 123432
k ar 123395
ac cor 123337
sch o 123291
j an 123190
भ ी 123097
hi gh 123005
su b 122991
m em 122979
च े 122934
च ा</w> 122892
अन् य</w> 122763
प्र देश</w> 122712
ि क</w> 122541
mo di</w> 122345
पहु ंच 122282
ish ed</w> 122279
f ol 122260
op er 122127
सा र</w> 122013
चु ना 121973
d re 121960
sin ce</w> 121768
su l 121630
so ci 121561
l and</w> 121489
gr ou 121369
f ic 121333
e ff 121329
s an 121321
c ed</w> 121278
क भी</w> 121263
हा र</w> 121139
la r</w> 121051
tr ans 121012
do wn</w> 120736
i a</w> 120722
स् त</w> 120442
re st</w> 120434
र त</w> 120422
फ ै 120336
si de</w> 120307
ता ओं</w> 120004
श ो 119874
ज ैसे</w> 119594
्र ा 119322
ar ound</w> 119270
be cause</w> 119198
mum bai</w> 119145
g o</w> 119109
in s</w> 118983
e con 118929
आ ई 118671
s un 118658
econ om 118653
अ गर</w> 118563
pu b 118463
s al 117882
k h</w> 117717
भ ा</w> 117465
wom en</w> 116919
अधि क</w> 116916
राज ्य</w> 116858
कर े 116805
जाए गा</w> 116709
ch in 116686
comp any</w> 116653
ल गा</w> 116548
t ers</w> 116415
pub lic</w> 116340
c lo 116301
ऐ सा</w> 116176
यो ज 116140
ल् ली</w> 116116
राष् ट्र 116086
a ff 116039
re ad 116034
स् कू 115900
रा त</w> 115793
st at 115733
ं द</w> 115675
kashm ir</w> 115544
or i 115474
का ंग्रे 115409
1 1</w> 115260
o b 115246
बा रे</w> 114948
k ar</w> 114916
an ts</w> 114900
वा ल</w> 114684
inclu ding</w> 114684
off ic 114642
l ar 114632
प् त</w> 114474
ic al</w> 114472
li fe</w> 114425
c am 114398
ज ै 114368
me e 114058
distric t</w> 113934
ग ी 113878
fu l</w> 113877
pro vi 113725
व्य व 113696
का र 113686
ता र</w> 113640
un der 113361
अध ्य 113345
वा द</w> 113246
घ ट 113202
p as 112779
मे रे</w> 112712
स् प 112681
pow er</w> 112298
ल ड़ 112226
न गर</w> 112127
in te 112088
नि क</w> 112054
ज ग 111921
an i</w> 111895
ं क</w> 111825
l ine</w> 111806
man ag 111765
य त</w> 111737
k a</w> 111674
or der</w> 111670
माम ले</w> 111617
2 5</w> 111572
t re 111510
s po 111495
te am</w> 111471
ह न</w> 111377
k il 111374
n er</w> 111355
pu r</w> 111345
म े</w> 111309
भ े 111300
इ त 111051
कर ता</w> 110987
n or 110941
य न</w> 110925
bo th</w> 110918
pro jec 110860
त्र ों</w> 110758
por ts</w> 110721
or gan 110598
फ ी</w> 110595
de part 110500
वा ई</w> 110408
am m 110404
om e 110371
ज्या दा</w> 110220
k um 109826
as se 109788
अप ना</w> 109671
च ना</w> 109593
स् त 109475
ण ा</w> 109447
स द 109278
pak istan</w> 109261
c ity</w> 109224
t a</w> 109040
to day</w> 108986
k o 108960
v al 108756
p un 108744
in f 108734
पूर् व</w> 108634
c la 108623
in du 108599
ं त</w> 108582
sel f</w> 108510
कं प 108271
e p</w> 108246
accor ding</w> 108222
इ सी</w> 108182
s ure</w> 108057
र् ड</w> 108001
ह े 107885
th s</w> 107734
pu bl 107635
वर् ष</w> 107442
क्र म</w> 107369
पि छ 107248
आ र 107196
comm it 107173
ad ded</w> 107111
se con 106948
वि द 106926
दि ल्ली</w> 106870
n s</w> 106816
ल ता</w> 106763
an a</w> 106663
ti v 106577
he al 106568
फ े 106494
व ै 106272
रा म</w> 106163
उस की</w> 106158
कांग्रे स</w> 106128
b ers</w> 106087
कर ें</w> 106024
in ve 105898
g ed</w> 105704
per i 105687
th ose</w> 105631
d on</w> 105614
प ढ़ 105528
ध ी</w> 105437
अ भी</w> 105352
त ्य 105142
स् था</w> 104908
stud ents</w> 104577
स ब</w> 104499
bu sin 104480
9 1</w> 104245
कि ए</w> 104082
di d</w> 104015
घ ा 103941
नि या</w> 103901
lo o 103772
pla y 103764
res pon 103608
and s</w> 103538
l ong</w> 103314
9 3</w> 103056
t old</w> 102944
s m 102901
p ur 102871
ज वा 102714
diff e 102677
r is 102649
वि का 102481
f our</w> 102451
v ice</w> 102404
b ri 102351
da ys</w> 102302
b en 102283
डि या</w> 102269
in cre 102263
ne x 102136
इस से</w> 102126
ha r</w> 101966
le ss</w> 101891
cont in 101777
तै या 101771
हि त</w> 101767
प ड़ 101697
ac k 101614
p le</w> 101594
f r 101530
ज रू 101337
c ame</w> 101333
स्थ ि 101333
ve l</w> 101277
जा ती</w> 101251
ट्र े 101241
ं ब 101233
ban k</w> 101233
re qu 101182
च ल</w> 101175
भार तीय</w> 101038
वि भाग</w> 101008
b ar 100906
ग ् 100801
ध ्य 100739
g ar 100552
in t 100410
develop ment</w> 100356
द् ध</w> 100336
is m</w> 100243
प त् 100225
कर ी 100213
प ता</w> 100182
go od</w> 99968
ज र</w> 99956
es s 99928
form er</w> 99800
ध ा</w> 99777
f ul 99745
er ing</w> 99718
ver s 99707
b ro 99562
c c 99517
चुना व</w> 99415
पार् टी</w> 99388
l a</w> 99324
politic al</w> 99307
ग े 99088
शा मिल</w> 99087
फिल् म</w> 98984
t ors</w> 98959
ro ss</w> 98942
स्था न</w> 98907
pri me</w> 98861
inve st 98778
sec ur 98760
ल त</w> 98746
go ing</w> 98726
टी म</w> 98634
य क</w> 98587
in ing</w> 98555
ig n</w> 98337
tak en</w> 98141
हो गी</w> 97997
व ल</w> 97983
अ लग</w> 97918
पा नी</w> 97846
श ी</w> 97841
au th 97817
प्र भा 97616
wa ys</w> 97612
in form 97559
हू ँ</w> 97481
ne ws</w> 97336
nex t</w> 97241
जान कारी</w> 97178
ल ते</w> 97132
: 4 97089
गां व</w> 96990
in ci 96941
जी वन</w> 96893
di d 96823
a k</w> 96762
st o 96635
d a</w> 96634
j e 96570
श र् 96126
t en</w> 96119
व ्या 96113
साम ने</w> 95947
ne ed</w> 95787
ध ि</w> 95751
ब न 95736
se cre 95724
la tion</w> 95694
fi ve</w> 95680
an other</w> 95646
pro te 95631
bu il 95582
ह ै 95529
gro w 95491
आ गे</w> 95424
re le 95379
स्थ ित</w> 95357
ख ो 95295
स ै 95248
म ों</w> 95144
at s</w> 95071
त ब</w> 95061
su m 94993
न् न</w> 94981
pl ace</w> 94942
mu ch</w> 94900
विका स</w> 94707
क् स</w> 94680
सम झ 94480
comp le 94474
s ame</w> 94427
h ol 94290
खिला फ</w> 94228
हो ते</w> 94110
depart ment</w> 93992
कर ो 93941
b re 93939
r ic 93844
ma j 93676
ति क</w> 93664
ए म</w> 93654
mee ting</w> 93602
num ber</w> 93585
ए स</w> 93560
si ve</w> 93520
p en 93462
p le 93419
f ur 93326
as ked</w> 93241
m b 93186
क ता</w> 93125
क् टर</w> 93098
आ ने</w> 93051
धा र</w> 93029
te ch 93024
at ur 92946
kum ar</w> 92789
क्ष ण</w> 92765
to o</w> 92765
p i 92693
k no 92388
w ar</w> 92353
ल ॉ 92159
प ति</w> 92158
e duc 92061
on g 92036
ac tion</w> 92030
जा री</w> 91908
p t</w> 91882
de sh</w> 91766
पा ल</w> 91762
t es</w> 91756
ap pro 91728
ha pp 91635
ए म 91616
hel d</w> 91600
grou p</w> 91525
s it 91464
स भा</w> 91342
comm un 91307
d ra 91268
t ary</w> 91133
श हर</w> 91125
v ari 91081
पू री</w> 90988
secon d</w> 90947
इ से</w> 90882
comm is 90850
त् व</w> 90837
fam ily</w> 90808
घ ो 90787
उ म् 90749
w ater</w> 90630
रा म 90623
1 8</w> 90615
e very</w> 90582
त ह 90554
क म 90449
क् यो 90109
भ र</w> 90083
d n 90069
ल ै 90064
रा ज</w> 90019
bas ed</w> 89974
हमा रे</w> 89917
ex pec 89743
b al</w> 89736
: 0 89538
for m</w> 89531
w rit 89384
भ ो 89272
सु र 89269
gi ven</w> 89249
वा ला</w> 89244
re port</w> 89196
t ting</w> 89170
secur ity</w> 89155
no v 88903
al ity</w> 88850
: 3 88843
b i</w> 88765
ne c 88687
जा ते</w> 88683
hou se</w> 88648
m us 88623
ब न</w> 88621
n am 88562
ला ख</w> 88510
mon e 88493
ण ी</w> 88413
ra tion</w> 88397
इ ला 88263
सा न</w> 88189
read y</w> 88189
he ad</w> 88173
ta in</w> 88171
जा ंच</w> 88151
1 4</w> 87943
कर ण</w> 87889
बा हर</w> 87795
v ir 87700
जू द</w> 87583
pro b 87517
न ्या 87456
r am 87345
al a</w> 87155
स ह 87119
इस में</w> 87119
am ong</w> 87094
: 5 87078
1 6</w> 87051
j un 87028
w in 87016
भा ज 86988
ता ल</w> 86956
र् म</w> 86879
war d</w> 86859
l in 86786
st ing</w> 86780
du e</w> 86646
p at 86526
vil la 86375
ti ce</w> 86327
se e 86284
उन का</w> 86255
in i 86242
com ing</w> 86224
ap pe 86100
s ome 86093
fol low 86083
t est</w> 86035
mar ket</w> 85640
offici als</w> 85567
lead er</w> 85564
त्र ा</w> 85480
re li 85461
ent ly</w> 85447
ब ड़ी</w> 85357
उस ने</w> 85182
p t 85146
दूस रे</w> 85136
त न</w> 85126
फ ी 85126
b er 85057
se ar 85017
al i</w> 85014
ब जे</w> 84805
े गा</w> 84765
ou s 84765
ब ना</w> 84740
अ ग 84679
busin ess</w> 84598
h um 84570
स्कू ल</w> 84494
se ver 84469
ग ठ 84468
medi a</w> 84411
वि शे 84279
s on</w> 84278
9 , 84258
वा स</w> 84149
सा इ 84108
न् द 84016
त ु</w> 84008
र् स</w> 83944
जा ए</w> 83874
पूर् ण</w> 83788
1 8 83752
hel p</w> 83727
विद ्या 83670
pro f 83424
i or</w> 83414
1 3 83404
उ न</w> 83355
करी ब</w> 83319
pro c 83213
cont ro 83153
as ed</w> 83138
ch o 83092
भाज पा</w> 83051
direc tor</w> 83022
ar ly</w> 82970
re ma 82949
fe w</w> 82949
त ो 82915
to p</w> 82911
on al</w> 82906
ज ़</w> 82897
offici al</w> 82885
मै ंने</w> 82799
d h 82654
इस लिए</w> 82651
ti g 82644
ख ़ 82618
ri ght</w> 82498
व ज 82409
रुप ए</w> 82332
issu e</w> 82238
महि ला</w> 82173
en ing</w> 82075
sti ll</w> 82034
प्र ो 81968
1 3</w> 81845
w at 81761
posi tion</w> 81684
क्यो ंकि</w> 81629
la un 81612
धा न</w> 81603
दि ए</w> 81583
लि ये</w> 81571
का न 81557
o th 81554
कह ना</w> 81503
201 9</w> 81461
भा ष 81407
ag ar</w> 81398
ण ा 81384
d ers</w> 81368
र् फ</w> 81300
का फी</w> 81280
,201 9</w> 81264
स्ट े 81251
fo re 81251
ou ght</w> 81247
inter national</w> 81234
th ough</w> 81210
च ित</w> 81186
म त</w> 81109
1 7</w> 81108
ear li 81106
es h</w> 81085
bo dy</w> 81081
st er</w> 80927
पिछ ले</w> 80919
d ri 80865
e qu 80844
p ic 80786
व हीं</w> 80765
ti ci 80764
cl as 80703
to ok</w> 80691
अनु सार</w> 80591
wh e 80577
न ौ 80576
व हां</w> 80532
th in 80416
re sul 80319
ac ross</w> 80311
1 5 80278
gener al</w> 80269
दि खा 80189
आ दि</w> 80108
ं स 80085
centr e</w> 79917
scho ol</w> 79773
b or 79743
k now</w> 79705
य दि</w> 79705
यु क्त</w> 79654
ब ्र 79651
g es</w> 79615
o ver 79589
con stitu 79579
vie w</w> 79560
ब स</w> 79513
c ou 79468
द ों</w> 79366
ज य</w> 79325
हू ं</w> 79236
spe c 79190
1 4 79179
d ly</w> 79028
m en 79021
a il 78918
ख ा</w> 78882
d ent</w> 78873
म त 78871
t al</w> 78864
s r 78862
ंग ी</w> 78858
ट ू 78813
war ds</w> 78801
c ro 78740
बना ने</w> 78737
ण ् 78662
मे री</w> 78638
s our 78618
2 1</w> 78599
के ट</w> 78598
हा ला 78567
आ यो 78554
हा ल</w> 78552
gh ts</w> 78499
ष् ट</w> 78492
g lo 78411
मा ण</w> 78345
chin a</w> 78342
se e</w> 78331
ro ad</w> 78210
सक ती</w> 78178
fi ed</w> 78115
्य ो 78070
ह जार</w> 78018
la kh</w> 78016
या न</w> 78015
जा ना</w> 77989
s ol 77965
ए न 77955
ति यों</w> 77936
sen ior</w> 77925
dec is 77838
our s</w> 77817
pla y</w> 77709
vic es</w> 77675
w ant</w> 77672
m or 77663
in t</w> 77649
2 4</w> 77564
p ed</w> 77564
mon day</w> 77492
a in</w> 77454
are a</w> 77379
जि ला</w> 77361
1 . 77236
h al 77228
heal th</w> 77200
mem bers</w> 77117
t ar 77096
b ha 76933
log y</w> 76931
g and 76907
lead ers</w> 76866
chan ge</w> 76828
l it 76815
दू र</w> 76781
बच्च ों</w> 76692
pu t</w> 76673
य ल</w> 76586
st ates</w> 76552
पो र्ट</w> 76452
प न</w> 76432
ब ह</w> 76400
a j 76398
क् यों</w> 76325
mar ch</w> 76269
न ई</w> 76221
आ या</w> 76207
ला ल</w> 76192
ध ्या 76187
earli er</w> 76164
समा ज</w> 76129
योज ना</w> 76061
publ ished</w> 76056
b est</w> 76042
इस का</w> 75929
so cial</w> 75913
fri day</w> 75906
ho sp 75857
diffe rent</w> 75793
झ ा 75782
b h 75778
w o 75770
comp an 75739
ंद र</w> 75702
करो ड़</w> 75701
1 9</w> 75667
e red</w> 75587
ch ed</w> 75584
रि त</w> 75552
f l 75526
मुख ्य 75428
स्ता न</w> 75393
b al 75381
te e</w> 75366
ann oun 75295
जब कि</w> 75195
en cy</w> 75106
कार्य क्रम</w> 75093
a y 75066
अधि का 75057
d ge</w> 75004
im port 74967
क ौ 74915
b ru 74909
p ing</w> 74875
1 6 74871
स्थि ति</w> 74863
bo o 74820
qu es 74790
ध न</w> 74723
ne e 74640
ने ता</w> 74639
m al 74631
201 4</w> 74613
य ही</w> 74593
re gi 74581
ड ा</w> 74542
बं द</w> 74481
ध ी 74452
प री 74438
अ ला 74435
k han</w> 74323
st er 74320
th ur 74285
स चि 74279
अध्य क्ष</w> 74254
mon th</w> 74206
al leg 74197
il ity</w> 74182
p e</w> 74165
emp lo 74142
t or 74132
शा सन</w> 74067
श्र ी</w> 74065
e ach</w> 74062
क ़ 74059
fur ther</w> 73902
secre tary</w> 73900
उस का</w> 73870
जि स</w> 73855
परि वार</w> 73787
ist s</w> 73741
भा व 73735
tr a</w> 73658
न ल</w> 73632
ग ं 73628
s am 73530
al ong</w> 73437
pol ic 73388
ज हां</w> 73321
centr al</w> 73317
f ound</w> 73221
c ul 73207
जग ह</w> 73206
ए क् 73197
d en 73189
र ह</w> 73132
इ स् 73001
च े</w> 72998
को र्ट</w> 72998
ल ू 72966
ब ड़े</w> 72932
u ary</w> 72928
राज नी 72919
ड ॉ</w> 72915
च ो 72863
tu esday</w> 72854
sever al</w> 72796
व्य क्ति</w> 72750
f er 72724
dre n</w> 72688
नि का 72679
sa b 72674
chil dren</w> 72631
नि क 72618
tim es</w> 72612
ख् या</w> 72610
च र् 72580
स् वी 72465
2 2</w> 72405
गि र 72401
in stitu 72263
p al</w> 72226
d ra</w> 72180
dec ember</w> 72124
दर् ज</w> 72079
la w</w> 72077
fin an 71935
jan uary</w> 71885
j amm 71847
or ity</w> 71840
con cer 71833
e f 71808
mak ing</w> 71787
ला ई</w> 71738
1 7 71620
ंग ा 71618
dn esday</w> 71610
pers on</w> 71600
ar ing</w> 71592
ं बर</w> 71561
राष्ट्र ीय</w> 71507
s day</w> 71503
il i 71449
दि नों</w> 71378
बे ह 71360
ंद ्र 71342
un ion</w> 71334
in st 71313
c el 71310
pl an 71282
r un 71262
व री</w> 71151
with out</w> 71147
we dnesday</w> 70993
सु बह</w> 70987
o wn</w> 70880
ट ो 70861
jamm u</w> 70844
कार् य</w> 70828
प्र का 70778
अ म 70733
दर् शन</w> 70709
mon ths</w> 70661
elec tions</w> 70608
ste m</w> 70588
ब ा</w> 70570
thur sday</w> 70567
पू छ 70551
cal led</w> 70545
दु निया</w> 70517
re por 70504
a i 70436
cla im 70362
प रे 70346
ंग ा</w> 70296
अ न 70200
wee k</w> 70184
वि रो 70162
pl ac 70128
li m 70091
educ ation</w> 70075
स ड़ 69977
201 8</w> 69972
लो क 69888
पू रा</w> 69843
म द 69828
v in 69786
en ded</w> 69722
sup port</w> 69647
de p 69599
st and 69588
तैया र</w> 69417
as on</w> 69342
म क</w> 69340
asse mb 69323
de f 69299
जी त</w> 69298
ग ै 69289
bo ard</w> 69131
खु द</w> 69080
ह ों</w> 69007
rec ei 68948
lo ok</w> 68943
de ci 68852
स ौ 68755
ra m</w> 68732
se en</w> 68700
re la 68673
ri l</w> 68650
अला वा</w> 68644
इ न् 68627
vari ous</w> 68585
आ व 68582
grow th</w> 68496
रह ने</w> 68435
मुख्य मंत्री</w> 68400
4 0</w> 68383
g ir 68371
mil lion</w> 68320
vers ity</w> 68315
elec tion</w> 68302
ex pres 68278
l an 68250
g ot</w> 68249
wor k 68229
आ ए</w> 68225
हा थ</w> 68176
2 3 68149
घट ना</w> 68139
sou th</w> 68122
sy stem</w> 68012
ब ल् 67998
po sed</w> 67962
क ैसे</w> 67950
अधि कारी</w> 67868
वा न</w> 67837
ल ू</w> 67829
1 00</w> 67793
आप को</w> 67694
rec or 67651
off ice</w> 67588
मे रि 67503
य ो</w> 67482
a z 67449
ड ॉ 67425
t el 67419
व्यव स्था</w> 67324
ic ket</w> 67293
ad v 67249
तु म</w> 67196
commit tee</w> 67191
ट न</w> 67125
यु व 67123
आ ं 67089
द र 67077
सं ख्या</w> 67066
pra desh</w> 67056
le ft</w> 67024
न ही</w> 67006
m a</w> 66979
ह ी 66917
gand hi</w> 66912
si ble</w> 66907
र् थ</w> 66884
g ur 66869
s k 66860
mone y</w> 66801
सद स् 66731
अ स्प 66673
l at 66672
sho w</w> 66667
ac coun 66658
ल ु 66636
ser vices</w> 66624
bo ok</w> 66606
he ad 66600
tr u 66586
sa y</w> 66543
pt ember</w> 66499
re tur 66451
व ृ 66423
जि त</w> 66422
jun e</w> 66408
ब ल</w> 66383
ren ce</w> 66366
201 7</w> 66332
ऐ सी</w> 66276
po pu 66162
शर् मा</w> 66145
m as 66144
के वल</w> 66111
लग े</w> 66053
ह ा</w> 66032
सि र्फ</w> 66027
se ptember</w> 65953
c tion</w> 65948
ह में</w> 65929
बैठ क</w> 65927
tak ing</w> 65903
can did 65729
com es</w> 65656
assemb ly</w> 65631
निर् माण</w> 65626
मुख ्य</w> 65579
s ci 65546
i z 65545
prob le 65450
w al</w> 65426
ब र 65401
su cc 65381
c us 65378
प्र ति</w> 65367
पा ंच</w> 65355
j us 65349
me dic 65300
ju ly</w> 65297
l ater</w> 65221
ch ang 65218
a ir</w> 65204
मा ंग</w> 65200
स फ 65170
pri v 65130
mus li 65083
मं दि 65040
le vel</w> 65017
त् य</w> 65015
o m</w> 64993
मे ंट</w> 64968
ad d 64907
si x</w> 64900
be li 64897
रुप ये</w> 64841
ap ril</w> 64823
b ra 64816
h y 64805
जन ता</w> 64793
to ber</w> 64775
दे ते</w> 64731
be g 64692
शि क्षा</w> 64621
wh y</w> 64555
stat ement</w> 64516
i de 64511
sab ha</w> 64489
wor king</w> 64457
en s</w> 64453
ल ो</w> 64419
ह र 64390
acc used</w> 64363
भा ई</w> 64351
कर ती</w> 64329
or t</w> 64294
h it</w> 64286
d r</w> 64273
अ मेरि 64266
sec tor</w> 64257
reg ist 64257
p ast</w> 64255
उ ठा 64245
कु ल</w> 64193
h and 64182
प्र कार</w> 64158
oc tober</w> 64139
m en</w> 64136
al ready</w> 64098
j an</w> 64021
tech no 63988
लि क</w> 63985
न व 63953
त ्या 63898
स हा 63879
n at 63873
सा मा 63871
star ted</w> 63869
द न</w> 63848
pe ti 63840
spe cial</w> 63826
नी य</w> 63770
बं ध</w> 63746
प त्र</w> 63638
ट् स</w> 63595
an y 63561
मा ल</w> 63498
ग म</w> 63462
compan ies</w> 63443
oth ers</w> 63413
स् तर</w> 63378
t ro 63368
ini ti 63360
a way</w> 63357
ड ् 63327
po st</w> 63319
सु न 63247
म चा 63233
श्र ी 63233
c o</w> 63147
pro gr 63147
201 5</w> 63130
ले ने</w> 63087
लग ता</w> 63044
जिस में</w> 62997
ke ts</w> 62938
offic er</w> 62938
projec t</w> 62928
e ver 62910
ड ल</w> 62852
क हीं</w> 62661
f ar</w> 62561
au gu 62534
m ent 62505
b ur 62448
gi ve</w> 62426
देख ा</w> 62420
il ed</w> 62410
को शि 62401
ध ु 62394
पा कि 62353
b an</w> 62344
so on</w> 62335
हो ना</w> 62309
do c 62220
2 3</w> 62203
कंप नी</w> 62170
व ो 62144
as soci 62138
ex am 62109
nov ember</w> 62101
च ी</w> 62093
minist ry</w> 62085
sun day</w> 62082
s atur 62060
li ght</w> 62012
bru ary</w> 61987
वा सी</w> 61969
loc al</w> 61864
क द 61775
कि त 61760
w ing</w> 61734
th ir 61688
do es</w> 61685
2 . 61606
p ho 61576
augu st</w> 61575
र् य</w> 61559
मौ त</w> 61548
इस की</w> 61505
decis ion</w> 61460
fe bruary</w> 61399
ज ों</w> 61395
रि क</w> 61389
cor por 61353
si ons</w> 61341
र ं 61323
mil it 61323
uni versity</w> 61279
मि ला</w> 61278
र वि 61259
um p</w> 61252
च ै 61231
रि या</w> 61216
t le</w> 61215
ट ल</w> 61185
ल ौ 61028
re sear 60931
are as</w> 60919
mu st</w> 60901
y oun 60886
n a</w> 60876
ल र</w> 60876
प्र ि 60810
pres ent</w> 60794
cle ar</w> 60768
bi g</w> 60757
ग र् 60741
सम स् 60732
ज्ञा न</w> 60714
en ed</w> 60709
ever y 60685
u al</w> 60515
ha m 60467
ण ों</w> 60449
पि ता</w> 60405
l y 60384
vis ion</w> 60369
h er 60362
ज ल् 60357
be come</w> 60341
वा लों</w> 60338
ल कर</w> 60228
मह ी 60205
b s</w> 60140
tri es</w> 60139
आरो प</w> 60127
ar t</w> 60050
जाए गी</w> 60038
व ों</w> 60010
कह ते</w> 60002
satur day</w> 59969
ला ने</w> 59942
inv es 59927
महि ला 59893
polic y</w> 59856
ad minist 59855
finan cial</w> 59788
बा इ 59768
on es</w> 59735
pl ic 59728
प्रा प्त</w> 59699
ज न् 59693
maj or</w> 59621
ta x</w> 59599
वज ह</w> 59579
ू न</w> 59578
id enti 59503
qu ar 59478
cas es</w> 59428
f arm 59422
त्र ा 59384
m it 59364
m ul 59360
bet ter</w> 59330
बा त 59285
d om 59249
w on</w> 59199
2 6</w> 59167
कर के</w> 59167
di tion</w> 59131
sch em 59126
स ही</w> 59087
मो दी</w> 59013
अस्प ताल</w> 58954
d ar 58936
si on 58934
cap ital</w> 58901
s ar 58851
issu es</w> 58800
ब ॉ 58787
ja b</w> 58741
ch all 58731
न ए</w> 58721
ट र 58702
2 8</w> 58698
ph one</w> 58643
bu d 58588
आ म</w> 58546
मंदि र</w> 58538
us ing</w> 58527
ve ly</w> 58501
पह ली</w> 58469
u ation</w> 58435
बि ना</w> 58426
जि न 58366
मे रा</w> 58318
म ंग 58317
श ब् 58274
ab ility</w> 58270
a h 58259
ल ब</w> 58247
ब ड़ा</w> 58218
क ल् 58155
सं स् 58149
d one</w> 58119
inves tig 58119
str y</w> 58092
हि स् 58026
त ौर</w> 57967
con duc 57931
तह त</w> 57925
n ess</w> 57914
u r</w> 57908
m ember</w> 57880
ट ों</w> 57859
ch es</w> 57847
c ent 57835
ग यी</w> 57831
या ँ</w> 57822
घ ं 57813
glo bal</w> 57748
दे ख</w> 57744
201 6</w> 57740
प क 57694
w al 57676
न् द्र</w> 57664
ab ad</w> 57656
मि क</w> 57641
पु रा 57638
with in</w> 57580
thin k</w> 57552
col lec 57508
u res</w> 57466
op en</w> 57439
अ फ 57376
सू चना</w> 57361
प ्या 57346
d r 57334
रख ा</w> 57308
अच्छ ा</w> 57284
ड र</w> 57281
v el 57248
मु ख</w> 57233
l ot</w> 57220
ब ू 57201
ac tor</w> 57196
it ing</w> 57166
mo ve</w> 57153
proc ess</w> 57093
i p 57070
b at 57066
हाला ंकि</w> 57065
ye t</w> 57030
मौ के</w> 57030
m ed</w> 57009
d ata</w> 56993
ल ना</w> 56990
ल ं 56951
i m</w> 56940
fo od</w> 56864
arm a</w> 56802
वि ष 56796
सुर क्षा</w> 56796
ग ढ़</w> 56779
े ंगे</w> 56775
h ist 56769
आ द 56764
ल ती</w> 56708
f el 56700
ru n</w> 56682
शि का 56682
res pec 56665
w in</w> 56553
ा ई</w> 56528
ला इ 56519
1 , 56490
के ंद्र</w> 56453
inform ation</w> 56437
2 7</w> 56408
ठ ी 56353
उम् मी 56346
का न</w> 56319
er g 56271
करे ंगे</w> 56237
मि ली</w> 56176
n on</w> 56056
म ृ 56045
भ ु 56028
y ou 56024
ac y</w> 56019
अ स 56017
e d 55992
c ra 55967
तु म् 55954
19 9 55917
em s</w> 55890
ज ल</w> 55871
मि त</w> 55817
re sted</w> 55811
उ द 55807
import ant</w> 55787
ष् ठ</w> 55768
ak e</w> 55730
ज य 55727
पी छ 55722
coun tries</w> 55714
b har 55657
a p</w> 55655
ce le 55636
भ व</w> 55621
e st 55591
cha ir 55585
indu stry</w> 55581
pun jab</w> 55566
201 3</w> 55502
a th 55476
ध र</w> 55474
स वाल</w> 55470
ni ght</w> 55398
hosp ital</w> 55397
as h</w> 55350
र ने</w> 55335
star t</w> 55307
दा री</w> 55292
econom ic</w> 55273
हि ं 55268
भि न्न</w> 55249
ध्या न</w> 55237
ले ज</w> 55196
de sig 55190
व ि</w> 55170
,201 8</w> 55164
क हा 55118
ser vice</w> 55100
प त्र 55096
श ्य 55082
st a 55071
टि ंग</w> 55049
कर् मचा 55047
ल गी</w> 55021
de li 55021
ex p 55007
fac e</w> 55001
8 , 54959
e ty</w> 54953
प्र या 54947
ne ver</w> 54926
s s 54908
h and</w> 54845
कार ्र 54809
थ ो 54798
रि पोर्ट</w> 54782
जा य 54730
वर् ष 54727
st re 54701
ti ves</w> 54610
बि क</w> 54573
ष ण</w> 54561
le t</w> 54501
li am 54488
अ ति 54437
ह े</w> 54425
य र 54349
विशे ष</w> 54284
च ला</w> 54214
h ic 54150
बि ज 54112
b eng 54109
पू रे</w> 54083
i red</w> 54081
eff ec 54038
spe ak 54027
ke y</w> 54017
a tive</w> 53910
ate g 53876
col le 53868
av ail 53838
ल क</w> 53766
भ ग 53730
न् य</w> 53730
ma in 53709
6 0</w> 53687
कार्र वाई</w> 53681
वे श</w> 53673
li ke 53664
क वि 53657
ले ख 53642
re f 53628
in e 53597
h im 53576
co m</w> 53556
आ धार</w> 53548
fr on 53519
con nec 53518
म न 53452
ट ै 53435
मु ता 53419
तर फ</w> 53417
न जर</w> 53394
य म</w> 53364
ro le</w> 53342
i an</w> 53312
क्रि या</w> 53266
mat ch</w> 53265
फ ़</w> 53223
si st 53136
vi ol 53119
on ce</w> 53117
priv ate</w> 53117
3 0 53114
क ट</w> 53008
कोशि श</w> 52998
fore ign</w> 52997
फै स 52991
ख री 52959
शि क्ष 52955
ह ् 52952
भा व</w> 52908
re ad</w> 52887
contin u 52845
त र् 52837
poin t</w> 52833
त म</w> 52792
श ं 52790
il s</w> 52762
u tion</w> 52758
y ed</w> 52757
उप ल 52729
gre at</w> 52685
ag ain</w> 52671
ti z 52665
cr icket</w> 52618
प्र धा 52603
सचि व</w> 52573
उ ठ 52555
dis cus 52529
v al</w> 52516
घो ष 52507
st and</w> 52474
pa ti 52463
सं बंध 52391
गी त</w> 52371
त् या</w> 52357
o g 52338
bj ec 52334
जि ले</w> 52332
ve hic 52305
de n</w> 52301
ha ving</w> 52270
ठी क</w> 52264
स हित</w> 52252
al ways</w> 52215
द ृ 52209
se s 52208
n ar 52195
अधिका रियों</w> 52190
आप के</w> 52119
बच्च े</w> 52089
ex peri 52071
ag es</w> 52062
त री 52057
ate ly</w> 52018
सर कारी</w> 51965
to tal</w> 51960
5 00</w> 51939
ti ll</w> 51931
य द</w> 51908
य हाँ</w> 51891
का ल</w> 51828
follow ing</w> 51813
pp ed</w> 51803
या लय</w> 51772
u n</w> 51745
cam pa 51744
त् व 51725
fi el 51703
ला इन</w> 51684
expec ted</w> 51671
,201 9, 51670
kno wn</w> 51664
mat ter</w> 51656
t our 51641
r ate</w> 51612
tr ump</w> 51612
con struc 51560
t d</w> 51491
ren dra</w> 51436
द ल</w> 51422
लि त</w> 51396
दूस री</w> 51396
e as 51381
thir d</w> 51378
बै ंक</w> 51371
n ers</w> 51293
l am 51285
b all</w> 51186
pres en 51154
de ta 51143
w an 51139
pr ic 51125
ग ये</w> 51105
fin al</w> 51098
inv ol 51096
ci es</w> 51086
ben ef 51084
चु के</w> 51057
वि त</w> 51050
le y</w> 50977
z e</w> 50970
w est</w> 50949
sa ying</w> 50937
d ro 50932
sh arma</w> 50927
er ic 50926
im pro 50870
comp la 50870
घ ु 50847
t y 50828
villa ge</w> 50824
gar h</w> 50804
o w 50793
र न</w> 50786
मुता बिक</w> 50757
f ree</w> 50706
di tional</w> 50705
द र</w> 50691
मी डिया</w> 50643
ष् ट 50637
हि न् 50631
h op 50542
खे ल</w> 50499
ना ओं</w> 50497
re l 50469
i ons</w> 50440
से वा</w> 50439
जा ग 50437
wo od</w> 50425
d in 50408
वि चार</w> 50393
हो ंगे</w> 50344
ser ies</w> 50328
b ir 50289
पाकि स्तान</w> 50268
2 9</w> 50261
वा ह</w> 50252
त् ता</w> 50143
अ क् 50138
या द 50104
ous ly</w> 50100
techno logy</w> 50087
w ent</w> 50078
भ ग</w> 50062
मी न</w> 50049
ती स 50039
like ly</w> 49995
lo k</w> 49939
भ ्र 49933
पीछ े</w> 49917
प ट 49895
मौ जूद</w> 49887
7 0</w> 49885
al e</w> 49861
kil led</w> 49857
v i</w> 49853
शा म</w> 49842
de red</w> 49829
उपल ब् 49829
वा प 49800
लग भग</w> 49780
ar my</w> 49764
jus tice</w> 49684
2 5 49680
ex ec 49666
to wards</w> 49653
र ु</w> 49644
m un 49608
या द</w> 49554
ड े</w> 49524
बा जार</w> 49521
ch e 49517
भाष ा</w> 49511
mis sion</w> 49510
fac t</w> 49509
च ू 49506
प ड़ा</w> 49498
ले ं</w> 49481
प द</w> 49415
गिर फ् 49320
j our 49317
थ ीं</w> 49288
al li 49284
ne ar</w> 49198
ur y</w> 49188
स्था प 49148
st or 49145
रा य 49110
wom an</w> 49079
मा ना</w> 49059
या त्रा</w> 48977
e u 48955
उत् तर</w> 48923
ag o</w> 48904
vi de 48896
र ै 48824
ir e</w> 48758
कृ ति</w> 48674
ori ties</w> 48668
ter r 48658
रा ब</w> 48656
सा हि 48631
p tion</w> 48623
सड़ क</w> 48603
e ve</w> 48580
hal f</w> 48557
g ame</w> 48526
दु र् 48487
le ast</w> 48480
सं गठ 48473
श त</w> 48452
सा ं 48445
am eric 48434
विरो ध</w> 48367
de ath</w> 48352
manag ement</w> 48347
th re 48331
in es</w> 48311
r s 48308
स् तु 48297
20 20</w> 48238
का रों</w> 48224
lar ge</w> 48206
announ ced</w> 48200
o s</w> 48188
st ation</w> 48107
d am 48104
ju d 48094
ol s</w> 48074
वि भिन्न</w> 48058
y an 48054
उ सी</w> 48031
नि गम</w> 47973
ul t</w> 47928
माम ला</w> 47914
ज़ ा 47910
writ ten</w> 47910
व त</w> 47905
vis it</w> 47897
v ers</w> 47893
स ों</w> 47892
att ack</w> 47884
ti s 47880
बढ़ ा 47872
sit uation</w> 47857
sp ite</w> 47848
प क्ष</w> 47815
स मि 47795
n u 47790
इत ना</w> 47736
par ties</w> 47735
si c</w> 47725
w il 47703
commis sion</w> 47694
sh e 47689
di es</w> 47675
par liam 47618
e ws</w> 47591
आ त् 47500
l td</w> 47479
al y 47446
ic s</w> 47424
ष् य</w> 47422
विद्या लय</w> 47402
de mo 47382
ट ो</w> 47347
फो न</w> 47307
मि लने</w> 47303
f oun 47268
दे ं</w> 47267
मद द</w> 47211
v ol 47161
contro l</w> 47154
na rendra</w> 47130
बना या</w> 47121
प्रधा न 47104
m i</w> 47099
हो कर</w> 47099
fe rence</w> 47092
शा दी</w> 47084
m r</w> 47062
प्र मुख</w> 47061
re sid 47053
b ed</w> 47041
pl an</w> 47014
ध े</w> 46950
आ तं 46882
ग ौ 46865
ग्रा म</w> 46862
ड़ ों</w> 46860
चाह ते</w> 46839
pa ren 46790
sour ces</w> 46775
य ता</w> 46766
th ings</w> 46766
gr ound</w> 46686
op position</w> 46666
e ver</w> 46636
leg al</w> 46633
clo se</w> 46592
bil ity</w> 46580
deci ded</w> 46576
w ed</w> 46545
alleg ed</w> 46545
tr ac 46540
su pre 46535
f es 46526
स् ट्र 46503
n ame</w> 46501
201 2</w> 46501
inte rest</w> 46487
is ing</w> 46472
प्र शासन</w> 46467
sha h</w> 46467
rec ently</w> 46405
ke ep</w> 46404
N ews</w> 46358
me et</w> 46349
par tici 46348
मा ध्य 46337
सम र्थ 46337
m ur 46317
t an 46316
ह रा 46307
ति हा 46269
विश् व 46267
er y</w> 46248
फ ू 46220
er ship</w> 46190
ag re 46175
cur ren 46173
terr or 46165
sc ri 46155
is ation</w> 46153
pr ice</w> 46111
परे शा 46097
progr am 46080
for ce</w> 46069
आ वा 46055
दे र</w> 46050
ma har 46041
फ़ ि 46013
जवा ब</w> 46005
स के</w> 45996
2 4 45985
ल क्ष 45963
स्ट ा 45950
medic al</w> 45924
repor ted</w> 45894
di g 45892
re al</w> 45867
मही ने</w> 45853
u tt 45813
ne t</w> 45811
hum an</w> 45811
े गी</w> 45804
ची न</w> 45798
ti al</w> 45790
de al</w> 45760
नि यों</w> 45749
पा र</w> 45735
देश ों</w> 45672
de b 45666
जिस से</w> 45643
रह ते</w> 45625
त ृ 45575
lo ve</w> 45571
बल् कि</w> 45525
शा यद</w> 45517
सा ह 45469
ठ ी</w> 45459
ब् लॉ 45446
म ना 45418
high er</w> 45362
ap poin 45358
ड ो 45334
g am 45310
च लते</w> 45299
em ents</w> 45263
g er</w> 45260
le ar 45231
k in 45202
ar rested</w> 45202
en sure</w> 45199
गु रु 45171
ह रि 45146
commun ity</w> 45143
अ र् 45102
o t 45088
d es</w> 45047
b ab 45036
ic k</w> 45005
हमा री</w> 45003
en ds</w> 44983
n ation</w> 44982
प्रया स</w> 44952
गां धी</w> 44944
pro mo 44939
su pp 44878
अच्छ ी</w> 44870
d on 44868
दे व</w> 44863
देख ने</w> 44781
fir e</w> 44774
go a</w> 44708
याद व</w> 44698
tra de</w> 44692
19 8 44683
पत् नी</w> 44656
चु की</w> 44639
provi de</w> 44631
dem and</w> 44623
me an 44619
3 1</w> 44602
प्रधान मंत्री</w> 44590
co st</w> 44583
exec u 44552
t ou 44538
bil lion</w> 44516
ब ह 44488
क ल 44487
rec ent</w> 44458
sm all</w> 44452
st u 44413
क ह</w> 44393
यो ग 44381
de spite</w> 44380
न र</w> 44346
200 9</w> 44344
s il 44313
मा ं</w> 44301
s ent</w> 44286
b ol 44270
to ge 44270
बिज ली</w> 44264
दे ना</w> 44227
fu ture</w> 44224
ब े</w> 44211
ं सी</w> 44150
ci tiz 44149
v ement</w> 44148
al le 44105
जा न</w> 44071
l ist</w> 44029
ev ent</w> 44024
ti vely</w> 44011
श री 44010
avail able</w> 43947
s co 43913
न ्यू 43880
sh ar 43865
farm ers</w> 43857
j ar 43827
ear ly</w> 43800
toge ther</w> 43770
शिका यत</w> 43711
whe ther</w> 43709
ge tting</w> 43707
चर् चा</w> 43686
d ou 43623
in ation</w> 43599
मि ले 43588
भा ग 43562
an ti</w> 43509
राज ्य 43494
पहुंच े</w> 43493
म नो 43375
मु द् 43373
h on 43355
h ours</w> 43339
कर वा 43304
sh are</w> 43295
pers on 43294
min u 43293
ध र्म</w> 43286
जिस के</w> 43262
जरू रत</w> 43244
ला या</w> 43239
उ पा 43232
un ited</w> 43225
fin ance</w> 43210
श ि</w> 43200
h an 43188
k es 43176
ach ed</w> 43142
program me</w> 43141
र ो</w> 43119
लिख ा</w> 43086
resear ch</w> 43056
struc ture</w> 43043
st ar</w> 43027
श् वर</w> 43022
m er 43012
201 1</w> 43010
c y 43005
le ad</w> 42993
रख ने</w> 42993
से ना</w> 42979
आव श्य 42972
ल वार</w> 42962
कि ल</w> 42962
n al</w> 42933
2 6 42931
dep end 42885
ना थ</w> 42861
nor th</w> 42826
l i</w> 42796
recei ved</w> 42794
ban g 42727
महिला ओं</w> 42700
s ports</w> 42665
for ces</w> 42662
l er</w> 42600
ग्रा मी 42593
कौ न</w> 42565
सम झ</w> 42551
सो म 42546
द ्र 42525
for man 42524
आ र</w> 42507
नि वासी</w> 42503
वा दी</w> 42462
at or</w> 42432
spe ci 42430
वर् ग</w> 42424
pro mis 42423
श् य</w> 42418
b s 42405
ख ों</w> 42371
ful l</w> 42350
regi on</w> 42350
घं टे</w> 42349
su ff 42336
ता न</w> 42328
lo st</w> 42323
chair man</w> 42293
ब ने</w> 42291
प्रति शत</w> 42286
t am 42283
play ed</w> 42280
0 . 42272
m id 42267
प्र दर्शन</w> 42252
m p</w> 42209
per forman 42189
दर् श 42189
att ac 42186
colle ge</w> 42181
म गर</w> 42174
de ep</w> 42167
छ ु 42118
त य</w> 42114
can not</w> 42105
indu stri 42089
समि ति</w> 42087
लगा या</w> 42055
au str 42050
पं चा 42025
i al</w> 42017
im ple 41977
tion ed</w> 41965
si mil 41963
fin d</w> 41946
ह री</w> 41942
st e</w> 41925
austr ali 41924
l ate</w> 41923
दि ल</w> 41915
h un 41873
थ ि 41864
से ं 41833
परी क्षा</w> 41824
t on</w> 41803
supre me</w> 41767
wor ks</w> 41759
उत् पा 41751
issu ed</w> 41745
दि व 41738
th er 41696
ह त्या</w> 41695
रा स् 41688
त ः</w> 41645
f lo 41600
ब चा 41583
soci ety</w> 41568
ly wood</w> 41474
स दी</w> 41456
k er 41444
hin d</w> 41435
न ै 41412
fron t</w> 41408
aff ec 41398
ज मीन</w> 41378
प् प 41366
f re 41312
offic ers</w> 41305
nee ds</w> 41244
youn g</w> 41238
न ि</w> 41224
उ द् 41222
आरो पी</w> 41206
ब र् 41198
mar k</w> 41192
3 . 41187
फ ु 41185
char ge</w> 41145
cri tic 41133
be l 41103
आयो जित</w> 41100
st om 41090
कॉ लेज</w> 41081
सि ल</w> 41074
स्वा स्थ 41073
a v</w> 41072
बंध न</w> 41058
ch ing</w> 41042
commis sion 41042
ne w 40996
res er 40979
t om 40977
administ ration</w> 40965
d ence</w> 40919
k an 40917
201 0</w> 40889
fa ther</w> 40882
y ment</w> 40877
pr ac 40868
जब ू 40858
contin ue</w> 40852
रो ड</w> 40851
दे ता</w> 40845
ऊ पर</w> 40815
म जबू 40812
w r 40794
ex ten 40793
im p 40778
op s</w> 40772
श नि 40729
d u</w> 40727
b es 40727
मा री</w> 40714
econom y</w> 40704
s cre 40698
str ong</w> 40698
प्र सा 40697
ri ed</w> 40669
ve red</w> 40643
प्र ी 40602
invest ment</w> 40600
आ देश</w> 40586
7 , 40574
जि क</w> 40569
s w 40547
ma d</w> 40527
जि से</w> 40522
चु का</w> 40518
ke e 40476
ध ् 40474
p ay</w> 40435
me as 40433
क् ति 40431
inci dent</w> 40426
सा त</w> 40410
स प् 40397
s on 40396
आद मी</w> 40395
st ory</w> 40359
clas s</w> 40349
सोम वार</w> 40330
रह ता</w> 40322
reg ul 40317
te le 40302
p al 40278
न ंबर</w> 40263
en ding</w> 40262
ac hi 40252
सं बंध</w> 40222
id es</w> 40219
ri ghts</w> 40169
ख ू 40163
उस से</w> 40151
पु र 40144
vic ti 40134
j ay</w> 40110
s qu 40089
ban ks</w> 40088
sp ace</w> 40028
do ing</w> 39971
अमेरि का</w> 39968
वाप स</w> 39955
en ces</w> 39939
र ण 39938
r i</w> 39927
र ंग</w> 39919
peri od</w> 39887
at ors</w> 39876
in agar</w> 39869
campa ign</w> 39857
fo c 39853
स्वास्थ ्य</w> 39844
क्ष ा 39832
fe at 39830
con si 39827
c up</w> 39809
ha l</w> 39809
en vir 39770
ta in 39743
poin ts</w> 39730
pu l 39726
शु क्र 39719
c ing</w> 39717
फ र 39711
reli gi 39697
श्र े 39689
ले ख</w> 39686
गु ज 39639
ग ण 39626
ter m</w> 39622
स ल 39599
r us 39582
आ इ 39545
प सं 39542
ad e</w> 39536
al low 39534
नी चे</w> 39504
ro r</w> 39489
stud y</w> 39466
st oc 39464
g a</w> 39462
m ag 39453
पह चा 39444
di t</w> 39426
द् धा 39425
ne t 39405
claim ed</w> 39396
envir on 39371
त्र ि 39366
pos sible</w> 39362
c are</w> 39355
pol ls</w> 39349
incre ase</w> 39334
पहु ंच</w> 39323
ac tiv 39321
a head</w> 39316
con sum 39282
ash tra</w> 39266
b loc 39252
20 0</w> 39226
मा र 39178
मु ंब 39170
8 0</w> 39145
sh i</w> 39145
c all</w> 39140
c ru 39128
op port 39122
g t</w> 39077
ne l</w> 39068
ful ly</w> 39066
se ats</w> 39054
am s</w> 39052
h at 39036
विश् व</w> 39026
जि म् 39024
उपलब् ध</w> 38988
buil ding</w> 38977
schem e</w> 38970
ch ec 38965
lit tle</w> 38962
क ला 38929
projec ts</w> 38884
ch and 38847
ब ्रा 38795
गं भी 38760
t ory</w> 38752
su per 38736
व ीं</w> 38711
pa red</w> 38708
h old</w> 38677
मि ले</w> 38675
रा शि</w> 38654
hu l</w> 38646
work ers</w> 38644
th an 38641
र् म 38641
mo vi 38641
देख ते</w> 38626
ग्र ी</w> 38586
कद म</w> 38537
दी प</w> 38528
as sa 38525
i ous</w> 38521
सं घ</w> 38515
g ing</w> 38505
ad ding</w> 38498
ex per 38485
बि हार</w> 38455
de e 38451
आ ते</w> 38448
br ing</w> 38433
बा व 38414
cour se</w> 38412
sr inagar</w> 38406
be hind</w> 38397
200 8</w> 38383
se ven</w> 38362
न रे 38350
res ol 38348
loo king</w> 38339
ci ally</w> 38338
स्ट र</w> 38332
you th</w> 38275
bi gg 38260
comm er 38258
ड़ ने</w> 38249
कर े</w> 38234
त क 38227
स द</w> 38209
ह ॉ 38203
auth orities</w> 38196
di st 38188
उप योग</w> 38174
ते माल</w> 38171
vide o</w> 38165
m and 38158
cur rent</w> 38147
al most</w> 38125
लगा तार</w> 38116
cu stom 38066
tu res</w> 38061
क त</w> 38059
विधा न 38049
gh ter</w> 38010
ए ल</w> 37995
ra il 37990
se ason</w> 37984
pric es</w> 37973
some thing</w> 37954
शुक्र वार</w> 37937
re ports</w> 37924
chil d</w> 37923
त् त</w> 37920
कृ त</w> 37913
fic ation</w> 37895
ह रा</w> 37873
t v</w> 37870
कर ी</w> 37862
re ven 37850
j i</w> 37843
emplo ye 37806
ci vi 37776
ad s</w> 37760
कृ ष् 37749
am oun 37743
बु ध 37740
मुंब ई</w> 37732
cha mp 37731
उ ल् 37720
मा ता</w> 37717
3 5</w> 37707
c k</w> 37699
कि ंग</w> 37697
f av 37695
दे वी</w> 37676
s mar 37663
श ल</w> 37648
a w 37634
त ला 37633
आ ता</w> 37606
इस् तेमाल</w> 37593
वा स्त 37580
ब ढ़</w> 37567
ap plic 37565
शनि वार</w> 37544
सम ी 37539
समस् या</w> 37508
ar ti 37486
हिं दी</w> 37448
y ad 37422
ag ed</w> 37418
सि टी</w> 37400
आ खि 37392
रवि वार</w> 37308
माध्य म</w> 37303
st ra 37244
i ght</w> 37232
for t 37223
डि यो</w> 37210
ए क 37195
व क्त</w> 37194
f ar 37191
t on 37173
के ंद्र 37171
भग वान</w> 37150
ं क 37145
c ir 37118
ab ly</w> 37111
इं टर 37110
मै च</w> 37100
ses sion</w> 37097
scho ols</w> 37096
मंग लवार</w> 37089
अव सर</w> 37088
ष्ट ि</w> 37085
पा या</w> 37084
on line</w> 37081
आप की</w> 37029
ap p 37023
7 . 37018
व ैसे</w> 37004
r ing</w> 36993
de pu 36986
c t</w> 36976
छो टे</w> 36962
आ ती</w> 36961
m es 36942
जा म</w> 36907
musli m</w> 36896
p ti</w> 36895
or ts</w> 36887
ge ts</w> 36884
an aly 36860
res h</w> 36819
नि श् 36800
ri bu 36783
ci l</w> 36771
बुध वार</w> 36755
an ces</w> 36753
b lo 36748
जि न् 36743
ti sh</w> 36741
प क</w> 36730
de cl 36692
ब्र ि 36688
पे श</w> 36668
वा र् 36665
mo ther</w> 36661
out side</w> 36647
प्रका श</w> 36644
bud get</w> 36634
य ू</w> 36613
rele ased</w> 36601
त् मक</w> 36598
laun ched</w> 36584
रि श</w> 36562
b ill</w> 36559
प्र योग</w> 36541
g ri 36524
ac ce 36516
o il</w> 36496
बो र्ड</w> 36490
ju n</w> 36487
उ च् 36486
य ं 36476
rele ase</w> 36475
कहा नी</w> 36475
v ar 36470
का ं 36444
me d 36436
ab l 36431
sa tion</w> 36415
ट ने</w> 36407
mahar ashtra</w> 36398
me t</w> 36390
ह मे 36389
व ही</w> 36347
पं जा 36344
गिरफ् तार</w> 36311
6 . 36302
अप रा 36292
b ag 36288
pre vi 36276
विधा यक</w> 36276
tra ff 36250
सि क</w> 36239
fun ds</w> 36194
तुम् हा 36188
bes ides</w> 36162
करा ने</w> 36135
प्रे म</w> 36129
ने ताओं</w> 36101
peti tion</w> 36077
ra hul</w> 36061
ख र् 36052
ना ग 36032
त ना</w> 36029
i k</w> 36013
ra j</w> 36011
था ना</w> 36003
हिन् दी</w> 36001
li ve</w> 35999
in ten 35994
खा न</w> 35994
प श् 35989
e t 35984
mi ght</w> 35979
स ्</w> 35964
ए ँ</w> 35957
pers ons</w> 35946
आयो जन</w> 35928
तं त्र</w> 35924
कि स</w> 35922
प ल</w> 35913
ति म</w> 35900
k apo 35898
2 8 35897
4 . 35895
विधान सभा</w> 35895
fil ms</w> 35877
gu jar 35865
सा फ</w> 35851
m ar</w> 35834
direc ted</w> 35767
g s</w> 35755
5 0 35740
म् म 35719
एस पी</w> 35690
ब च 35660
ac qu 35656
h ur 35626
k i</w> 35621
a i</w> 35618
पु रु 35614
candid ates</w> 35614
spo kes 35606
क्ष ि 35603
रि श् 35590
हमे शा</w> 35582
play ers</w> 35579
kapo or</w> 35579
pres s</w> 35578
ca re 35570
mu sic</w> 35564
f y</w> 35550
su g 35549
ट क</w> 35516
त्व पूर्ण</w> 35502
ता कि</w> 35492
v a</w> 35464
ष ि</w> 35457
े श</w> 35452
रे ल 35432
त् म</w> 35426
न या</w> 35422
fun d</w> 35407
en cies</w> 35403
छा त्रों</w> 35396
मी टर</w> 35387
re ally</w> 35384
d ate</w> 35377
कान ून</w> 35368
est abl 35351
ल् ड</w> 35346
क्ष ित</w> 35319
and ed</w> 35312
hist ory</w> 35255
ड़ ा 35247
छो ड़</w> 35243
st y 35228
performan ce</w> 35223
म ि</w> 35209
भाव ना</w> 35207
du ce</w> 35195
सदस् य</w> 35190
tr ying</w> 35186
par tic 35152
ad a</w> 35150
mit ted</w> 35148
प ड़े</w> 35145
बाव जूद</w> 35138
जन् म</w> 35130
राजनी तिक</w> 35126
tu ally</w> 35124
ऑ फ</w> 35120
चि ं 35109
ग री 35108
ster n</w> 35108
2 , 35106
र् ष</w> 35094
im medi 35092
partici p 35087
मा ने</w> 35081
er a</w> 35067
आ न 35064
छा त्र</w> 35062
resul ts</w> 35034
निर् देश</w> 35027
e du 35015
त त् 35009
सा नों</w> 34997
म ॉ 34982
pro per 34963
2 9 34961
stand ing</w> 34956
es pe 34947
m it</w> 34942
ag ue</w> 34925
अ दा 34922
ques tion</w> 34909
in depend 34897
m ic 34896
गा र</w> 34889
eu ro 34889
br ought</w> 34877
lead ing</w> 34875
छ ह</w> 34853
ne i 34850
ma in</w> 34827
z ed</w> 34803
he av 34796
मु स् 34790
espe cially</w> 34787
t wit 34777
प् ला 34772
f la 34766
ष द</w> 34756
अभि यान</w> 34732
शरी र</w> 34728
en ter 34725
मा ह</w> 34717
vie ws</w> 34680
oper ation</w> 34678
ni fic 34663
क्र ा 34662
fe el</w> 34641
का म 34640
wi fe</w> 34625
cri min 34612
आ स 34610
भ र 34607
का ब 34564
n ag 34554
बा ं 34551
न ्य 34545
on d</w> 34539
te ach 34529
proble m</w> 34519
har d</w> 34511
कवि ता</w> 34483
विष य</w> 34481
m om 34469
pl ans</w> 34465
se lec 34460
म ता</w> 34448
gir l</w> 34430
associ ation</w> 34422
रा ह 34375
ब ता</w> 34368
मो ह 34364
st ren 34356
स मु 34355
it ation</w> 34352
p il 34351
w an</w> 34344
re ve 34344
politic s</w> 34344
a de 34342
जे ल</w> 34340
ब नी</w> 34336
भू मि 34336
ंग ् 34325
प्या र</w> 34301
fo ot 34287
युव क</w> 34281
ne y</w> 34280
k i 34278
ने ट</w> 34276
ha s 34260
शब् द</w> 34217
p ap 34197
ग ़ 34194
े क</w> 34154
au g</w> 34146
ला भ</w> 34135
po or</w> 34131
h us 34129
def ence</w> 34118
प्र त्य 34111
हम ने</w> 34109
स् पे 34103
sch edu 34088
r ang 34079
regist ered</w> 34076
re ly</w> 34066
st ers</w> 34047
स मे 34020
ख ंड</w> 34018
qu ality</w> 34014
t ter</w> 34001
अ ंग्रे 33982
po se</w> 33977
मं डल</w> 33967
रो ह</w> 33961
सामा जिक</w> 33952
श नल</w> 33948
न क</w> 33944
b ack 33910
k a 33892
प्र स्ता 33885
chall eng 33883
low er</w> 33868
मो बाइ 33854
c ar</w> 33852
stren g 33846
coun cil</w> 33814
oc cas 33805
twit ter</w> 33799
5 . 33778
राजनी ति</w> 33746
o ds</w> 33745
बेह तर</w> 33745
inform ed</w> 33735
क् शन</w> 33732
जिम् मे 33725
g er 33701
sh ort</w> 33695
मार् च</w> 33684
cele br 33659
करा या</w> 33651
इं डिया</w> 33637
लगा ने</w> 33635
ए च 33620
add res 33605
\ \ 33593
2 7 33566
क् ट</w> 33557
sec tion</w> 33554
la w 33550
erg y</w> 33548
at ory</w> 33542
m y 33504
int ro 33500
ad vis 33464
con ference</w> 33463
viol ence</w> 33451
बना ए</w> 33434
ं ति</w> 33411
de c</w> 33411
धा रित</w> 33406
form s</w> 33405
प्र स्तु 33393
मोबाइ ल</w> 33390
कि त् 33389
4 5</w> 33370
ल ंब 33366
bo w 33337
c ab 33319
y ana</w> 33285
जो र</w> 33259
ब यान</w> 33258
depu ty</w> 33213
ंद ो 33205
pla ying</w> 33203
gujar at</w> 33197
आ र्थ 33179
रा य</w> 33179
att emp 33168
jo b</w> 33160
प ड़</w> 33153
मह त्वपूर्ण</w> 33150
द स</w> 33137
दा ता</w> 33134
ट्र ा 33133
c m</w> 33123
ट् टी</w> 33123
चि कित् 33091
स ला 33087
फैस ला</w> 33081
अ ल् 33033
commission er</w> 33032
sa fe 33028
man u 33025
b om 33024
fil ed</w> 33014
govern or</w> 32988
z e 32982
th y</w> 32978
sig nific 32961
कि सानों</w> 32919
ing ly</w> 32919
सं चा 32918
फ ा</w> 32915
पो स्ट</w> 32913
construc tion</w> 32882
t em 32878
tic s</w> 32870
बा ल</w> 32857
विश् वास</w> 32815
ob ser 32812
run s</w> 32804
wan ted</w> 32771
ए जे 32765
श ै 32736
g old</w> 32709
हिस् सा</w> 32703
ह रे</w> 32690
कार्य कर् 32682
भा री</w> 32679
do m</w> 32668
experi ence</w> 32637
ठ ि 32630
d ru 32628
am a</w> 32616
ro w</w> 32613
diff ic 32611
c ateg 32566
म ण</w> 32550
port ers</w> 32542
टा इ 32541
fe b</w> 32527
लो क</w> 32510
en ough</w> 32506
rel ated</w> 32506
,201 7</w> 32505
no v</w> 32476
al ed</w> 32469
investig ation</w> 32463
प्र दान</w> 32441
fiel d</w> 32428
v t</w> 32424
retur n</w> 32423
inf ra 32421
tra ining</w> 32414
ं त्र 32404
an t 32387
लड़ की</w> 32375
lin es</w> 32374
of ten</w> 32364
ज नों</w> 32351
f al 32347
स्था नीय</w> 32345
bol lywood</w> 32337
ग ल</w> 32336
b ad 32319
ई ं</w> 32300
enti re</w> 32281
pr inci 32277
ga ve</w> 32254
मार् ग</w> 32252
char ac 32247
ज मा</w> 32246
m c</w> 32244
mar kets</w> 32244
ट् र</w> 32239
आ त</w> 32211
ab o 32205
य ं</w> 32199
at est</w> 32185
च ले</w> 32172
v a 32149
har yana</w> 32141
b and</w> 32135
प्र क्रिया</w> 32128
जाए ंगे</w> 32105
i ed</w> 32099
प ॉ 32087
ei ght</w> 32081
in come</w> 32075
फ र् 32035
in ste 32028
re presen 32014
tur al</w> 32008
as k</w> 32006
produc ts</w> 31991
सा रे</w> 31984
कार् ड</w> 31979
दे व 31965
यो गि 31948
क मी</w> 31941
6 , 31927
ag ency</w> 31895
elec tr 31895
जल् द</w> 31879
ब ज 31875
कार् यालय</w> 31873
द् धि</w> 31859
दे कर</w> 31855
प्र ै 31854
re gu 31821
parliam ent</w> 31821
d le</w> 31819
ंद ा</w> 31812
ar ds</w> 31797
उन से</w> 31790
दि यों</w> 31775
इत नी</w> 31751
lat est</w> 31736
आर्थ िक</w> 31732
se par 31731
पा ठ 31704
de fe 31700
एक् स 31696
जै सी</w> 31694
sing le</w> 31690
yad av</w> 31676
con fi 31675
accoun t</w> 31674
recor d</w> 31666
eng ine 31662
बे टी</w> 31641
ला ग 31633
मि यों</w> 31630
ric ul 31630
निर् ण 31617
आ ँ 31616
ए ं 31612
रेल वे</w> 31606
g est</w> 31604
em er 31603
क मे 31599
अ नि 31593
ak a</w> 31589
स् ट्रे 31584
en ergy</w> 31583
अग ले</w> 31582
ल् स</w> 31570
e y 31560
ड़ ि 31545
मी र</w> 31541
traff ic</w> 31517
मि न 31513
di ed</w> 31507
ले ते</w> 31489
k es</w> 31469
fir m</w> 31461
se qu 31460
ंद गी</w> 31456
व रण</w> 31449
mean while</w> 31449
st af 31443
ग्र ह</w> 31436
शु रु 31433
धि यों</w> 31431
स त</w> 31425
श क</w> 31418
राष् ट्र</w> 31418
tre at 31389
execu tive</w> 31343
संगठ न</w> 31336
आप ने</w> 31335
9 0</w> 31325
eff orts</w> 31321
d au 31313
b ad</w> 31293
end ra</w> 31289
hu ge</w> 31285
l on 31275
जन वरी</w> 31271
उम्मी द</w> 31222
7 5</w> 31220
s pre 31199
ur al</w> 31197
resul t</w> 31191
ili ties</w> 31182
ठ ा</w> 31158
st age</w> 31152
क् ता</w> 31130
inte re 31118
sh u 31114
0 0 31101
वि धा</w> 31086
ro om</w> 31079
हा सिल</w> 31071
qu e</w> 31061
ex c 31047
u lar</w> 31044
for ward</w> 31040
s cen 31015
d ha 31010
ti vi 31010
li g 31006
फी सदी</w> 31004
fes tiv 30965
gi ving</w> 30961
organ iz 30952
or din 30951
cu t</w> 30935
ख ी</w> 30926
उम् र</w> 30918
रह ती</w> 30911
अ ंदर</w> 30906
j ap 30900
mo b 30897
ं प 30895
le ague</w> 30895
n es 30892
म् प 30884
प दा 30865
लै ंड</w> 30862
in a</w> 30859
paren ts</w> 30832
सर ों</w> 30824
मु ला 30754
is lam 30751
हु ल</w> 30746
दा स</w> 30724
जरू री</w> 30724
वर् त 30723
च र</w> 30716
pl at 30716
त्र ियों</w> 30708
fi c</w> 30695
सा री</w> 30694
पहचा न</w> 30692
चाह ता</w> 30687
अ र्थ 30680
ver age</w> 30668
j a</w> 30656
cer tain</w> 30645
par ts</w> 30638
ख बर</w> 30585
a red</w> 30581
mak es</w> 30581
quar ter</w> 30568
सि यों</w> 30550
sa ge</w> 30548
अ र 30544
infra structure</w> 30510
g ers</w> 30500
oc t</w> 30497
the re 30493
रा नी</w> 30490
pro test</w> 30488
म र् 30485
cont ribu 30483
im um</w> 30478
rus si 30474
ध्य क्ष</w> 30471
cre ate</w> 30470
tivi ties</w> 30466
इ तिहा 30453
वा ओं</w> 30450
यु वा</w> 30448
je e</w> 30448
pr is 30440
मु श् 30430
सो च</w> 30428
व र 30416
e ly</w> 30414
वि क</w> 30399
पंचा यत</w> 30391
laun ch</w> 30385
नी ति</w> 30380
vi du 30377
ए ल 30363
निय म</w> 30345
to wn</w> 30336
ne arly</w> 30321
di tions</w> 30312
tu al</w> 30311
व हाँ</w> 30305
chin ese</w> 30296
प्रसा द</w> 30274
दिखा ई</w> 30266
leg is 30262
प ृ 30258
म ई</w> 30247
आ ग</w> 30237
ad ditional</w> 30233
foc us</w> 30218
ra ised</w> 30197
खर् च</w> 30192
min d</w> 30176
अ ग्र 30171
mob ile</w> 30167
दा य 30162
e le 30155
indi vidu 30119
संबंध ित</w> 30117
पंजा ब</w> 30117
te l</w> 30108
y s 30098
inste ad</w> 30090
न ो</w> 30085
त ्</w> 30084
ण ि 30084
no thing</w> 30084
निर्ण य</w> 30078
पै दा</w> 30073
employe es</w> 30058
milit ary</w> 30047
त रा 30041
un ity</w> 30032
de l</w> 30018
या नी</w> 30013
ं चा 30011
le a 30000
proble ms</w> 29999
लि यों</w> 29989
ci ties</w> 29988
गंभी र</w> 29970
produc tion</w> 29967
j am 29965
ड़ कर</w> 29929
n agar</w> 29919
did n</w> 29901
mo ved</w> 29875
बा बा</w> 29863
भू मि</w> 29857
र ता</w> 29845
रा हुल</w> 29837
australi a</w> 29816
in de 29812
amoun t</w> 29809
ब न् 29807
अं तर 29804
y ers</w> 29779
पु त्र</w> 29775
2 2 29772
reven ue</w> 29757
समर्थ न</w> 29755
क ने</w> 29732
सी मा</w> 29726
re as 29725
अं तिम</w> 29724
ज़ ि 29723
tal ks</w> 29703
ju l</w> 29700
e vi 29684
cor ru 29681
नि जी</w> 29677
आ ंदो 29669
air s</w> 29661
वा द 29630
invest ors</w> 29629
2 1 29627
बात ें</w> 29568
जा कर</w> 29558
provi ded</w> 29542
ic k 29537
in dic 29532
kin d</w> 29530
mor ning</w> 29527
ज रि 29521
staf f</w> 29519
plac es</w> 29512
l d 29509
बन ने</w> 29501
pe ace</w> 29484
fa iled</w> 29477
re ach</w> 29475
comm ents</w> 29470
vo te</w> 29463
क्रि केट</w> 29454
देश क</w> 29433
पू जा</w> 29424
ी न</w> 29406
sa w</w> 29400
फ ॉ 29389
b order</w> 29372
re duc 29358
उच् च</w> 29349
,201 8, 29339
स म</w> 29338
curren tly</w> 29328
con ver 29308
ष् टा 29264
ध ू 29257
c ement</w> 29255
स् ती</w> 29248
y er</w> 29234
wor th</w> 29217
ची त</w> 29217
जै सा</w> 29216
inclu de</w> 29206
द बा 29194
r ural</w> 29185
manu fac 29178
चा रों</w> 29146
खा ने</w> 29117
d p</w> 29108
ste p</w> 29076
wh o 29073
प े</w> 29048
फा य 29046
ी ल</w> 29044
lo ss</w> 29044
च न</w> 29043
m ir 29035
विशे ष 29025
ment al</w> 29024
वा री</w> 29023
राष्ट्र पति</w> 29021
s li 29015
g l 29013
k u 29010
पर् या 29010
j i 29009
vehic les</w> 29008
bas is</w> 28997
si mp 28983
l and 28977
छ ि 28970
si bility</w> 28969
comm on</w> 28965
speak ing</w> 28948
la m</w> 28943
con ven 28939
श क्ति</w> 28905
थ म</w> 28905
se p</w> 28897
द क्षि 28879
उस में</w> 28852
8 . 28845
बद ल</w> 28844
sel ves</w> 28839
an im 28830
re al 28826
अधि कार</w> 28825
expres s</w> 28820
त भी</w> 28816
प्रति नि 28805
happ y</w> 28804
टी वी</w> 28801
c bi</w> 28796
lan gu 28795
हा ई 28794
te red</w> 28793
incre as 28792
li ves</w> 28781
भूमि का</w> 28779
l ers</w> 28778
ण् ड</w> 28774
el s</w> 28772
n al 28764
gam es</w> 28753
ध ो 28726
्य ु 28701
h or 28698
ter ms</w> 28692
p ha 28689
आ य 28688
शि व 28683
t emp 28682
sur ve 28677
बात चीत</w> 28675
tur ned</w> 28672
कर्मचा रियों</w> 28670
त ें</w> 28668
f as 28663
mo der 28662
cr is 28650
सम् मान</w> 28631
पसं द</w> 28631
ex ist 28625
क्षे त्रों</w> 28623
ग लत</w> 28622
n e</w> 28614
प ैसे</w> 28612
ag ricul 28604
off er</w> 28595
देश ी</w> 28593
प क्ष 28586
rema in</w> 28571
pro ce 28570
i ties</w> 28568
ac tivities</w> 28563
a j</w> 28558
आ योग</w> 28555
मो हन</w> 28530
a ti 28516
succ ess 28498
लाग ू</w> 28497
imp act</w> 28496
ar ri 28495
b att 28493
स्व यं</w> 28488
s l 28470
c k 28459
institu te</w> 28449
s c</w> 28447
bl ack</w> 28447
प्र श् 28444
आ वे 28429
प्र धान</w> 28427
y al</w> 28426
ज ल 28425
प ौ 28415
int el 28415
m la</w> 28393
wh ose</w> 28391
identi fied</w> 28383
लि ंग</w> 28377
pers onal</w> 28370
धी रे</w> 28358
ंड ा</w> 28354
खा स</w> 28323
gu e</w> 28319
invol ved</w> 28312
stud ent</w> 28305
pho to 28290
previ ous</w> 28271
समे त</w> 28270
wat ch</w> 28267
भ वन</w> 28249
जि न</w> 28244
sho ws</w> 28239
ide a</w> 28239
पह ला</w> 28235
in ju 28234
beng al</w> 28220
e ast</w> 28204
स च</w> 28190
mo vement</w> 28190
जू न</w> 28175
spe e 28174
sal es</w> 28171
o bjec 28169
dom es 28167
न् तु</w> 28165
bu l 28154
y a 28149
डा य 28133
o d 28129
aff airs</w> 28119
ध ्य</w> 28108
pa id</w> 28104
au di 28101
ते ज</w> 28079
lar gest</w> 28066
d an 28043
मिन ट</w> 28033
ris k</w> 28022
कि यों</w> 28015
spo t</w> 28001
सम ू 28000
घोष णा</w> 27986
गा ँ 27985
इन में</w> 27981
घा यल</w> 27965
स के 27960
r ise</w> 27957
inju red</w> 27957
beli eve</w> 27953
bigg est</w> 27947
क ही</w> 27946
रा जा</w> 27941
fi ght</w> 27930
म ज 27929
b it</w> 27906
टि प्प 27904
sh ot</w> 27901
अ प्रै 27896
रि क्त</w> 27891
re ason</w> 27881
ली न</w> 27866
b ac 27865
ं ः</w> 27863
जै न</w> 27858
simil ar</w> 27852
थ ि</w> 27843
यू नि 27840
साइ ट</w> 27837
इतिहा स</w> 27835
त स्वी 27833
sto p</w> 27822
him self</w> 27805
environ ment</w> 27792
follow ed</w> 27775
बा रिश</w> 27768
conduc ted</w> 27756
रू प 27750
m al</w> 27721
pres sure</w> 27716
व रि 27712
ट्र ै 27709
f f</w> 27697
ख त्म</w> 27685
सं घ 27685
जु लाई</w> 27672
a wa 27671
candid ate</w> 27651
इं त 27641
sha red</w> 27639
musli ms</w> 27626
cou ra 27610
form ed</w> 27605
d ation</w> 27602
con sid 27595
ख न 27593
अग स्त</w> 27592
आप का</w> 27581
de st 27568
म री 27557
nec ess 27550
or ig 27548
ए ंगे</w> 27546
अप्रै ल</w> 27543
add ress</w> 27526
u es</w> 27524
सफ ल</w> 27507
मा ँ</w> 27501
अदा लत</w> 27499
प न्न</w> 27497
पहु ँ 27491
समा रोह</w> 27485
ध ित</w> 27481
jo int</w> 27472
r an</w> 27468
गुरु वार</w> 27450
americ an</w> 27449
respon se</w> 27433
in et</w> 27421
नि शा 27403
ur ban</w> 27385
ट्र ो 27383
prof es 27376
allow ed</w> 27373
lead ership</w> 27370
f are</w> 27366
af ric 27364
sou ght</w> 27363
grou ps</w> 27349
मू ल</w> 27339
alli ance</w> 27339
oun ds</w> 27334
आ ठ</w> 27324
tur n</w> 27323
वि ज्ञान</w> 27319
म र</w> 27318
wh ite</w> 27303
ge dly</w> 27303
स्टे शन</w> 27297
cab inet</w> 27287
s a</w> 27282
su sp 27282
छ ू 27274
domes tic</w> 27267
वर्त मान</w> 27259
s at 27254
र ख</w> 27253
me ans</w> 27242
सामा न्य</w> 27231
परि णा 27226
r ates</w> 27223
g up 27206
मे ह 27197
न्द ्र 27181
alle gedly</w> 27175
de fin 27152
सु विधा</w> 27146
ए फ 27143
19 7 27135
sh ed</w> 27130
नि त</w> 27129
beli ev 27123
पह र</w> 27122
civi l</w> 27117
ic ally</w> 27080
नि कल</w> 27064
प्र वेश</w> 27051
deta ils</w> 27019
कि ये</w> 27002
इला ज</w> 26982
incre ased</w> 26975
g one</w> 26964
भ र् 26964
ड़ ियों</w> 26952
कर ा</w> 26932
मा त्र</w> 26929
tam il</w> 26928
re ta 26912
वि जय</w> 26910
a ap</w> 26902
fer red</w> 26893
f is 26889
भी तर</w> 26884
वा हन</w> 26869
festiv al</w> 26860
n ad 26852
प्रभा वित</w> 26851
हमा रा</w> 26780
concer ned</w> 26765
त मा 26763
का उ 26763
बि ल् 26752
la b 26739
ru les</w> 26734
do w 26731
se tt 26695
cas h</w> 26692
दूस रा</w> 26689
पड़ ता</w> 26688
k ol 26681
यो गी</w> 26673
it a</w> 26661
ha i</w> 26661
ब हा 26657
kar nat 26646
ए न</w> 26643
र ल</w> 26642
corpor ation</w> 26635
पश् चि 26633
ध े 26626
do es 26623
c au 26603
as ia</w> 26589
it self</w> 26578
के श</w> 26575
movi e</w> 26561
com b 26559
in sur 26541
in j 26539
निश् चित</w> 26532
supp ly</w> 26528
di stri 26519
un it</w> 26512
स प 26504
h il 26487
does n</w> 26486
a tional</w> 26467
तक नी 26460
distri bu 26456
le vel 26444
as s 26442
as sist 26441
karnat aka</w> 26440
po ten 26437
सि त</w> 26437
p ad 26425
L atest</w> 26396
comple te</w> 26394
be came</w> 26389
lim ited</w> 26387
n atur 26380
t able</w> 26373
कृष् ण</w> 26371
d ol 26364
diffic ult</w> 26355
ter min 26352
commun ic 26323
क श् 26311
f all</w> 26303
9 . 26293
re d 26292
क् स 26285
chang es</w> 26285
s p</w> 26277
जाग रण</w> 26266
भ्र ष्टा 26263
pre mi 26261
नि ंग</w> 26260
or ies</w> 26256
दो पहर</w> 26256
st ated</w> 26243
w er</w> 26227
/ 0 26219
शा स् 26217
treat ment</w> 26204
रि ंग</w> 26197
minist ers</w> 26180
ex pla 26179
fri ends</w> 26167
hop e</w> 26160
le tter</w> 26156
अ ने 26141
राज स्थान</w> 26139
स ौ</w> 26138
c le</w> 26129
प्र थम</w> 26122
कै ं 26110
val ue</w> 26107
re comm 26102
3 2</w> 26092
ei ther</w> 26079
stoc k</w> 26078
उ दा 26065
p ac 26061
सो च 26052
दे ती</w> 26047
us h</w> 26042
cou ple</w> 26035
fre e 26033
सा ध 26032
uni ties</w> 26032
अस ल</w> 26012
d al 26001
gra ph 25998
जु ड़े</w> 25994
rela tion 25990
कि ता 25987
bi har</w> 25975
त ू</w> 25958
ध र 25950
दि सं 25939
इला के</w> 25937
g al 25933
la tions</w> 25931
pho to</w> 25929
k al 25922
बे टे</w> 25916
तरी के</w> 25910
pas sed</w> 25883
ग्र े 25861
mo del</w> 25855
धि क</w> 25850
दि ख 25834
organ ised</w> 25815
mat er 25805
करे गा</w> 25789
occas ion</w> 25788
utt ar</w> 25774
प्रे स</w> 25770
ग ृ 25765
ज हाँ</w> 25746
कर्मचा री</w> 25742
popu lation</w> 25731
n ings</w> 25726
दिसं बर</w> 25721
न ्</w> 25718
he art</w> 25710
बा जी</w> 25707
dau ghter</w> 25693
रो ज 25688
na v 25681
d ings</w> 25667
फा ई</w> 25663
ker ala</w> 25654
ti l 25636
sha res</w> 25634
शुरु आत</w> 25626
abo ve</w> 25622
ris ing</w> 25621
no te</w> 25617
200 7</w> 25615
cre ated</w> 25608
तृ त्व</w> 25607
r ound</w> 25604
f ast</w> 25596
हरि या 25594
घ ू 25591
पूछ ा</w> 25569
auth ority</w> 25568
li ving</w> 25559
intro duc 25550
परि वर् 25547
स्ट ि 25541
ढ ा 25538
पर् क</w> 25536
छो टी</w> 25535
डि ंग</w> 25524
शी ल</w> 25520
see king</w> 25511
हि ंद 25498
ra ther</w> 25485
um ents</w> 25477
w ro 25474
safe ty</w> 25471
धा नी</w> 25470
es tim 25467
se at</w> 25463
b it 25460
नि यर</w> 25454
a ward</w> 25448
सू ची</w> 25447
the m 25437
स त्ता</w> 25416
विश्व विद्यालय</w> 25413
मे डि 25408
न दी</w> 25406
fo rest</w> 25404
t ation</w> 25403
it h</w> 25399
eng land</w> 25399
क्ष क</w> 25396
ar ies</w> 25394
आंदो लन</w> 25388
sour ce</w> 25365
meas ures</w> 25363
fac e 25361
ड ्र 25356
उद ्यो 25355
गु रु</w> 25344
n om 25343
स् कार</w> 25332
ta x 25327
5 , 25326
व ॉ 25319
ह टा 25313
beg an</w> 25313
ग्रामी ण</w> 25298
साह ब</w> 25294
w ants</w> 25290
सु ना 25278
v an</w> 25266
ar i</w> 25262
प्र बंधन</w> 25262
achi ev 25260
इन के</w> 25256
त ने</w> 25251
त री</w> 25241
popu lar</w> 25235
gup ta</w> 25223
se x 25218
म् स</w> 25217
sci ence</w> 25209
श ित</w> 25205
ट रों</w> 25205
धा रा</w> 25205
wi de</w> 25166
bre ak</w> 25153
चाह े</w> 25149
bre ak 25148
साहि त्य</w> 25138
सं युक्त</w> 25133
ran ge</w> 25133
व ्य</w> 25118
b a</w> 25114
chec k</w> 25114
जा ति</w> 25106
रो क</w> 25105
succ ess</w> 25103
प्रति योगि 25102
res our 25092
un ti 25091
प्रस्ता व</w> 25089
क ले 25088
distric ts</w> 25086
v ation</w> 25084
ap r</w> 25067
w le 25054
in side</w> 25052
क ड़ी</w> 25046
cre dit</w> 25045
rail way</w> 25042
कल् प</w> 25026
शि क्षण</w> 25018
stat us</w> 25002
स्थाप ित</w> 25001
सा ंस 24996
बैठ े</w> 24992
d ar</w> 24977
सं भव</w> 24976
प् ले 24975
शो क</w> 24968
अच्छ े</w> 24942
ला कर</w> 24934
भर् ती</w> 24919
la bor 24918
जा य</w> 24916
lea ve</w> 24914
re view</w> 24913
fun c 24907
z a</w> 24905
hin du 24901
श ू 24884
temp le</w> 24882
कि सान</w> 24881
ब रा 24872
mul ti 24856
झ ू 24847
sty le</w> 24845
वी र</w> 24843
con ce 24837
ब ित</w> 24836
grow ing</w> 24836
wro te</w> 24832
requ ired</w> 24829
पा ने</w> 24822
ann ual</w> 24821
पु न 24813
गु प् 24809
मे ल</w> 24805
cri me</w> 24805
ह जा 24804
म र 24779
ग ो</w> 24768
enti al</w> 24768
3 , 24745
se ems</w> 24742
हा द 24737
n ath</w> 24732
क् र</w> 24709
ए गा</w> 24706
भ्रष्टा चार</w> 24706
ं श</w> 24704
r bi</w> 24697
pro pos 24695
ग ति</w> 24692
सं वाद 24685
e p 24682
बेह द</w> 24677
minu tes</w> 24674
ro ads</w> 24671
air port</w> 24666
ir an</w> 24654
ड ्रा 24652
log ical</w> 24652
दि शा</w> 24641
tak es</w> 24607
सह योग</w> 24598
e ase</w> 24580
k er</w> 24576
व ें</w> 24567
st ay</w> 24567
u su 24566
me h 24563
lon don</w> 24561
मु काब 24554
li es</w> 24553
मू र् 24551
en ge</w> 24531
स्प ष्ट</w> 24517
ने तृत्व</w> 24516
ह ौ 24510
निय ंत्र 24503
con tr 24495
3 00</w> 24481
ur u</w> 24465
mo ham 24461
ke pt</w> 24461
affec ted</w> 24461
कमे टी</w> 24447
क ला</w> 24441
al and</w> 24435
वि वाद</w> 24433
r ish 24428
na tion 24426
मि लता</w> 24425
देख कर</w> 24418
sig ned</w> 24415
ब्लॉ ग</w> 24413
e ts</w> 24390
d ents</w> 24386
मा ंग 24383
च ली</w> 24382
w ash 24365
पा ई</w> 24359
a part</w> 24353
clu b</w> 24350
मुश् किल</w> 24350
a h</w> 24341
नव ंबर</w> 24337
dec la 24333
अति रिक्त</w> 24319
t ari 24317
पो र् 24309
श व</w> 24308
g res 24306
च रण</w> 24299
la h</w> 24290
अ भ 24288
ले ना</w> 24279
ser ious</w> 24278
भ वि 24276
था ने</w> 24269
de la 24260
a im 24255
हा लत</w> 24241
के स</w> 24228
mid dle</w> 24209
up on</w> 24208
il ies</w> 24202
दौ र</w> 24194
आ र् 24189
person nel</w> 24182
t ren 24181
l ong 24171
u l</w> 24153
ex ce 24150
su bjec 24121
स्थ ल</w> 24118
अक् टू 24117
d al</w> 24110
sug ge 24106
प ड़ी</w> 24105
बा की</w> 24098
या र</w> 24098
वरि ष्ठ</w> 24091
b ar</w> 24081
f er</w> 24077
ch en 24072
दिव स</w> 24072
tri ed</w> 24069
pl es</w> 24066
ex tre 24065
द क</w> 24061
pro posed</w> 24057
भवि ष्य</w> 24054
ब ल 24036
ev ening</w> 24035
oper ations</w> 24031
fis c 24028
सा य 24022
कृ तिक</w> 24020
corru ption</w> 24014
ह रण</w> 24007
cul ture</w> 23994
sal e</w> 23989
गौ र 23982
व ु 23977
con sul 23972
सु विधा 23965
क्र े 23963
qu ali 23960
टे स्ट</w> 23960
सर् व 23958
sp ir 23956
at i</w> 23951
फ़ि ल् 23949
chang ed</w> 23943
s y</w> 23942
k am 23940
sr i</w> 23938
ac tions</w> 23930
ख ड़े</w> 23926
d har 23906
,201 6</w> 23902
du l 23897
ja y 23890
rec o 23884
ex er 23876
मौ सम</w> 23876
heav y</w> 23870
be au 23860
qu o 23854
अक्टू बर</w> 23852
g un 23848
प्रभा व</w> 23846
every one</w> 23838
मत लब</w> 23834
qu ite</w> 23810
compla int</w> 23803
त ू 23794
मै दान</w> 23792
जे पी</w> 23777
ben ch</w> 23758
char ges</w> 23745
नु क 23741
सा बित</w> 23731
us es</w> 23728
reg ar 23727
high est</w> 23726
ad es</w> 23722
रह ेगा</w> 23721
स न् 23718
ज म 23712
k m</w> 23698
tar get</w> 23698
re ached</w> 23694
an tly</w> 23690
तैया री</w> 23689
ने शनल</w> 23684
b un 23681
care er</w> 23681
म् बर</w> 23672
ra o</w> 23666
c at 23664
dis ha</w> 23657
plac ed</w> 23646
ंड र</w> 23633
क् कर</w> 23625
da ily</w> 23625
h om 23621
रा व 23599
con ditions</w> 23595
ए फ</w> 23588
pro be</w> 23583
citiz ens</w> 23583
दि त</w> 23580
अ सर</w> 23572
teach ers</w> 23570
plan ning</w> 23564
केंद्र ीय</w> 23563
exp lo 23559
pr o</w> 23549
pas sen 23532
fam ilies</w> 23525
ac t 23521
प्र त्या 23517
वास्त व</w> 23506
फ ल</w> 23485
y at</w> 23484
go vt</w> 23481
ti n</w> 23468
म नु 23455
वा ही</w> 23452
i pur</w> 23448
v s</w> 23436
द् ध 23435
sh or 23431
सं र 23429
chan di 23426
6 5</w> 23423
e li 23421
wit nes 23398
c li 23396
re r</w> 23376
pr as 23372
्य ता</w> 23355
ग ति 23322
th ought</w> 23318
ज ता 23317
sup por 23315
coun ter</w> 23309
vis i 23309
bu s</w> 23306
gir ls</w> 23298
r ou 23295
जिस का</w> 23279
ट्रे न</w> 23269
पू र</w> 23257
श राब</w> 23246
en a</w> 23239
u k</w> 23235
th i</w> 23231
m ing</w> 23227
hin du</w> 23215
इत ने</w> 23210
अनु भव</w> 23205
ste ps</w> 23204
आ श् 23203
सि र</w> 23200
pol lu 23199
ph ys 23199
आस पास</w> 23192
de ad</w> 23167
decla red</w> 23162
थ ों</w> 23151
ru ling</w> 23149
b hu 23146
n ine</w> 23142
ag encies</w> 23133
nei gh 23118
en jo 23116
spre ad</w> 23116
x ed</w> 23113
ट ॉ 23112
सप् ता 23109
per cent</w> 23105
रख ी</w> 23100
स ो</w> 23095
ar tic 23094
ब ू</w> 23087
उप स्थित</w> 23062
चा र् 23061
मं त्रा 23057
सांस द</w> 23056
परि षद</w> 23053
b and 23030
ver si 23029
झ ु 23027
ब ों</w> 23025
गुज रात</w> 23020
न ज़ 23015
l al</w> 23007
12 : 23007
का रो 23001
फो टो</w> 22985
unti l</w> 22975
opport unity</w> 22963
them selves</w> 22962
sp i 22959
hol ding</w> 22957
इ ल</w> 22939
d y 22938
अं क</w> 22935
ते जी</w> 22928
ंच ी</w> 22923
l ish</w> 22922
फ ्रे 22914
झ ा</w> 22909
pol l</w> 22907
सं जय</w> 22905
व ् 22898
पहुंच ी</w> 22892
bang la 22890
sci enti 22889
ण ु</w> 22875
f li 22846
र्थ ियों</w> 22846
न ें</w> 22836
mar ks</w> 22834
vo tes</w> 22832
मं च</w> 22827
चो री</w> 22823
val ley</w> 22816
व्या पार</w> 22811
tion ing</w> 22805
v as 22802
dig ital</w> 22800
win ning</w> 22799
ch i</w> 22795
दर् द</w> 22793
ro l 22787
ठ े 22784
सू स</w> 22779
su st 22778
wor ked</w> 22778
व ती</w> 22756
tra vel</w> 22756
go es</w> 22754
अ थ 22753
ख ्या 22751
pre v 22739
f resh</w> 22730
stri ke</w> 22730
ru le</w> 22725
level s</w> 22723
maj ority</w> 22712
raj as 22711
य ें</w> 22706
मान व</w> 22701
फर वरी</w> 22695
ph ones</w> 22687
le av 22681
l ic 22674
सं गीत</w> 22674
exer c 22671
bri tish</w> 22667
न त</w> 22655
c er</w> 22650
in spec 22650
h ands</w> 22648
m l 22637
shi ps</w> 22631
ko re 22631
5 5</w> 22628
ja il</w> 22625
cap tain</w> 22607
k ha 22605
chall enge</w> 22605
us ers</w> 22592
ला व</w> 22590
चा र्य</w> 22590
आतं क 22584
rec og 22575
अने क</w> 22573
de s 22567
गै र</w> 22566
th ous 22559
fa il 22557
religi ous</w> 22541
खा ना</w> 22537
mon y</w> 22532
र ंग 22529
धा र 22529
nat ure</w> 22529
इन् हें</w> 22527
fisc al</w> 22526
face book</w> 22525
गुप् ता</w> 22525
नुक सान</w> 22525
fas hi 22522
भी ड़</w> 22520
acc ess</w> 22519
h our</w> 22509
resid ents</w> 22503
भे जा</w> 22497
पर् य 22492
परेशा न</w> 22488
al low</w> 22473
वो ट</w> 22466
मौ का</w> 22455
stru gg 22452
स ल</w> 22428
4 , 22426
बि ल</w> 22410
ध री</w> 22400
ad i</w> 22395
dri ve</w> 22387
तमा म</w> 22370
कंप नियों</w> 22365
ac ting</w> 22364
co ver</w> 22364
स् ति 22362
com pared</w> 22358
ख राब</w> 22357
ं ज</w> 22354
ish ing</w> 22345
tal king</w> 22344
ho od</w> 22341
schedu led</w> 22340
te ly</w> 22287
nee ded</w> 22277
mun ici 22277
सि द्ध</w> 22276
n c 22274
en tion</w> 22273
ta ined</w> 22270
c in 22268
कर नी</w> 22253
chandi garh</w> 22237
in di</w> 22236
श ु</w> 22227
कृ षि</w> 22227
g ain 22221
आ दि 22221
la u 22220
pan cha 22217
स फाई</w> 22211
ter ror</w> 22203
ख ी 22200
ल् य</w> 22198
appoin ted</w> 22187
का रि 22176
स जा</w> 22168
tal k</w> 22153
संस् कृति</w> 22152
स्ट ो 22147
समस् या 22145
d ance</w> 22141
jo bs</w> 22139
k ata</w> 22138
सं पा 22135
rema ins</w> 22135
gh ting</w> 22126
wee ks</w> 22117
t ab 22099
fri end</w> 22082
स्वी कार</w> 22076
3 3</w> 22071
कु ल 22063
p ly</w> 22058
र म</w> 22057
cap ac 22050
indi ans</w> 22042
दे ंगे</w> 22040
inf lu 22038
दक्षि ण</w> 22038
natur al</w> 22033
हरिया णा</w> 22021
प्रस्तु त</w> 22009
4 8</w> 22007
constitu ency</w> 22007
gra m</w> 22003
jo h 22002
सल मान</w> 22002
ख ड़ा</w> 22001
gu i 21997
f ra 21993
क ब</w> 21992
corpor ate</w> 21986
pres ence</w> 21982
t ex 21963
जान ते</w> 21960
मू ल 21958
नौ करी</w> 21954
बना ई</w> 21952
स व</w> 21933
sen a</w> 21933
ला ना</w> 21931
ह ल् 21913
की मत</w> 21896
म ति</w> 21888
पे ट</w> 21887
मै न</w> 21875
f le 21874
ए ड 21865
कश् मीर</w> 21859
cris is</w> 21855
se x</w> 21853
3 6</w> 21849
f ran 21843
वा र्ड</w> 21841
कित ना</w> 21838
पुरु ष</w> 21838
poten tial</w> 21829
सदस् यों</w> 21828
या त</w> 21819
any thing</w> 21816
ग ू 21803
expres sed</w> 21793
victi m</w> 21787
x i 21786
ap ple</w> 21786
बता ते</w> 21774
l ack</w> 21772
दा वा</w> 21762
स्वा मी</w> 21760
क ्</w> 21755
ma y 21751
g as</w> 21739
m c 21737
धा रण</w> 21719
सप्ता ह</w> 21718
regi onal</w> 21717
g st</w> 21711
hou ses</w> 21709
ल् क</w> 21707
ad ver 21706
आवे दन</w> 21704
च ढ़ 21701
मेडि कल</w> 21700
run ning</w> 21690
er jee</w> 21680
वि देशी</w> 21679
परिवर् तन</w> 21669
kol kata</w> 21668
ent ary</w> 21667
ap pre 21664
s mo 21657
clo sed</w> 21649
br and</w> 21647
sec u 21644
hin di</w> 21643
प्रत्य ेक</w> 21641
under stand</w> 21639
a verage</w> 21624
राज धानी</w> 21623
ko h 21590
i ans</w> 21589
नि देशक</w> 21585
आ कर</w> 21584
constitu tion</w> 21584
un its</w> 21573
पुरा ने</w> 21564
every thing</w> 21554
धि कारी</w> 21536
j ag 21535
de scri 21527
सफ लता</w> 21518
डि ग्री</w> 21517
उन को</w> 21513
आन ंद</w> 21512
institu tions</w> 21510
who le</w> 21505
attac ks</w> 21501
वा ह 21497
t ata</w> 21493
मंत्रा लय</w> 21488
ques tions</w> 21480
m ach 21478
m er</w> 21476
h ra</w> 21471
av o 21470
pow er 21466
पि यों</w> 21454
sen se</w> 21454
neigh b 21448
पत् ति</w> 21443
op ening</w> 21442
हम ले</w> 21442
inter net</w> 21437
vehic le</w> 21437
परिणा म</w> 21426
गा ड़ी</w> 21418
fe der 21418
ना एं</w> 21413
अ र्थ</w> 21406
sh an 21392
nam ed</w> 21392
सु धार</w> 21385
क ब् 21377
mur der</w> 21373
बज ट</w> 21370
and ing</w> 21358
lu c 21353
doc tors</w> 21341
in al</w> 21333
se l</w> 21329
वी डियो</w> 21325
appro ach</w> 21324
tru st</w> 21320
हो टल</w> 21306
सी बी 21299
in der</w> 21298
अ ख 21279
टे ल</w> 21275
पै सा</w> 21274
emplo yment</w> 21270
tra in</w> 21268
फ ्र 21267
द् वि 21259
represen ta 21250
rajas than</w> 21241
et c</w> 21236
w a</w> 21234
स्कू लों</w> 21234
go og 21230
कह ने</w> 21227
pp ing</w> 21225
प्रा थ 21223
al lo 21216
gi c</w> 21214
buil d</w> 21191
शो र</w> 21186
vic tory</w> 21175
ं ट्स</w> 21155
क्र ो 21153
fi f 21152
gre en</w> 21129
मह सूस</w> 21123
tour nam 21119
जरि ए</w> 21119
सं पर्क</w> 21116
क थ 21112
and a</w> 21110
h r 21106
s le 21098
hy der 21086
दु कान</w> 21068
ici al</w> 21067
4 7</w> 21065
प्रतियोगि ता</w> 21064
वे ब 21059
se n</w> 21054
b b 21047
er al</w> 21031
ज ंग 21024
हा न</w> 21023
श ो</w> 21014
lig ence</w> 21011
gra du 20992
tr ue</w> 20985
t uring</w> 20977
tra vel 20971
su red</w> 20969
str ateg 20959
ex change</w> 20950
jour nal 20950
f our 20947
प्र णा 20947
r ally</w> 20942
ना राय 20939
डॉ क्टर</w> 20937
pl ant</w> 20933
insur ance</w> 20928
fin ally</w> 20926
h u</w> 20925
बी र</w> 20920
immedi ately</w> 20913
koh li</w> 20896
स ब् 20888
ju dge</w> 20881
लि का</w> 20872
continu ed</w> 20867
s ac 20863
कर् म</w> 20862
b ay</w> 20859
te ams</w> 20858
अं त</w> 20853
ac ci 20848
पा री</w> 20846
बद लाव</w> 20842
च ंद</w> 20828
n er 20819
बु क</w> 20819
in ts</w> 20811
जा ये</w> 20808
at ure</w> 20806
अ चा 20802
con dition</w> 20796
il legal</w> 20794
pak ist 20794
अ के 20784
संवाद दाता</w> 20780
ए ंड</w> 20777
poli tici 20758
सौ ं 20756
consi dered</w> 20756
chen na 20755
re ti 20750
3 4</w> 20747
म ध्य</w> 20741
ज़ ा</w> 20739
demo cr 20724
claim s</w> 20716
सा मान</w> 20714
con clu 20709
pl us</w> 20703
म शी 20693
agre ement</w> 20692
उठ ा</w> 20687
रे ट</w> 20681
sho wed</w> 20677
र ज</w> 20675
p rec 20674
trans port</w> 20670
fort un 20667
he aring</w> 20660
requ i 20656
भु ग 20653
र् थी</w> 20645
ती श</w> 20642
pic ture</w> 20642
उ धर</w> 20637
con fir 20633
क मा 20630
व क्ता</w> 20622
au gur 20621
relation ship</w> 20621
अमेरि की</w> 20620
t in 20616
goog le</w> 20615
beng al 20612
नरे ंद्र</w> 20612
pati ents</w> 20605
ir y</w> 20602
f c</w> 20593
व क</w> 20593
फि ल 20590
f ted</w> 20581
उम्मी द 20572
वा र 20568
necess ary</w> 20568
रास् ते</w> 20563
अचा नक</w> 20561
for ced</w> 20557
सं भा 20555
कम रे</w> 20541
posi tive</w> 20539
it or</w> 20538
o disha</w> 20535
प्रका शित</w> 20533
हि मा 20531
tic al</w> 20528
राज्य ों</w> 20523
अध्य यन</w> 20521
num bers</w> 20520
व न 20516
घोष ित</w> 20513
H indi</w> 20508
kee ping</w> 20503
च लने</w> 20502
जय पुर</w> 20496
अंग्रे जी</w> 20496
st op 20495
अ शोक</w> 20488
मु क्त</w> 20487
र् जा</w> 20483
4 0 20480
fac ilities</w> 20479
fun ction</w> 20464
reli ef</w> 20463
रो ज</w> 20440
free dom</w> 20424
फ र</w> 20421
op al</w> 20420
boo ks</w> 20416
langu age</w> 20413
po sted</w> 20405
तर ण</w> 20405
मुस् लि 20398
ध म 20389
artic le</w> 20387
p ate 20370
जल् दी</w> 20366
9 ,0 20364
बी जेपी</w> 20358
आ ये</w> 20354
a tic</w> 20353
स्था नों</w> 20348
addres sing</w> 20348
जरू र</w> 20343
चौ धरी</w> 20341
सा र् 20339
in augur 20338
t t</w> 20331
tour ism</w> 20327
आखि र</w> 20319
ma h 20317
as ian</w> 20316
हम ला</w> 20310
पुर स्कार</w> 20307
प्रभा री</w> 20300
वै ज्ञा 20297
signific ant</w> 20297
par k</w> 20295
रख ते</w> 20294
वर्ष ों</w> 20293
ख े</w> 20288
नि ष् 20288
al though</w> 20280
k en</w> 20279
bangla desh</w> 20279
श्र म</w> 20276
ing ton</w> 20264
वा रों</w> 20263
hus band</w> 20253
cra tic</w> 20250
plat form</w> 20250
क था</w> 20248
re pe 20241
b ase</w> 20238
संघ र्ष</w> 20236
hyder abad</w> 20236
र च 20235
ad op 20234
t ty</w> 20225
eas y</w> 20224
ता री 20223
prote sts</w> 20218
माम लों</w> 20212
o ts</w> 20211
mes sage</w> 20210
सा ब</w> 20206
खिला ड़ी</w> 20204
be y 20187
on e 20182
net work</w> 20179
आ ज 20178
ला स</w> 20178
क् यू 20170
t wee 20163
र क्षा</w> 20160
mak ers</w> 20160
स् थ</w> 20156
स्ट ू 20155
conduc t</w> 20149
en coura 20148
र स</w> 20138
मिले गा</w> 20138
capac ity</w> 20137
व्य क्ति 20129
pur cha 20125
u k 20124
ma x 20121
,201 7, 20116
ज्ञा पन</w> 20114
ज र् 20107
करे गी</w> 20092
ं तु</w> 20091
म ो</w> 20080
अ ल 20072
jo ined</w> 20057
hel ped</w> 20048
sho p</w> 20047
wor ds</w> 20044
exper ts</w> 20040
wel fare</w> 20034
we stern</w> 20033
लगा ए</w> 20033
asse ts</w> 20031
provi ding</w> 20011
c ard</w> 20006
पहु ंचा 20005
d ged</w> 20004
क ट 20003
जि ंदगी</w> 19996
proper ty</w> 19989
scre en</w> 19988
on ic</w> 19987
con st 19980
pun e</w> 19980
na tions</w> 19977
चाह ती</w> 19975
कित ने</w> 19973
क ीय</w> 19965
bo dies</w> 19962
c op 19953
vo ters</w> 19934
san c 19931
सि ंग</w> 19923
भे ज</w> 19920
स् कर</w> 19916
cla im</w> 19916
सु रे 19907
fac ing</w> 19905
blo od</w> 19903
publ ic 19900
tech n 19900
विधा न</w> 19893
क्ष मता</w> 19889
पा न</w> 19887
no tice</w> 19876
s we 19874
ra p 19868
ंड ा 19867
al d</w> 19863
म ल</w> 19862
afric a</w> 19861
कर ो</w> 19857
का लीन</w> 19856
शा ह</w> 19853
buil t</w> 19851
आवा ज</w> 19851
,201 4</w> 19850
ड् स</w> 19849
h ya</w> 19847
टि यों</w> 19845
fashi on</w> 19844
sur pr 19838
custom ers</w> 19832
organ isation</w> 19829
प हा 19813
पट ना</w> 19813
happ ened</w> 19811
chenna i</w> 19808
शिक्ष क</w> 19806
ess or</w> 19803
उत् तरा 19792
ंड े 19791
अ ना 19787
4 2</w> 19782
go al</w> 19782
b la 19780
tic es</w> 19780
म कान</w> 19779
dou b 19775
द य</w> 19769
ac ted</w> 19768
op ened</w> 19762
kil ling</w> 19756
am az 19749
deb t</w> 19740
तु र 19737
टि कट</w> 19735
f ile</w> 19731
प्रश् न</w> 19731
लक्ष ् 19720
4 00</w> 19718
प्र ती 19710
सहा यता</w> 19708
g i</w> 19705
pri mar 19698
s ite</w> 19696
ह ण</w> 19696
t ted</w> 19693
car ried</w> 19693
द ्यो 19687
mar g 19685
ce o</w> 19669
टि स</w> 19663
se a</w> 19661
ते ल</w> 19660
e m</w> 19650
direc t</w> 19646
आ जा 19642
शा ंति</w> 19639
गा य 19637
att ention</w> 19629
inclu ded</w> 19626
li qu 19624
bengal uru</w> 19619
आवश्य कता</w> 19600
e a 19597
समू ह</w> 19586
म ध्य 19576
com petition</w> 19572
न ग 19569
तह सी 19568
d ram 19561
organ is 19556
ou d</w> 19553
श ह 19549
hosp it 19548
भा र</w> 19536
चु नौ 19536
y or 19533
f em 19532
ऑ न 19521
am i</w> 19517
व नी</w> 19512
four th</w> 19511
c um 19508
बना कर</w> 19498
न्या यालय</w> 19496
pate l</w> 19490
pha se</w> 19481
पा ए</w> 19474
m id</w> 19471
sh el 19467
ंद न</w> 19467
क न् 19465
princi pal</w> 19464
surve y</w> 19462
ta ining</w> 19447
खि ल</w> 19443
act ress</w> 19442
परि जनों</w> 19437
आवश्य क</w> 19436
1 : 19430
ब् ल 19421
त रा</w> 19418
g ment</w> 19417
a b</w> 19409
comple ted</w> 19407
munici pal</w> 19407
f ru 19406
k rish 19400
te dly</w> 19395
whe re 19395
ra in</w> 19385
,201 5</w> 19381
सि तं 19374
तै ना 19374
sust ain 19374
te ch</w> 19369
अम री 19367
वि केट</w> 19355
ि का</w> 19354
रे ल</w> 19354
लक्ष ्य</w> 19353
ड ू 19352
r as 19351
sol u 19350
म ने</w> 19347
agricul ture</w> 19346
g y 19341
राह त</w> 19341
प्र दर्श 19340
dom in 19337
स हम 19335
अव ै 19335
ह ड़ 19330
भ ले</w> 19327
schem es</w> 19327
ढ़ ी</w> 19325
बाइ क</w> 19324
villa ges</w> 19320
g ol 19319
क हां</w> 19309
rema ined</w> 19307
समा प्त</w> 19304
समा चार</w> 19298
r o</w> 19290
s is</w> 19282
ri ver</w> 19276
tiv ity</w> 19275
साम ना</w> 19273
is ra 19270
दा रों</w> 19269
र ॉ 19265
smar t 19258
ha z 19257
बा री</w> 19253
fac ed</w> 19251
mak er</w> 19249
स पा</w> 19247
ev ents</w> 19247
al o 19246
t ment</w> 19243
न ज 19242
sy st 19242
or d</w> 19236
fel l</w> 19236
exam ple</w> 19235
मु ं 19232
develop ed</w> 19226
सितं बर</w> 19214
ना रे</w> 19212
स्वा गत</w> 19207
मि लकर</w> 19196
eng lish</w> 19194
play er</w> 19194
ज ॉ 19185
प्र चार</w> 19185
mom ent</w> 19172
उन में</w> 19169
ट ु 19163
industri al</w> 19161
al one</w> 19159
foot ball</w> 19146
कि लो 19145
ac tive</w> 19141
वु ड</w> 19134
reas ons</w> 19133
impro ve</w> 19130
प्र शिक्षण</w> 19129
loo ks</w> 19122
commer cial</w> 19113
l ad 19109
desig n</w> 19093
क वि</w> 19083
l t</w> 19075
nu clear</w> 19073
wr ong</w> 19072
or ders</w> 19070
gener ation</w> 19062
di vi 19057
सी धे</w> 19050
ld n</w> 19050
es ses</w> 19049
उत्पा दन</w> 19045
am e 19039
3 7</w> 19036
वि वाह</w> 19036
d as</w> 19033
lit er 19033
t ol 19030
ur ies</w> 19027
19 6 19027
दबा व</w> 19023
दर असल</w> 19020
su spec 19010
a ad 18996
पहुंच ा</w> 18994
मत दान</w> 18989
आरो पियों</w> 18982
मा इ 18980
up coming</w> 18980
प्रि य</w> 18972
ज् ञ</w> 18963
gi es</w> 18959
लोक सभा</w> 18959
so li 18956
regar ding</w> 18952
ब त</w> 18950
f ans</w> 18946
ach ing</w> 18944
सा लों</w> 18942
अध ्या 18940
9 9</w> 18934
कु र</w> 18934
re jec 18932
न् त</w> 18931
ब् ला 18931
pras ad</w> 18929
sur vi 18925
सु प्री 18922
bey ond</w> 18921
v an 18920
exist ing</w> 18920
श ौ 18917
kh and</w> 18917
fel t</w> 18917
अग्र वाल</w> 18901
pakist ani</w> 18898
वि क 18897
द् य</w> 18896
ent al</w> 18890
ले ंगे</w> 18889
effec t</w> 18889
j har 18888
मजबू त</w> 18882
्य ों</w> 18880
शा ला</w> 18873
concer n</w> 18872
partic ul 18866
च लता</w> 18862
200 6</w> 18861
आ सा 18859
manag ed</w> 18856
इं जी 18850
n i</w> 18843
tr ack</w> 18837
ke j 18829
अथ वा</w> 18820
ग ंगा</w> 18807
st ly</w> 18801
ता छ</w> 18799
सं सद</w> 18799
रा व</w> 18798
re ment</w> 18794
dem anded</w> 18792
दो स्त</w> 18790
th ro 18785
सुर क्षित</w> 18784
डा ल</w> 18783
cel l 18781
सं स्थान</w> 18774
w on 18765
d han</w> 18762
cro w 18760
त ल</w> 18758
bu y</w> 18758
फिल् मों</w> 18758
evi dence</w> 18755
pap er</w> 18750
मुद् दे</w> 18746
फ़ ा 18745
dis pu 18744
ri wal</w> 18741
em a</w> 18741
अक् सर</w> 18737
सी एम</w> 18734
fa ir</w> 18732
gen cy</w> 18728
pa k</w> 18725
bu re 18723
nad u</w> 18721
pen ding</w> 18719
v ac 18708
वि देश</w> 18708
या चि 18707
सम् मे 18707
em o 18705
bro ther</w> 18705
p ted</w> 18704
खू ब</w> 18702
lo an</w> 18699
propos al</w> 18692
हा ई</w> 18691
ar rest</w> 18681
with dra 18681
tel l</w> 18675
prote ction</w> 18668
सं तु 18666
b on 18662
ste el</w> 18659
ap p</w> 18638
द म</w> 18632
terror ism</w> 18631
्यू टर</w> 18630
ति यां</w> 18621
ह वा</w> 18616
su b</w> 18613
vis ited</w> 18613
ल म् 18605
शा स 18604
ori al</w> 18604
f it</w> 18602
some one</w> 18600
कित नी</w> 18600
पु री</w> 18599
kej riwal</w> 18597
यु द्ध</w> 18591
th a</w> 18584
सुन वाई</w> 18579
mo han</w> 18575
ध र्म 18568
mis sing</w> 18563
kashm ir 18563
co ach</w> 18558
gra p 18558
ज ्यो 18557
त् ति</w> 18555
पूछ ताछ</w> 18546
r ying</w> 18541
कल ्या 18541
वर् मा</w> 18539
दू री</w> 18538
रख े</w> 18538
dr in 18534
respon sible</w> 18530
भो पाल</w> 18527
jan ata</w> 18524
sho w 18521
dow n 18521
bloc k</w> 18519
सं भावना</w> 18516
d ang 18512
स ह</w> 18512
पा लन</w> 18511
tra ditional</w> 18511
परेशा नी</w> 18506
ट्र ी</w> 18499
dec ades</w> 18490
c amp</w> 18485
पूर् ति</w> 18479
fol low</w> 18475
भो जन</w> 18475
ment ation</w> 18475
तर् गत</w> 18465
जिस की</w> 18463
tournam ent</w> 18458
re sident</w> 18453
re stric 18451
टे ड</w> 18441
ud es</w> 18439
commit ted</w> 18438
अवै ध</w> 18435
इस् ला 18424
हे तु</w> 18419
charac ter</w> 18417
bs ite</w> 18415
फिल हाल</w> 18415
चा लक</w> 18411
वा ना</w> 18406
s or 18405
त् कार</w> 18392
प ण</w> 18391
govern ments</w> 18383
we bsite</w> 18381
there fore</w> 18377
अ हम 18370
मि श् 18368
नि रा 18365
bor n</w> 18361
फ् ट</w> 18359
द ै 18357
श्र द्धा 18357
thre at 18355
su ici 18343
du ty</w> 18343
जु र् 18342
प ों</w> 18339
बढ़ा ने</w> 18336
pr e</w> 18331
pas s</w> 18331
u t</w> 18329
ac tually</w> 18328
ती नों</w> 18323
,201 3</w> 18321
स् तक</w> 18315
lo ans</w> 18315
वि स्ता 18313
cra ft</w> 18312
h en 18304
3 8</w> 18304
assa m</w> 18297
cent ury</w> 18291
तला श</w> 18291
ठ ो 18281
quar ters</w> 18273
am it</w> 18271
off ered</w> 18271
bhar at</w> 18270
ce re 18257
श ्या 18248
ब ्रे 18245
मि श्र 18243
ra pe</w> 18241
pa y 18240
स्ट म</w> 18237
independ ent</w> 18236
टिप्प णी</w> 18232
c lim 18227
il l 18221
चिं ता</w> 18219
as tic</w> 18214
jap an</w> 18209
लेख क</w> 18203
benef it</w> 18203
श े</w> 18186
categ ory</w> 18180
श ों</w> 18175
am an</w> 18172
खा ली</w> 18171
demo cratic</w> 18171
su gg 18165
min t</w> 18163
com pe 18161
russi a</w> 18161
क हाँ</w> 18160
शा ंत</w> 18159
न ौ</w> 18158
रू म</w> 18153
cal ls</w> 18153
मौ जू 18152
छ त् 18151
ह थि 18150
en ced</w> 18139
ज़ा र</w> 18125
विक सित</w> 18125
इ ंद 18124
म न् 18120
foun dation</w> 18118
सं त</w> 18111
करा र</w> 18109
respec t</w> 18103
recor ded</w> 18100
yor k</w> 18098
gh an 18096
ष ी</w> 18091
ल खन 18089
मनु ष्य</w> 18089
se tting</w> 18085
th us</w> 18075
ml as</w> 18072
दा य</w> 18070
वर्ष ीय</w> 18066
का त</w> 18063
accoun ts</w> 18062
स का</w> 18061
पार् क</w> 18050
sho o 18049
m oun 18045
इन की</w> 18026
t op 18024
सा स</w> 18022
me tr 18017
20 20 18015
आ कर् 18013
bo x</w> 18009
p i</w> 18008
wash ington</w> 18005
मुस्लि म</w> 18003
ल म</w> 18002
audi ence</w> 17997
छा त्रा 17993
pollu tion</w> 17987
nam es</w> 17986
de al 17983
resour ces</w> 17979
5 2</w> 17975
ऑन लाइन</w> 17973
d in</w> 17971
रो ग</w> 17971
रै ली</w> 17967
सं स्था</w> 17965
ar rang 17963
wle dge</w> 17961
w ic 17956
in nov 17953
m ac 17952
in cl 17941
इ धर</w> 17938
industri es</w> 17934
spokes person</w> 17933
रास् ता</w> 17932
intel ligence</w> 17912
minu te</w> 17906
कि स् 17905
im age</w> 17904
पी ड़ 17904
मू ल्य</w> 17903
द्यो गि 17903
produc t</w> 17901
vi jay</w> 17899
gre ater</w> 17898
mar ri 17897
cer ti 17890
पु रा</w> 17883
ंड े</w> 17866
अनु मति</w> 17852
vin d</w> 17847
रा इ 17842
ट ू</w> 17839
शि वि 17833
consum er</w> 17827
घ े 17821
ra ise</w> 17818
manag ing</w> 17818
ther n</w> 17814
mad hya</w> 17806
हि र</w> 17802
k ers</w> 17799
w ise</w> 17798
फा इन 17797
over all</w> 17796
ंक न</w> 17791
समी क्षा</w> 17790
f it 17783
reve aled</w> 17783
jo in</w> 17777
sto od</w> 17769
अंतर राष्ट्रीय</w> 17763
cont ent</w> 17761
strateg y</w> 17753
respon sibility</w> 17748
res cu 17741
ash ed</w> 17740
sh all</w> 17738
ग्र हण</w> 17738
हा थों</w> 17734
का रियों</w> 17725
शि कार</w> 17725
prof it</w> 17725
co de</w> 17716
k ul 17714
requ e 17710
नाराय ण</w> 17699
pro gress</w> 17685
चि त्र</w> 17682
शब् दों</w> 17673
i on 17667
ए शन</w> 17666
ए यर 17665
gr an 17659
दि ल 17657
pan el</w> 17656
ing ing</w> 17651
म श 17650
4 4</w> 17648
inter view</w> 17640
s ong</w> 17639
ch ance</w> 17629
फैस ले</w> 17618
ar gu 17613
का श</w> 17612
उद्यो ग</w> 17609
शं कर</w> 17608
as i 17606
ज़ रू 17604
क ड़ों</w> 17600
पे ं 17593
5 1</w> 17592
ता प 17587
स्व रूप</w> 17583
an ti 17579
बै ं 17575
सू त्रों</w> 17564
सम्मे लन</w> 17564
g ang 17560
वे द 17550
m ish 17543
ला न</w> 17539
mo ving</w> 17538
si onal</w> 17535
ख र</w> 17525
attemp t</w> 17523
ब राम 17520
be at</w> 17520
l ands</w> 17515
success ful</w> 17511
जी व</w> 17509
it ors</w> 17507
मा नित</w> 17506
sa fe</w> 17506
सार् वज 17503
spee ch</w> 17496
so f 17492
ष ित</w> 17491
hol ders</w> 17491
victi ms</w> 17489
स त्र</w> 17488
चा ई</w> 17486
re porters</w> 17477
head ed</w> 17477
regu lar</w> 17474
he ar 17471
घ रों</w> 17466
ren ess</w> 17464
d av 17459
hist or 17455
confi dence</w> 17451
ऑ फि 17447
त लब</w> 17444
न ॉ 17443
दि ग् 17441
di vision</w> 17439
र ें</w> 17438
आ उ 17423
c ast</w> 17413
ho tel</w> 17403
झा रख 17402
applic ation</w> 17400
सार्वज निक</w> 17398
स्थाप ना</w> 17394
अं दा 17390
ह ल</w> 17385
मृ त्य 17383
योज नाओं</w> 17378
प ित</w> 17377
इ च्छ 17370
त्र ता</w> 17358
डॉ लर</w> 17353
ट ्यू 17351
वि भा 17350
b le 17349
का रा 17347
milit ants</w> 17337
g n 17336
bi o 17326
crimin al</w> 17326
ma ha 17325
ch em 17322
particul arly</w> 17319
प थ</w> 17314
awa reness</w> 17313
नि वेश</w> 17308
स् त्री</w> 17303
वे ज</w> 17301
p a</w> 17298
al ist</w> 17298
रख ना</w> 17298
सा गर</w> 17285
श र 17282
benef its</w> 17278
br an 17275
म ै</w> 17274
com pu 17274
p p</w> 17249
न् द</w> 17248
ए गी</w> 17238
concer ns</w> 17235
खु श</w> 17234
बं दी</w> 17232
cle an</w> 17229
san jay</w> 17210
s old</w> 17203
त नी</w> 17203
as s</w> 17202
ha ps</w> 17201
भे ज 17199
am end 17197
से वा 17194
bo y</w> 17192
euro pe 17191
न ता</w> 17188
गे ट</w> 17179
0 9 17176
cer tain 17171
di um</w> 17166
e x</w> 17164
1 50</w> 17158
छत् तीस 17156
cam era</w> 17153
मे श</w> 17147
जिन् हें</w> 17146
ti tle</w> 17144
मे ं 17136
चौ क</w> 17136
the at 17125
पर मा 17125
li ed</w> 17119
sel ling</w> 17118
al ised</w> 17107
se ll</w> 17106
col on 17100
स ॉ 17095
ब धा 17095
ह क</w> 17091
inte gr 17088
रोज गार</w> 17083
c up 17075
लो नी</w> 17075
imple mentation</w> 17070
u g 17068
च यन</w> 17067
बो ले</w> 17066
ष क</w> 17065
लग ने</w> 17060
str ong 17057
al led</w> 17052
वा णी</w> 17052
स् ना 17051
tic ally</w> 17048
s n 17039
str ate 17039
b y 17038
प चा 17037
gi ves</w> 17024
मान ना</w> 17015
j d</w> 17011
य े 17004
is es</w> 17004
a st 17002
n t</w> 16999
अधि क 16998
सी ट</w> 16993
ं भ</w> 16991
d ur 16982
परि सर</w> 16980
क्ष ता</w> 16974
भुग तान</w> 16974
bas ic</w> 16972
progr amm 16969
exerc ise</w> 16969
man o 16968
sp ent</w> 16966
k g</w> 16962
st ore</w> 16962
au tom 16962
equ ity</w> 16960
c s</w> 16958
ट्रो ल</w> 16954
पक ड़</w> 16950
vis ions</w> 16944
wor d</w> 16942
शि व</w> 16942
sco red</w> 16942
भ रो 16941
aw are</w> 16937
stor ies</w> 16935
कार्यकर् ताओं</w> 16934
वा सियों</w> 16931
loc ated</w> 16929
रह ना</w> 16926
आ धारित</w> 16921
लगा ई</w> 16921
collec tion</w> 16920
individu al</w> 16920
elec ted</w> 16915
mar ke 16914
resol ution</w> 16902
ar ch 16899
dru g</w> 16897
के न्द्र</w> 16893
नि री 16891
थ ियों</w> 16888
vi k 16883
बा तों</w> 16872
मा लिक</w> 16866
pe tro 16858
सु नी 16857
लखन ऊ</w> 16856
pr in 16855
बढ़ ा</w> 16854
vo ice</w> 16848
करा ई</w> 16847
don ald</w> 16840
विरो धी</w> 16833
i i</w> 16828
thre at</w> 16828
moder n</w> 16828
p it 16823
वृ द्धि</w> 16822
ग्रामी णों</w> 16822
क म्प 16818
go ods</w> 16817
चिकित् सा</w> 16816
0 s</w> 16806
अ ह 16804
increas ing</w> 16795
स वार</w> 16791
con te 16787
स्टू डे 16787
c ross</w> 16786
manag er</w> 16783
cul tural</w> 16783
can cer</w> 16777
र चना</w> 16769
man i 16769
जिम्मे दारी</w> 16762
loo ked</w> 16756
ना टक</w> 16751
in ning</w> 16745
व्यव हार</w> 16736
11 : 16735
च क</w> 16732
बा द 16731
खु शी</w> 16729
di a</w> 16726
चा र 16726
sub mitted</w> 16726
dem ands</w> 16725
la ws</w> 16724
thous ands</w> 16717
li ber 16716
la p 16709
धा र् 16707
शु ल्क</w> 16704
sen si 16704
ढ़ े</w> 16703
any one</w> 16696
de termin 16695
effec tive</w> 16692
al ter 16691
ल यों</w> 16685
ट र् 16684
आ सान</w> 16676
सि स्टम</w> 16675
kil ls</w> 16668
न्या य</w> 16664
गरी ब</w> 16640
कै म 16630
कि रा 16628
थो ड़ा</w> 16627
gu ar 16626
commer ce</w> 16624
ch hat 16621
n y</w> 16615
s i</w> 16614
तुर ंत</w> 16613
विस्ता र</w> 16611
fir ms</w> 16606
पी ट</w> 16600
मि त्र</w> 16599
दे ह</w> 16597
re duce</w> 16590
ref lec 16587
con ser 16577
छ े 16567
ru pe 16567
खरी द 16564
t ch</w> 16562
j it</w> 16562
connec tion</w> 16560
वा य 16558
feat ures</w> 16557
dep lo 16553
sear ch</w> 16550
ले श</w> 16549
th ers</w> 16546
re rs</w> 16542
गाँ व</w> 16537
भू ल</w> 16536
me ly</w> 16526
ol y 16525
च ने</w> 16523
alleg ations</w> 16521
agre ed</w> 16519
ch op 16517
\\ \\ 16509
आ ना</w> 16506
वा इ 16502
per haps</w> 16501
ली वुड</w> 16494
कर ि 16491
s low 16490
r ich</w> 16482
स् व</w> 16481
दृ ष्टि</w> 16481
m el 16479
वेब साइट</w> 16477
ad d</w> 16472
ann a</w> 16472
att ended</w> 16470
टै क्स</w> 16468
200 5</w> 16467
dro p</w> 16466
मं जू 16465
हा उस</w> 16461
per fe 16461
mas sive</w> 16453
ch ers</w> 16452
सू रत</w> 16450
शि या</w> 16449
ब हन</w> 16446
मि लती</w> 16444
k y</w> 16443
स मान</w> 16440
डी एम</w> 16440
ी व</w> 16435
हिं सा</w> 16433
गु ला 16429
europe an</w> 16428
adv oc 16425
साम ग्री</w> 16424
n as 16421
spo ke</w> 16419
न वा 16417
ban king</w> 16409
do or</w> 16406
तु लना</w> 16405
si t</w> 16403
af ghan 16395
bri dge</w> 16393
jhar khand</w> 16393
4 9</w> 16390
bro ad 16386
सें टर</w> 16381
ri t</w> 16377
रा र</w> 16375
foun der</w> 16372
cre ating</w> 16370
पढ़ ाई</w> 16369
ci vil 16361
देख ें</w> 16361
ठा कुर</w> 16360
अनि ल</w> 16360
po sts</w> 16357
उप भो 16357
न क 16352
a vi 16345
k ash</w> 16340
लो ड</w> 16340
afghan istan</w> 16337
ल् ला</w> 16336
3 9</w> 16334
ड्रा इ 16319
0 5</w> 16304
प ढ 16300
ले क् 16298
fin e</w> 16298
nor mal</w> 16293
as king</w> 16289
vi o 16288
hol ds</w> 16287
y an</w> 16286
ंड ी</w> 16286
a x 16285
ब ंगा 16285
wa ste</w> 16283
मा नी</w> 16282
separ ate</w> 16280
pre par 16278
or a</w> 16277
shi v 16273
ऊ र्जा</w> 16270
धार् मिक</w> 16270
क् का</w> 16267
gr and</w> 16267
r at 16264
n it 16263
े ंद्र</w> 16258
हो नी</w> 16256
b oun 16248
दू ध</w> 16242
आत् म 16242
सो सि 16235
रह ेगी</w> 16232
com mo 16231
तो ड़</w> 16231
we d 16220
n ership</w> 16219
su per</w> 16218
जे क्ट</w> 16206
ड ्यू 16202
hou sing</w> 16201
सं देश</w> 16199
शा ह 16195
dic t</w> 16192
st ars</w> 16191
k un 16189
यूनि वर् 16189
no ti 16186
com e 16184
201 9, 16184
नि यां</w> 16181
बा न</w> 16178
prac tice</w> 16175
initi ative</w> 16172
5 6</w> 16170
सि द्धा 16160
सं वाद</w> 16158
sal man</w> 16150
res sed</w> 16142
सुप्री म</w> 16137
थो ड़ी</w> 16135
त ना 16133
भ रा</w> 16131
ta tions</w> 16130
mat ches</w> 16130
व ं 16129
al ty</w> 16122
दे श्य</w> 16122
co al</w> 16119
हौ ल</w> 16115
ले गा</w> 16114
से क्स</w> 16113
पुरा नी</w> 16099
off ers</w> 16098
o s 16088
u ters</w> 16086
से क्टर</w> 16076
wee k 16075
र जि 16074
m ap 16073
reg ard</w> 16073
rela tions</w> 16072
f ren 16069
हि साब</w> 16069
on going</w> 16066
रो कने</w> 16062
खो ज</w> 16060
man ner</w> 16059
ven tion</w> 16058
इंटर नेट</w> 16050
आ धु 16041
शे यर</w> 16041
महा न</w> 16041
oly mp 16037
ब्र ह् 16036
पत्र कार</w> 16035
क् टरों</w> 16032
का नों</w> 16025
car ry</w> 16025
न् स</w> 16024
म ती</w> 16015
ic ity</w> 16014
10 : 16012
फाय दा</w> 16009
ध न 16003
high li 16003
long er</w> 15997
co vered</w> 15996
part ner</w> 15992
प्रणा ली</w> 15992
लंब े</w> 15988
be low</w> 15987
appro ved</w> 15978
star ting</w> 15970
फ़िल् म</w> 15962
वि वे 15959
p c</w> 15954
kno wledge</w> 15954
partic ular</w> 15953
b se</w> 15948
2 : 15944
ti tu 15941
pa in</w> 15940
0 9</w> 15929
अन् ना</w> 15921
k at 15920
निर् धारित</w> 15920
ले ट</w> 15916
ex pen 15910
ऑ परे 15909
मै ने 15906
बा रा</w> 15904
जन क</w> 15903
ent ure</w> 15902
ंड ी 15901
म्म द</w> 15892
दर वा 15889
तुम्हा रे</w> 15888
नि या 15887
क पूर</w> 15886
eff ort</w> 15886
tu red</w> 15885
na ik</w> 15882
ना इ 15880
batt le</w> 15879
आ ग 15878
जाय ेगा</w> 15871
उदा हरण</w> 15866
jour ney</w> 15863
स क्रि 15850
reser ve</w> 15848
sex ual</w> 15847
ro se</w> 15846
लि ख</w> 15845
loc ation</w> 15842
वि त्त</w> 15839
le ts</w> 15834
sh oc 15833
aj i</w> 15833
शा ल</w> 15829
de g 15826
respec tively</w> 15818
च य</w> 15816
20 00</w> 15815
a ther</w> 15813
pa yment</w> 15813
a u</w> 15802
d ha</w> 15801
ग ईं</w> 15801
मि शन</w> 15790
निका ल</w> 15785
गै स</w> 15783
च ला 15782
stre et</w> 15778
lear ning</w> 15776
ip l</w> 15775
mish ra</w> 15772
el ing</w> 15768
हाई कोर्ट</w> 15767
hou se 15765
appe ared</w> 15762
5 7</w> 15758
co sts</w> 15758
w as 15757
tar ge 15757
dis ease</w> 15756
am ar 15752
मा हौल</w> 15749
डि जा 15742
जिन में</w> 15742
अपरा ध</w> 15742
am bi 15737
कान ू 15736
arm ed</w> 15732
fri end 15730
इं डि 15725
reta il</w> 15718
सा रा</w> 15714
इस ी 15712
प ल 15710
मा रे</w> 15710
inf lation</w> 15708
च म 15704
4 6</w> 15700
comple x</w> 15700
गो ली</w> 15699
तैना त</w> 15688
ध न्य 15684
ब जाय</w> 15683
सु ख</w> 15683
war i</w> 15683
sa ve</w> 15681
मान ते</w> 15679
lan ka</w> 15677
tr ou 15674
har i</w> 15668
re ality</w> 15662
को र</w> 15661
सहा यक</w> 15657
शिवि र</w> 15655
t ent</w> 15651
रह ेंगे</w> 15651
sa ud 15650
ang ana</w> 15648
imple men 15642
s port</w> 15641
न ू</w> 15635
deg ree</w> 15618
4 3</w> 15616
democr acy</w> 15614
ट री</w> 15613
fl ic 15609
id a</w> 15605
ri es</w> 15599
con vic 15593
ra tive</w> 15591
मुकाब ले</w> 15591
pla ys</w> 15590
pol ici 15589
कर् ता</w> 15588
क् लिक</w> 15585
ना क</w> 15585
reg im 15581
suici de</w> 15579
lab our</w> 15576
ग्र ु 15572
de mon 15571
polici es</w> 15568
cl es</w> 15563
उद् देश्य</w> 15561
di pl 15547
tem per 15547
स् य</w> 15546
c ore</w> 15543
cho ice</w> 15541
exam ination</w> 15537
पि क</w> 15535
उ चित</w> 15533
is tic</w> 15526
ची नी</w> 15525
0 8</w> 15523
ण न</w> 15521
en ted</w> 15521
राज ेश</w> 15515
मुला कात</w> 15515
क् लब</w> 15514
st one</w> 15512
es sen 15508
व्य क्त</w> 15507
प्रा इ 15505
समझ ौ 15500
elec tor 15498
dipl om 15493
sh ou 15489
फाइन ल</w> 15487
अप ील</w> 15485
री य</w> 15484
गृ ह</w> 15480
st ake</w> 15479
col leg 15477
पत् थ 15472
colleg es</w> 15465
critic al</w> 15460
mis sed</w> 15458
बो ला</w> 15457
continu es</w> 15457
am id</w> 15451
cu sto 15443
के शन</w> 15440
i tion</w> 15435
is o 15435
c r</w> 15428
हाला त</w> 15427
नियंत्र ण</w> 15425
r ac 15424
0 1</w> 15422
्र ो 15417
देख ी</w> 15408
झारख ंड</w> 15408
ent ation</w> 15405
u sh 15403
पश्चि म</w> 15401
see k</w> 15397
बचा ने</w> 15397
tri c</w> 15388
खा ते</w> 15387
शिक्ष कों</w> 15387
नज़ र</w> 15384
produc ed</w> 15383
सड़ कों</w> 15383
c a</w> 15382
बधा ई</w> 15380
लग ती</w> 15378
sc ale</w> 15378
किलो मीटर</w> 15372
fe ar</w> 15362
रा ह</w> 15360
ए सोसि 15358
200 4</w> 15348
बो ल</w> 15339
ं व</w> 15335
op in 15335
कल् प 15333
ृ त</w> 15328
sig n</w> 15328
gu n</w> 15325
मो र् 15323
f ying</w> 15318
ब म</w> 15317
ex clu 15316
incl udes</w> 15315
बा ज</w> 15311
ग न</w> 15310
रि कॉ 15306
व की 15304
यु वाओं</w> 15304
dri ver</w> 15304
जवा न</w> 15302
इंत जार</w> 15300
r oun 15299
सा थी</w> 15299
com peti 15284
vi g 15283
mi gr 15282
ठ े</w> 15281
4 1</w> 15277
ser ved</w> 15272
im pres 15266
स त 15265
en try</w> 15264
सं ग</w> 15252
a dem 15249
दा तर</w> 15248
ष् ठ 15248
vi a</w> 15243
k ap 15242
ट ें</w> 15240
हि क</w> 15237
min imum</w> 15234
e e</w> 15229
su mp 15224
in i</w> 15222
सं बो 15222
ur ged</w> 15214
doc uments</w> 15211
max imum</w> 15205
al ism</w> 15203
smar t</w> 15203
st ations</w> 15199
ro y</w> 15197
su s</w> 15196
उ ल 15195
चे हरे</w> 15194
pur pose</w> 15194
प रा 15188
ch ur 15188
au r</w> 15185
inde x</w> 15182
form ing</w> 15174
streng th</w> 15171
व ली</w> 15169
he ard</w> 15163
अ जय</w> 15161
syst ems</w> 15161
अ क्ष 15159
क न</w> 15158
cont est</w> 15154
छत्तीस गढ़</w> 15148
or ing</w> 15147
बा दी</w> 15147
अं तर</w> 15143
k esh</w> 15142
मं डी</w> 15141
comp en 15137
ou gh 15135
5 4</w> 15130
सचि न</w> 15125
समस्या ओं</w> 15124
ख़ ा 15121
0 ,000</w> 15120
introduc ed</w> 15115
confir med</w> 15114
वि त् 15108
उठा या</w> 15106
्र ी 15105
ला ल 15100
टि क</w> 15097
गति वि 15097
घो टा 15094
engine ering</w> 15094
e ce</w> 15088
pur su 15087
कर ू 15083
लगा कर</w> 15078
ter rit 15076
मृत्य ु</w> 15066
भा स्कर</w> 15063
समा धान</w> 15062
de ad 15060
या त्रियों</w> 15058
आ लो 15057
tele vision</w> 15056
सा धन</w> 15051
il ing</w> 15049
bir th</w> 15048
spokes man</w> 15044
ट कर</w> 15037
clim ate</w> 15036
तीस रे</w> 15035
islam ic</w> 15035
dis play</w> 15027
bal ance</w> 15021
दी न</w> 15020
sh op 15017
m k</w> 15012
dou ble</w> 15011
multi ple</w> 15002
we ap 14999
वा ने</w> 14994
न्या स</w> 14994
t our</w> 14990
comple tely</w> 14989
पी ठ</w> 14986
पढ़ े 14985
बी मारी</w> 14981
ca ste</w> 14972
ey e</w> 14965
बराम द</w> 14964
न ती 14962
ish ment</w> 14958
ti t 14954
दा म</w> 14950
f light</w> 14946
tri al</w> 14934
ah mad</w> 14929
मि लते</w> 14922
p age</w> 14921
de leg 14919
happ en</w> 14916
तो ष</w> 14916
याचि का</w> 14911
cent res</w> 14909
l en 14908
र् जी</w> 14901
m ist 14897
uni que</w> 14894
re vol 14892
कर् मियों</w> 14891
techn ical</w> 14888
ha m</w> 14885
subjec t</w> 14884
अ ंग 14883
ver sion</w> 14883
पड़ ेगा</w> 14879
पा ते</w> 14878
र ज 14876
invest ments</w> 14873
na tive</w> 14872
किता ब</w> 14871
manufac turing</w> 14868
shi v</w> 14861
expec t</w> 14857
m ps</w> 14854
ग्रु प</w> 14853
b id</w> 14847
d il 14843
लौ ट</w> 14842
एजे ंसी</w> 14839
0 8 14838
ar a</w> 14834
speak er</w> 14834
and hra</w> 14833
सं के 14829
अं त 14829
मु कद 14827
d c</w> 14824
च ंद्र 14819
म ला</w> 14816
g ul 14813
ँ च</w> 14812
3 1 14811
ै र</w> 14809
क ठि 14800
th o 14797
र् क</w> 14794
war a</w> 14793
t ask</w> 14789
p es</w> 14788
programm es</w> 14787
व धान</w> 14781
de v 14778
d ary</w> 14774
or dered</w> 14773
be ha 14770
champ ion 14769
t ings</w> 14768
ac e 14768
म धु 14764
ख ड़ी</w> 14764
ri d 14762
गां वों</w> 14759
भ ै 14752
न्या य 14751
go ti 14746
avo id</w> 14743
डा ला</w> 14741
dis a 14740
pu s</w> 14738
sec tions</w> 14738
सी य</w> 14737
टि व</w> 14733
i v</w> 14732
म स 14731
rec ru 14724
यूनिवर् सिटी</w> 14716
त् मा</w> 14713
सो ने</w> 14711
af ter 14705
संबंध ी</w> 14705
ad it 14704
su d 14703
k sh 14701
ser ve</w> 14699
क् तियों</w> 14698
pancha yat</w> 14696
म ना</w> 14694
स्ता नी</w> 14694
we al 14689
श ॉ 14686
ze aland</w> 14685
kore a</w> 14683
ex hi 14682
legis lat 14682
काउ ं 14682
passen gers</w> 14681
सु ंदर</w> 14680
beg in</w> 14675
क्षे त्र 14674
ref used</w> 14674
import ance</w> 14673
परि योजना</w> 14672
ष ों</w> 14668
fi ghting</w> 14659
n ir 14657
कि त</w> 14644
ca used</w> 14643
मिले गी</w> 14640
presen ted</w> 14635
क ड़े</w> 14634
mic ro 14633
wic kets</w> 14629
द् वार</w> 14624
राज ीव</w> 14624
con flic 14623
गं ज</w> 14623
w icket</w> 14622
गठ न</w> 14607
p in 14606
कार्यकर् ता</w> 14605
ver se</w> 14597
m ali 14595
रि या 14594
sol ution</w> 14594
in si 14593
जि लों</w> 14592
मुं ह</w> 14592
z one</w> 14590
ट्र क</w> 14590
n and 14587
लड़ ाई</w> 14585
वाह नों</w> 14584
नि कों</w> 14583
writ er</w> 14580
स्टा र</w> 14580
वा नी</w> 14579
देख ना</w> 14579
consi der</w> 14578
हाद से</w> 14578
पे ड़</w> 14577
ne goti 14574
op tion</w> 14571
हि न्द 14563
inci dents</w> 14559
छो टा</w> 14556
खरी द</w> 14554
मा त्रा</w> 14551
इंद ौर</w> 14550
in d 14549
sta dium</w> 14549
t un 14546
in qu 14541
luc know</w> 14539
be coming</w> 14536
cau ght</w> 14533
opport unities</w> 14528
we red</w> 14526
writ ing</w> 14526
हा इ 14525
अ हम</w> 14518
cc i</w> 14517
नो ट</w> 14515
feat ure</w> 14512
marri age</w> 14509
de v</w> 14507
tis garh</w> 14504
अ श् 14503
men tioned</w> 14502
च ों</w> 14501
कि नारे</w> 14501
se ly</w> 14499
वि ल</w> 14498
r ash 14489
sol di 14484
ज़ ी</w> 14482
beau ti 14482
का ओं</w> 14479
el se</w> 14472
दु कान 14470
y es</w> 14469
sho wn</w> 14457
boo st</w> 14457
सं कट</w> 14456
ong s</w> 14456
sa d 14454
द स्ता 14453
sha h 14452
सु ना</w> 14449
challeng es</w> 14447
electr icity</w> 14444
ज गत</w> 14440
le ss 14438
utt ar 14438
अफ सरों</w> 14437
धन्य वाद</w> 14436
सु ख 14434
अप ना 14433
r ss</w> 14430
go d</w> 14430
h ence</w> 14429
oper ating</w> 14428
air craft</w> 14426
no ted</w> 14423
sc ore</w> 14420
उस को</w> 14419
पर ंप 14418
americ a</w> 14418
pre pared</w> 14414
stu dies</w> 14411
ach es</w> 14404
सु झा 14400
sid es</w> 14400
cere mony</w> 14392
respec tive</w> 14390
र दार</w> 14388
e th 14386
ac tors</w> 14386
ई श्वर</w> 14385
ज़ ्या 14377
s kills</w> 14376
prev ent</w> 14374
o vers</w> 14373
क्र मण</w> 14373
wh om</w> 14372
वि वा 14371
लिख ने</w> 14369
रा ग</w> 14364
il it 14360
beg inning</w> 14357
br inging</w> 14352
diffe ren 14351
fav our</w> 14343
घा ट</w> 14341
we ight</w> 14340
sum mit</w> 14335
ड न</w> 14329
सम् मानित</w> 14326
appre ci 14326
po st 14324
end ers</w> 14323
shoo ting</w> 14322
क प् 14318
फि क</w> 14317
se ts</w> 14311
,201 6, 14300
t ali 14299
di e 14296
पु स्तक</w> 14287
न क्स 14284
sh aring</w> 14280
0 7</w> 14275
car rying</w> 14275
मा नों</w> 14274
im ag 14274
ici ent</w> 14273
6 00</w> 14265
m att 14264
जो शी</w> 14264
ter nal</w> 14260
आ इ</w> 14259
मा य 14259
com ment</w> 14251
कु र् 14249
इला कों</w> 14249
b ir</w> 14246
कह ता</w> 14245
depart ments</w> 14245
cle arly</w> 14243
आ शा</w> 14242
बो ली</w> 14235
कल्या ण</w> 14230
an ced</w> 14228
activ ity</w> 14225
ni a</w> 14224
सं पत्ति</w> 14217
ch r 14215
assist ant</w> 14215
twee ted</w> 14213
खु ला 14211
lear n</w> 14209
हजा रों</w> 14209
ट म</w> 14207
primar y</w> 14204
म् मत</w> 14200
व सू 14199
plan ned</w> 14199
तुम् हें</w> 14195
अ ल</w> 14194
यू रो 14190
वि जे 14187
0 6</w> 14186
ति वारी</w> 14186
ve ter 14186
5 8</w> 14181
phys ical</w> 14178
te es</w> 14177
उ क्त</w> 14175
ले ता</w> 14175
in ations</w> 14172
यु ग</w> 14172
t ar</w> 14163
n or</w> 14160
जि ला 14156
खिला ड़ियों</w> 14154
cor rec 14153
am ed</w> 14143
5 3</w> 14142
ट्रा ंस 14142
द ू</w> 14141
ढ ू 14141
profes sional</w> 14141
सला ह</w> 14139
so ft</w> 14138
pri yan 14137
प ंच 14136
pro per</w> 14135
शि प</w> 14130
ac ts</w> 14127
adv ant 14125
se iz 14124
ja it 14121
रु ख</w> 14120
er ous</w> 14113
bo ys</w> 14110
sen d</w> 14110
भ री</w> 14105
opin ion</w> 14104
sa r</w> 14101
तस्वी र</w> 14101
del ines</w> 14093
leav ing</w> 14092
we ather</w> 14088
spe ak</w> 14078
च लाने</w> 14077
,201 2</w> 14077
लिख ी</w> 14077
बे टा</w> 14074
c ars</w> 14073
अ ली</w> 14073
श ही 14064
immedi ate</w> 14059
रा ंची</w> 14056
टे न</w> 14054
समझ ा 14046
ँ गा</w> 14045
दि ये</w> 14044
पा त</w> 14044
heal thy</w> 14044
ad mitted</w> 14042
5 ,000</w> 14031
निर् वा 14029
sit ting</w> 14025
वि कल्प</w> 14024
m am 14018
dem anding</w> 14016
ख ो</w> 14011
saud i</w> 14010
पर्या वरण</w> 14007
ou red</w> 14006
spe ed</w> 14006
अर ब</w> 14006
चै नल</w> 14005
8 5</w> 14002
an and</w> 14002
छू ट</w> 14000
9 : 13999
क् त 13997
यू पी</w> 13997
emer gency</w> 13997
prof essor</w> 13996
प् ति</w> 13993
a il</w> 13990
इच्छ ा</w> 13988
di o</w> 13984
ac adem 13979
पा य 13976
it er 13973
पहुंच ने</w> 13972
3 : 13969
ध र् 13967
hospit als</w> 13967
dec ade</w> 13966
develo p</w> 13965
ह ल 13962
ye ster 13962
ali ties</w> 13962
न्द र</w> 13957
मं त्र 13954
छो ड़कर</w> 13951
tou ch</w> 13951
sta ur 13947
पर न्तु</w> 13943
re staur 13939
लू म</w> 13939
हा र् 13938
अ त्य 13931
cho w 13930
t ough</w> 13928
bom bay</w> 13927
ad dition</w> 13926
चुनौ ती</w> 13926
ऑ स्ट्रे 13925
गे ंद 13918
prote c 13914
ई सा</w> 13911
भ ौ 13910
fem ale</w> 13910
ने स</w> 13909
fren ch</w> 13908
a wards</w> 13906
फा इ 13900
… … 13894
जिन के</w> 13894
शा न 13890
as pec 13886
कि न्तु</w> 13884
0 00</w> 13883
ख ्य 13883
pre dic 13883
उ ंड</w> 13880
sy m 13871
प ब् 13870
simp le</w> 13870
resear chers</w> 13866
बल् ले 13862
b ly</w> 13861
मुख ्या 13861
रं जन</w> 13857
e k</w> 13853
o o 13851
i j 13849
झ े 13848
w at</w> 13845
ए च</w> 13843
ख ून</w> 13842
सा क्ष 13840
लड़ कियों</w> 13840
सो चा</w> 13835
ख़ ु 13830
wed ding</w> 13830
रह ें</w> 13829
लग ते</w> 13823
त थ 13822
z er 13819
chhat tisgarh</w> 13818
पृ थ 13801
shor t 13797
i ra 13794
fam ous</w> 13792
क प</w> 13790
gh t 13789
बंध क</w> 13787
नि र 13786
रि यल</w> 13773
सी सी 13772
deli very</w> 13772
नो टिस</w> 13771
sha n</w> 13770
cle an 13769
fu el</w> 13768
prote ct</w> 13768
पीड़ ित</w> 13768
reli ance</w> 13766
ख् त</w> 13758
appoin tment</w> 13755
sugge sted</w> 13755
po sing</w> 13753
चौ हान</w> 13752
de but</w> 13746
ple a</w> 13745
0 7 13744
प्र ता 13744
den ied</w> 13735
सक ें</w> 13732
me an</w> 13730
wa it</w> 13730
establ ished</w> 13729
वे तन</w> 13725
प्र ो</w> 13718
mater ial</w> 13718
terror ist</w> 13715
raj ya</w> 13714
द लों</w> 13709
euro pe</w> 13704
al ore</w> 13703
दि खा</w> 13701
आ गा 13700
p ath</w> 13693
sy ri 13693
associ ated</w> 13690
t es 13688
exten ded</w> 13682
h it 13680
metr o</w> 13680
u d</w> 13679
0 3</w> 13679
दृ श्य</w> 13678
pre sid 13676
s ses</w> 13675
f ir</w> 13675
पढ़ ने</w> 13673
resid ence</w> 13668
ध् व 13668
communic ation</w> 13664
fac ility</w> 13662
direc tion</w> 13662
co operation</w> 13661
speci fic</w> 13661
consum ers</w> 13659
y am</w> 13657
sump tion</w> 13656
तर् क</w> 13653
auth or</w> 13651
t an</w> 13650
witnes sed</w> 13645
stand ard</w> 13643
re mo 13642
i e</w> 13641
0 4</w> 13636
co ordin 13635
parliam entary</w> 13634
ow ned</w> 13629
मह त्व</w> 13628
प्रत्या शी</w> 13625
म्म ू</w> 13624
वैज्ञा निक</w> 13619
3 7 13613
जिन् होंने</w> 13607
प टेल</w> 13605
ch ou 13601
शा ली</w> 13599
s ri 13597
ग ड़ 13592
in struc 13589
discus sed</w> 13589
tr an 13588
appro val</w> 13588
religi on</w> 13588
9 5</w> 13584
ak h 13577
l led</w> 13576
अध्य क्षता</w> 13575
we ak 13564
तहसी ल</w> 13560
समु दाय</w> 13555
सि ल 13553
प्रा रं 13553
कारो बार</w> 13552
शि यों</w> 13550
स ने</w> 13548
c c</w> 13544
गु स् 13542
प्रो जेक्ट</w> 13541
बना ना</w> 13537
का ग 13533
जाग रू 13533
hand ed</w> 13529
दी पक</w> 13526
p and 13525
independ ence</w> 13525
नि यु 13524
सीबी आई</w> 13524
oc cup 13523
न वी 13522
जाए ं</w> 13522
ja in</w> 13522
power ful</w> 13522
di v 13510
इ ंग् 13508
बै ठ</w> 13507
th ak 13505
bang alore</w> 13500
off ering</w> 13499
ro g 13495
l al 13494
red dy</w> 13494
गौर तलब</w> 13494
mee tings</w> 13487
stop ped</w> 13486
गु ण 13485
p ns</w> 13484
उ ता 13482
दि मा 13482
द वा</w> 13477
war ded</w> 13470
0 2</w> 13469
ac her</w> 13469
8 ,0 13466
सं वेद 13455
स त्य</w> 13454
ओ वर</w> 13453
bir th 13452
ro hit</w> 13438
ब ौ 13436
विद्या र्थियों</w> 13435
शह रों</w> 13432
regim e</w> 13432
develop ing</w> 13431
dam age</w> 13431
इन का</w> 13430
स त् 13429
titu de</w> 13428
क्र ी</w> 13426
ज म्मू</w> 13425
as sured</w> 13425
० ०</w> 13422
w ish</w> 13419
pa rent</w> 13419
ब ्यू 13418
repor tedly</w> 13418
युव ती</w> 13418
n es</w> 13413
पु ल</w> 13406
retur ned</w> 13403
v ant</w> 13398
ab s 13396
6 : 13394
moham mad</w> 13393
शु भ 13392
मि ल 13389
me chan 13387
mar ried</w> 13384
अ प</w> 13383
अ मित</w> 13376
l un 13375
k ur 13374
in nings</w> 13373
बद मा 13373
appro pri 13370
कर वा</w> 13368
सम् बन् 13361
स् वर् 13360
दु ष् 13360
qu e 13359
h tt 13357
शे ष</w> 13354
ध ों</w> 13353
वर् क</w> 13352
jait ley</w> 13352
main tain</w> 13351
new sp 13351
govern ance</w> 13350
शं का</w> 13349
be l</w> 13347
उम्मीद वार</w> 13346
चा य</w> 13341
deci de</w> 13340
curren cy</w> 13339
ati ya</w> 13339
hun dre 13338
h is 13337
जिस ने</w> 13320
करवा या</w> 13319
ki ds</w> 13319
ba il</w> 13318
fr ance</w> 13318
ढ ंग</w> 13312
fail ure</w> 13312
adver ti 13309
न् ना</w> 13306
appe al</w> 13305
de si 13301
टि या</w> 13300
di alo 13299
as ho 13297
ar un</w> 13294
डाय रे 13288
हिन्द ू</w> 13278
बिल् कुल</w> 13277
sa i</w> 13274
दर् भ</w> 13274
बह स</w> 13274
इ क 13273
निय मित</w> 13272
consid er 13271
ar ab 13268
sub st 13266
au to</w> 13265
8 00</w> 13264
cha n</w> 13264
4 : 13252
कह ती</w> 13252
sec tors</w> 13250
जम कर</w> 13250
ak hand</w> 13248
w ers</w> 13246
ev en 13245
yester day</w> 13241
y at 13240
जि ए</w> 13240
5 : 13229
ष ा 13229
cru cial</w> 13225
ade qu 13221
खा द्य</w> 13220
n ic 13217
200 2</w> 13217
मरी जों</w> 13217
अति थि</w> 13216
1 ,000</w> 13212
tain ment</w> 13212
मार पीट</w> 13212
terror ists</w> 13210
दै निक</w> 13209
एसोसि एशन</w> 13209
hundre ds</w> 13209
आसा नी</w> 13206
ve ge 13203
bhar atiya</w> 13201
beha vi 13197
orig inal</w> 13195
r on</w> 13194
a ya</w> 13192
महिला एं</w> 13192
st ands</w> 13191
reco vered</w> 13184
an ni 13180
trans fer</w> 13177
is n</w> 13175
mas s</w> 13175
चाहि ये</w> 13166
sun g</w> 13166
ra ising</w> 13163
sin ha</w> 13163
ताप मान</w> 13162
li ons</w> 13160
ag ram</w> 13158
min ing</w> 13158
लि यां</w> 13155
के न्द्र 13149
f loo 13148
फू ल</w> 13145
6 6</w> 13141
g am</w> 13139
li st 13138
newsp ap 13137
p ace</w> 13136
मा ल 13135
an cy</w> 13132
e state</w> 13129
बच पन</w> 13126
gu ard</w> 13122
ans wer</w> 13117
ज्या दातर</w> 13116
करवा ने</w> 13109
am ing</w> 13108
क ौर</w> 13102
न ू 13093
k ab 13092
ह द</w> 13092
pre ne 13092
f i</w> 13090
char ged</w> 13084
स्ट ी 13082
col labor 13077
क़ ा 13077
महा राष्ट्र</w> 13074
गा ने</w> 13073
s la 13072
fi gu 13069
ur i</w> 13067
ad ds</w> 13067
ए का 13066
मा स्टर</w> 13064
fav our 13064
priyan ka</w> 13060
inj uries</w> 13059
p ack 13055
स्टे ट</w> 13054
ey es</w> 13049
me ant</w> 13047
राय पुर</w> 13046
w ire</w> 13045
pol ling</w> 13044
deb ate</w> 13044
प त</w> 13042
ra y</w> 13039
उप चार</w> 13036
रा सत</w> 13034
श न 13033
/ 2014</w> 13031
op tions</w> 13031
जि तना</w> 13031
politici ans</w> 13031
पी एम</w> 13027
defe at</w> 13025
g au 13024
बंगा ल</w> 13024
inst ance</w> 13023
in d</w> 13019
ic c</w> 13019
8 : 13009
ख ें</w> 13008
y u 13007
ब ने 13006
some times</w> 13004
strate gic</w> 13001
जंग ल</w> 12999
discus s</w> 12998
घट ना 12997
high ly</w> 12993
श्रे ष्ठ</w> 12992
rou te</w> 12987
go als</w> 12986
ना मक</w> 12983
लं बी</w> 12983
amend ment</w> 12983
fil m 12978
बढ़ ती</w> 12977
an il</w> 12975
सि विल</w> 12975
वि शाल</w> 12972
न य</w> 12971
pa ir</w> 12966
d g 12955
ar ance</w> 12952
र हीं</w> 12951
poin ted</w> 12950
फ़ ् 12948
मनो ज</w> 12944
उ ड़ा 12943
under standing</w> 12939
uttar akhand</w> 12939
त रे</w> 12936
it able</w> 12931
w ani</w> 12929
अप े 12926
tele com</w> 12926
कले क्टर</w> 12919
distribu tion</w> 12918
क ू</w> 12916
भ रे</w> 12911
en ter</w> 12908
कु ं 12908
ent re 12908
obser ved</w> 12906
उपा ध्यक्ष</w> 12905
suff ered</w> 12902
योग दान</w> 12901
loc k</w> 12898
पढ़े ंः</w> 12895
intere sts</w> 12888
r ace</w> 12887
ac hal</w> 12886
अ रु 12885
promis e</w> 12881
नी तीश</w> 12879
and er</w> 12877
न र 12875
citiz en 12868
सक्रि य</w> 12864
आधु निक</w> 12863
फ ्रा 12862
नाग रिक</w> 12856
weal th</w> 12854
टे क् 12853
heal th 12853
on i</w> 12851
कम जोर</w> 12851
संके त</w> 12848
do w</w> 12844
r out 12840
sh r 12840
s ent 12838
z a 12838
लिख ित</w> 12838
op en 12837
अग ली</w> 12837
मशी न</w> 12836
sum mer</w> 12834
दे खि 12833
promis ed</w> 12831
matt ers</w> 12830
pur i</w> 12825
estim ated</w> 12821
inter nal</w> 12819
शी र् 12817
एक्स प्रेस</w> 12813
cr ic 12806
वा ं</w> 12805
शान दार</w> 12804
tra ding</w> 12802
n ab 12798
अख बार</w> 12795
प्र सिद्ध</w> 12794
क् की</w> 12793
wa iting</w> 12791
ना यक</w> 12790
em erg 12789
ho st</w> 12789
decis ions</w> 12783
ag ing</w> 12781
दे गा</w> 12779
mo stly</w> 12778
आ वास</w> 12777
ac ade 12774
स् पि 12773
अव धि</w> 12769
cal ling</w> 12769
li fe 12768
स् पर् 12766
si ze</w> 12766
कथ ित</w> 12764
scen e</w> 12762
prob ably</w> 12760
पै र</w> 12759
मा लूम</w> 12758
sa d</w> 12755
दर् श</w> 12754
इ रा 12752
b ing</w> 12751
इं सान</w> 12750
kar an</w> 12750
entre prene 12745
un fortun 12740
बी ते</w> 12740
क पड़े</w> 12737
सह योगी</w> 12735
identi ty</w> 12734
मूर् ति</w> 12734
दिखा या</w> 12733
inst agram</w> 12731
मुझ से</w> 12727
fi g 12726
reduc ed</w> 12726
नि भा 12724
de dic 12719
दि क</w> 12718
समझ ा</w> 12717
श्रे णी</w> 12716
ban erjee</w> 12713
br it 12711
gro w</w> 12711
ver dict</w> 12707
a pe 12705
mul ti</w> 12704
ah med</w> 12702
संबो धित</w> 12701
k y 12700
usu ally</w> 12699
ला खों</w> 12698
marke ting</w> 12692
appe ar</w> 12689
recor ds</w> 12686
ट र्स</w> 12685
ar ms</w> 12682
wal k</w> 12682
स की</w> 12678
ag end 12678
pro visions</w> 12676
ति थि</w> 12669
आई पी 12669
गि र</w> 12666
x i</w> 12663
pan ts</w> 12662
व हन</w> 12654
see m</w> 12653
स् कृतिक</w> 12651
त ीं</w> 12642
पड़ ो 12642
7 2</w> 12638
र ौ 12637
पो स्ट 12634
प्र कृति</w> 12629
b ound</w> 12623
p ir 12620
car ds</w> 12618
वि स् 12617
अ ब् 12613
pra kash</w> 12613
ली ज</w> 12610
लिख े</w> 12609
g b</w> 12604
बु रा</w> 12604
नि ग 12600
chang ing</w> 12598
स् क</w> 12597
जि द</w> 12596
उ प</w> 12591
द शक</w> 12590
proc es 12588
promo te</w> 12582
ti ous</w> 12580
ex ternal</w> 12573
डि यम</w> 12570
direc tly</w> 12564
am y</w> 12561
अ का 12555
स्ट्र ी</w> 12553
निय मों</w> 12551
f ake</w> 12549
a di 12546
ash es</w> 12539
om s</w> 12534
उत् सा 12526
क्रि या 12526
ga tive</w> 12525
गर् मी</w> 12520
मन मोहन</w> 12520
प द 12519
सू र्य</w> 12517
n da</w> 12513
ex am</w> 12513
2020 , 12510
रि ज</w> 12505
सु न</w> 12503
believ ed</w> 12497
activ ists</w> 12496
महा राज</w> 12493
न तम</w> 12490
citizen ship</w> 12490
sa tis 12487
krish na</w> 12485
oth er 12483
te sts</w> 12481
discus sion</w> 12481
g an</w> 12477
bh opal</w> 12477
ल का 12475
alli es</w> 12474
ty pe</w> 12471
ऑफि स</w> 12465
दि क् 12464
सो निया</w> 12463
elector al</w> 12462
मौजू दा</w> 12457
ज़्या दा</w> 12457
कि शोर</w> 12456
premi er</w> 12454
achi eve</w> 12453
झ ो 12450
gur u</w> 12450
वे द</w> 12447
sp ending</w> 12444
गु र 12441
बच्च ा</w> 12441
च र 12439
pro duce</w> 12434
po ses</w> 12433
10 . 12429
डे ढ़</w> 12429
ह ृ 12428
प ढ़</w> 12423
वि ष् 12422
requ est</w> 12420
de vi</w> 12417
भरो सा</w> 12407
वा दियों</w> 12406
वि तरण</w> 12406
बि क्री</w> 12406
ं दी</w> 12405
हिंद ू</w> 12402
at trac 12401
li sted</w> 12399
सि ने 12390
mar ath 12389
w w 12388
कंप ्यूटर</w> 12383
villa gers</w> 12380
kashmir i</w> 12377
ge ly</w> 12375
sit es</w> 12372
स ृ 12371
con dem 12369
लाइ ट</w> 12366
gu est</w> 12363
ब ढ 12361
पार् ट 12358
flo or</w> 12353
s man</w> 12350
tren d</w> 12336
ह त</w> 12333
दा बाद</w> 12332
in ter</w> 12331
mon it 12331
बच्च ी</w> 12331
t ac 12329
certi fic 12329
cap e</w> 12328
neighb our 12328
6 7</w> 12325
pic tures</w> 12325
चे ता 12320
f an</w> 12319
बॉ लीवुड</w> 12318
हु ये</w> 12315
ज ू</w> 12312
att end</w> 12311
सुनी ल</w> 12310
ने ट 12306
sh ops</w> 12297
m m</w> 12294
ro man 12293
उ र् 12290
acci dent</w> 12288
हा री</w> 12285
वे ट</w> 12282
e b</w> 12281
b ach 12278
con trac 12277
te acher</w> 12277
सां स्कृतिक</w> 12276
2 50</w> 12273
w all</w> 12273
वित् तीय</w> 12271
पी ने</w> 12269
च ंद्र</w> 12265
कार् यों</w> 12263
तकनी की</w> 12257
it es</w> 12256
गी ता</w> 12255
फ रार</w> 12253
बढ़ ने</w> 12252
फ ं 12248
लो गो</w> 12248
प्र वक्ता</w> 12247
consid ering</w> 12242
सो शल</w> 12241
tt a</w> 12241
मॉ डल</w> 12238
re n</w> 12234
फा र्म</w> 12233
por ary</w> 12231
p f</w> 12230
pow ers</w> 12230
k id 12228
k har</w> 12222
g or 12220
in fe 12220
ज रा</w> 12218
fe els</w> 12217
ex pl 12214
no w 12214
का ने</w> 12213
intere sting</w> 12212
रिकॉ र्ड</w> 12204
s war 12203
dri ving</w> 12203
घट नाओं</w> 12202
diffe rence</w> 12200
vers ary</w> 12197
co o 12196
cric ke 12193
hr u</w> 12192
कारि ता</w> 12191
ला श</w> 12185
cam pus</w> 12185
फो टो 12184
co ali 12182
अं तर्गत</w> 12181
dre am</w> 12180
f requ 12175
p sy 12168
घ ् 12164
fi xed</w> 12161
व ्र 12158
cl in 12156
सं पन्न</w> 12155
अध ी 12154
रु द्ध</w> 12153
वे यर</w> 12147
smart phone</w> 12144
n ur 12143
5 9</w> 12140
n r 12137
जा त</w> 12134
ला गत</w> 12134
हड़ ताल</w> 12134
वि स</w> 12131
बा ई</w> 12131
sc am</w> 12130
bl ue</w> 12125
s ach 12121
व्यव सा 12120
इं ड 12119
champ ions</w> 12119
no on</w> 12113
st an</w> 12111
se em 12111
जा हिर</w> 12110
m o</w> 12106
200 3</w> 12101
vir at</w> 12099
ब द्ध</w> 12098
g en</w> 12097
संचा लन</w> 12096
lar ger</w> 12095
z u 12093
ि या</w> 12093
an g</w> 12091
as ser 12089
fig ure</w> 12089
थ ु 12084
6 4</w> 12083
शो ध</w> 12081
jud icial</w> 12080
rema ining</w> 12079
form ation</w> 12078
re forms</w> 12075
दो षी</w> 12075
dru gs</w> 12074
आर क्षण</w> 12072
agend a</w> 12072
ag ar 12071
re vi 12069
सा ढ़े</w> 12069
स बुक</w> 12065
re member</w> 12063
मिश्र ा</w> 12063
दो स् 12062
en tered</w> 12060
attac ked</w> 12058
part ners</w> 12057
न ये</w> 12055
म स् 12055
कारा त्मक</w> 12054
fac es</w> 12043
sm en</w> 12034
क क्षा</w> 12030
s tic 12029
चि न् 12029
स्ट ै 12028
t ally</w> 12021
be comes</w> 12021
कप् तान</w> 12019
i er</w> 12017
प टा 12012
de a 12009
रो ध</w> 12009
साइ किल</w> 12008
hom es</w> 12007
ber g</w> 12005
mon soon</w> 11999
thin king</w> 11996
सं सार</w> 11995
ear th</w> 11995
पत्थ र</w> 11995
es h 11990
लि यन</w> 11989
ब ्या 11987
in sp 11986
हरा या</w> 11981
ता री</w> 11979
wa i 11979
p ush</w> 11978
acade my</w> 11976
ne hru</w> 11974
स कर</w> 11971
acqu is 11970
du l</w> 11969
उत्तरा खंड</w> 11968
y i 11965
k ings</w> 11963
c pi</w> 11956
st al 11951
amaz on</w> 11947
से ट</w> 11946
चे यर 11938
joh n</w> 11938
नै तिक</w> 11936
tri bal</w> 11930
सिल सि 11930
आ युक्त</w> 11927
हिस् से</w> 11927
को च</w> 11926
मा ं 11925
म ल् 11918
dela y</w> 11917
hel ps</w> 11914
न्यू ज</w> 11913
इला हा 11912
कल्प ना</w> 11912
in c</w> 11908
अर्थ ा 11906
प्रे र 11905
च ंडी 11903
part nership</w> 11901
do z 11899
कि लो</w> 11897
s wit 11896
on ed</w> 11890
निका ला</w> 11890
आतं की</w> 11888
s sed</w> 11886
tig er</w> 11881
theat re</w> 11876
क ़</w> 11875
wel come</w> 11875
संगठ नों</w> 11875
पुन र् 11875
e ding</w> 11872
ter y</w> 11872
हो ली</w> 11869
retur ns</w> 11868
ल पुर</w> 11867
आखि री</w> 11866
पा ता</w> 11863
अधिका ंश</w> 11862
ब चा</w> 11861
campa ig 11860
प ंड 11854
क ें</w> 11854
high way</w> 11850
sof tw 11849
धर ती</w> 11845
प्रो फे 11843
म ्</w> 11835
ad ed</w> 11835
sp end</w> 11835
fin als</w> 11832
न्द गी</w> 11817
cir cu 11815
fo li 11813
ar vind</w> 11812
sy n 11805
sup porters</w> 11803
coali tion</w> 11801
क ड़ा</w> 11798
bi tion</w> 11797
wor st</w> 11796
जन रल</w> 11794
जन् म 11789
7 : 11788
recomm end 11787
simp ly</w> 11780
रु प</w> 11777
birth day</w> 11776
विद ्यु 11775
mu kh 11772
प्र माण</w> 11768
isra el</w> 11765
se gment</w> 11764
ob ama</w> 11758
representa tives</w> 11758
gg ed</w> 11757
सके ंगे</w> 11754
w ala</w> 11752
ज्ञा त</w> 11749
z z 11745
b is 11744
रे शन</w> 11744
इसी लिए</w> 11744
पा ठ</w> 11742
कर् मी</w> 11741
पह ल</w> 11740
ali a</w> 11738
लू ट</w> 11736
es war</w> 11735
इ यों</w> 11733
compla ints</w> 11733
can cel 11732
प ि</w> 11731
softw are</w> 11729
bs p</w> 11727
de ce 11722
lo sing</w> 11720
वा सन</w> 11717
ga on</w> 11714
l ord</w> 11711
busin esses</w> 11710
n an 11708
म नी 11708
anni versary</w> 11707
पं जी 11705
न म</w> 11704
no tes</w> 11700
दौ ड़</w> 11700
h ra 11699
stat ements</w> 11697
न् हा</w> 11692
रा केश</w> 11689
6 2</w> 11688
तुम्हा री</w> 11686
टा ई</w> 11684
म हो 11674
ar m</w> 11668
सुन ने</w> 11667
आ बादी</w> 11666
simil arly</w> 11664
6 8</w> 11663
dis ci 11657
bran ch</w> 11656
ह फ् 11654
lo gies</w> 11653
u t 11652
susp ended</w> 11651
ver ing</w> 11645
ic es</w> 11640
ह वाई</w> 11638
enter tainment</w> 11638
कानू नी</w> 11633
अफ सर</w> 11631
cin ema</w> 11629
लि स्ट</w> 11628
व रों</w> 11626
नि वे 11622
ं सि 11620
द्वि तीय</w> 11620
ह ंगा 11618
अ रे</w> 11618
गो ल</w> 11612
fe et</w> 11611
रि यां</w> 11610
ru led</w> 11606
सी टों</w> 11606
organis ations</w> 11606
coun ter 11604
ख ला</w> 11597
सा ई</w> 11596
फ़ ी</w> 11593
वि नो 11591
sho wing</w> 11588
rail ways</w> 11581
d ated</w> 11577
la id</w> 11577
वार दा 11575
vol un 11573
/ 2015</w> 11571
announ cement</w> 11567
लि हा 11566
wh ate 11563
वि चारों</w> 11561
पू ं 11561
स्व तं 11558
whate ver</w> 11556
ob vi 11551
head s</w> 11545
सु ल 11542
शै ली</w> 11542
z ation</w> 11541
movi es</w> 11540
ज रु 11539
ड ब्ल 11537
recog ni 11534
मजबू र</w> 11531
वकी ल</w> 11531
खुला सा</w> 11523
अ रवि 11521
सं स्था 11521
el a</w> 11520
pu tting</w> 11517
ri sts</w> 11516
बद ले</w> 11514
लड़ के</w> 11514
g dp</w> 11508
च रि 11504
ज री 11504
perfe ct</w> 11502
de vo 11501
योग ्य</w> 11500
टू ट</w> 11496
तकनी क</w> 11495
स्टूडे ंट्स</w> 11495
nor ms</w> 11493
वि ज्ञापन</w> 11490
दू सरों</w> 11486
या त्री</w> 11484
medi um</w> 11484
ad ing</w> 11483
sa v 11480
म क 11477
प्रतिनि धि</w> 11475
ow ners</w> 11474
it ely</w> 11472
sil ver</w> 11472
या ल</w> 11470
har d 11469
y m 11468
12 . 11467
मान सिक</w> 11466
नियु क्ति</w> 11465
qu ick 11461
सू त्र</w> 11459
द लित</w> 11457
mo tor 11457
त् सव</w> 11451
comm unities</w> 11449
भाष ा 11449
sub si 11448
compen sation</w> 11445
भू त</w> 11444
रख ें</w> 11440
इंडि यन</w> 11439
h o</w> 11438
lin k</w> 11438
छात्रा ओं</w> 11438
lo se</w> 11437
h ang 11436
पत्र कारों</w> 11436
टे ली 11431
पा स 11427
जो ध 11427
ab dul 11426
मि ट्टी</w> 11426
सु निश्चित</w> 11426
र वाना</w> 11424
gen der</w> 11423
g ad 11421
re uters</w> 11418
दि ख</w> 11418
चार् ज</w> 11418
qu i 11414
लोक तंत्र</w> 11414
जान ने</w> 11411
pl ants</w> 11407
her it 11406
शु क् 11402
लेख न</w> 11400
आउ ट</w> 11398
व ल 11397
cour ts</w> 11392
v enture</w> 11391
arri ved</w> 11387
cel l</w> 11386
आ शंका</w> 11383
tu m</w> 11381
क ने 11374
re pres 11374
दो बारा</w> 11374
extre mely</w> 11370
तना व</w> 11370
आ य</w> 11369
ला लू</w> 11368
yo ga</w> 11368
्य ू</w> 11367
a id</w> 11366
inv est</w> 11365
इंजी निय 11364
वा लि 11362
con sequ 11358
ड ों</w> 11356
आत् मा</w> 11354
च क्कर</w> 11353
सं तोष</w> 11353
rejec ted</w> 11353
was n</w> 11350
de pos 11348
dra w</w> 11346
बा प</w> 11344
प्रा चीन</w> 11342
t ap 11336
काम या 11336
a yo 11335
so lar</w> 11328
जान ता</w> 11326
head quarters</w> 11325
w adi</w> 11324
raj iv</w> 11323
ay an</w> 11323
bha g 11321
आजा दी</w> 11321
चि ट् 11318
de fic 11316
conflic t</w> 11316
पु ण 11313
doc tor</w> 11313
tic ket</w> 11312
fa ith</w> 11312
इं स</w> 11307
धम की</w> 11307
si x 11298
न्या या 11298
pil gri 11295
महा सचिव</w> 11292
desig ned</w> 11289
वे दी</w> 11285
न ृ 11278
ट का</w> 11277
मार् केट</w> 11277
gran ted</w> 11274
ला ह</w> 11273
direc tors</w> 11269
individu als</w> 11269
la tive</w> 11268
col our</w> 11268
bh at 11264
पा क</w> 11262
ex tra</w> 11261
equ ip 11258
j et</w> 11248
russi an</w> 11243
wel l 11238
स्त रीय</w> 11238
bab y</w> 11235
b es</w> 11233
पर ंतु</w> 11232
bro ke</w> 11231
पिछ ली</w> 11228
सम र् 11227
व्यक्ति गत</w> 11227
beauti ful</w> 11227
आई टी</w> 11226
pre mis 11224
मे न</w> 11220
ra i</w> 11218
घ ि 11215
kh s</w> 11213
न्य ू</w> 11210
मरी ज</w> 11210
o logy</w> 11208
st ak 11207
वि धि</w> 11207
ड र 11206
ज ें</w> 11205
cre d 11205
छा त्रा</w> 11199
fun ding</w> 11196
परी क्षण</w> 11189
re fu 11187
10 ,000</w> 11187
ap ore</w> 11186
दो ष</w> 11185
संर क्षण</w> 11182
dialo gue</w> 11182
pe ace 11180
मेह नत</w> 11179
we ar</w> 11178
por a</w> 11174
dro pped</w> 11174
k is 11171
मुख्या लय</w> 11170
जा नी</w> 11166
fil led</w> 11164
educ ational</w> 11164
asho k</w> 11164
advant age</w> 11163
अ म् 11162
ph il 11162
खे त</w> 11162
जिम्मे दार</w> 11161
म य</w> 11156
australi an</w> 11155
a tives</w> 11152
mar ked</w> 11151
, 2020</w> 11149
than ks</w> 11148
घा टन</w> 11145
बैठ ा</w> 11144
य ौ 11143
मं ड 11143
figu res</w> 11143
6 3</w> 11140
कैं सर</w> 11139
क्र मों</w> 11137
व्या पक</w> 11135
दिमा ग</w> 11134
प ंच</w> 11132
nei ther</w> 11131
mo del 11130
सं विधान</w> 11129
wi de 11129
aj ay</w> 11128
ख तरा</w> 11127
th ar 11124
initi al</w> 11124
ग ली</w> 11120
fer ring</w> 11120
min ority</w> 11119
पर्या प्त</w> 11116
ww w</w> 11115
ga in</w> 11114
assist ance</w> 11114
ख ंड 11112
tal ent</w> 11112
thr ough 11110
sur g 11105
मा या</w> 11100
सहा रा</w> 11098
p ic</w> 11097
selec tion</w> 11097
contr act</w> 11095
graph y</w> 11092
lo dged</w> 11086
val u 11084
लु ओं</w> 11084
si ster</w> 11082
jo ining</w> 11080
dram a</w> 11078
बद लने</w> 11077
fe eling</w> 11071
regist ration</w> 11071
उठा ने</w> 11069
स्वतं त्रता</w> 11068
de te 11062
chop ra</w> 11062
फ सल</w> 11061
con sumption</w> 11059
tion ally</w> 11058
provi des</w> 11055
बा ग</w> 11054
ना त्मक</w> 11052
रे खा</w> 11052
ea stern</w> 11051
खू ब 11049
जोध पुर</w> 11047
मान ्यता</w> 11046
मना या</w> 11046
वि मान</w> 11040
t ant</w> 11038
ser i 11038
disa ster</w> 11038
per mission</w> 11036
बु री</w> 11036
हथि यार</w> 11034
नि म् 11032
ढ े 11030
जु ड़ी</w> 11029
recog n 11029
health care</w> 11028
स भा 11027
commun al</w> 11021
ra vi</w> 11020
gr and 11014
chan nel</w> 11010
cam er 11009
chand ra</w> 11009
समझ ने</w> 11008
व स्तु 11007
ने श</w> 11003
साहि त्य 11003
सुझा व</w> 11003
200 1</w> 11001
f ting</w> 10998
re ply</w> 10998
tel angana</w> 10997
प दों</w> 10992
r um 10991
v als</w> 10991
हिन् दु 10989
इ लेक् 10987
sa in</w> 10984
te h 10983
चुना वों</w> 10982
loc als</w> 10981
sp on 10977
port foli 10974
ma ster</w> 10973
qu ick</w> 10970
र मेश</w> 10968
स्ट ॉ 10968
प्रा कृतिक</w> 10968
चि त्र 10967
जा या</w> 10966
डी सी</w> 10965
देख ो</w> 10964
पत्र िका</w> 10964
ता ला 10963
पक्ष ी</w> 10963
believ es</w> 10963
दोस् तों</w> 10958
इस े 10957
ape x</w> 10957
त न 10955
eas ily</w> 10953
acce pt</w> 10953
ger many</w> 10953
z ing</w> 10950
per man 10949
f ish</w> 10947
constitu tional</w> 10946
अ तः</w> 10944
par is 10941
ग्र स्त</w> 10940
11 . 10940
हिमा चल</w> 10940
आ पूर्ति</w> 10939
सर् च</w> 10937
क था 10934
lin ked</w> 10929
be ij 10925
उत् पन्न</w> 10922
पृथ ् 10921
dh oni</w> 10917
ta ins</w> 10915
up a</w> 10914
n one</w> 10913
बरा बर</w> 10913
थ े 10911
आ स</w> 10911
beij ing</w> 10911
च ि</w> 10910
शे र</w> 10908
fif th</w> 10907
shi ft</w> 10906
शु रु</w> 10902
as i</w> 10901
का ई</w> 10895
l ying</w> 10894
प्रा र्थ 10894
से ज</w> 10891
व ंत</w> 10890
au l</w> 10883
s log 10882
son ia</w> 10880
शु भ</w> 10878
bach chan</w> 10878
influ ence</w> 10874
k o</w> 10868
द गी</w> 10867
मै ने</w> 10866
b cci</w> 10862
it ems</w> 10859
wat i</w> 10858
ची ज</w> 10857
वृ त्ति</w> 10856
सम े</w> 10854
ai m</w> 10854
initi ally</w> 10853
य हीं</w> 10852
pro ve</w> 10851
हिंद ु 10851
nc p</w> 10850
sensi tive</w> 10848
gh ted</w> 10847
उ तर 10846
descri bed</w> 10846
सं शो 10843
mis s</w> 10843
a c</w> 10842
p har 10842
clas ses</w> 10842
प्र मो 10839
सू चित</w> 10838
l eng 10837
ब ला 10837
adequ ate</w> 10837
इस् ती 10836
7 00</w> 10835
मे र</w> 10831
सुरे श</w> 10831
su n</w> 10829
ti sation</w> 10828
वार् ता</w> 10828
mali k</w> 10825
fac ilit 10823
रो हित</w> 10822
मोह म्मद</w> 10822
j um 10820
आज कल</w> 10817
pu ts</w> 10816
शी र्ष</w> 10815
dol lar</w> 10814
law yer</w> 10809
sing er</w> 10806
प्र भ 10804
डी ए</w> 10803
pi ece</w> 10803
मुद् दा</w> 10803
her o</w> 10801
स च्च 10800
cy cle</w> 10797
custo dy</w> 10795
गि राव 10792
rele vant</w> 10792
श्या म</w> 10789
pro min 10788
gres sive</w> 10788
we b</w> 10787
tre ated</w> 10787
inqu iry</w> 10787
भ ंडा 10785
soldi ers</w> 10784
सब को</w> 10780
पाकि स्तानी</w> 10780
ले ंस</w> 10777
equ i 10776
main tained</w> 10772
elec tric</w> 10770
tru th</w> 10768
ब ई</w> 10765
पूर् वक</w> 10760
at eral</w> 10759
ज री</w> 10758
essen tial</w> 10758
vis h 10757
em en</w> 10750
le g</w> 10749
लि या 10746
ब्रि टेन</w> 10744
घ रे 10741
ग ले</w> 10740
ev ol 10739
bra z 10738
inspec tor</w> 10737
ए टी 10731
अके ले</w> 10731
खे ती</w> 10730
ro b 10729
ph y</w> 10729
दुर् घटना</w> 10727
चेता वनी</w> 10727
प्राथ मि 10725
फ़ ो 10723
युव कों</w> 10722
ch ris 10717
म मता</w> 10716
m ou 10715
dea ths</w> 10714
prote sters</w> 10711
सी न</w> 10708
क् ताओं</w> 10707
शि ष्ट</w> 10707
बी सी</w> 10705
vis iting</w> 10704
7 ,0 10703
ी म</w> 10703
th u 10703
stand ards</w> 10701
का ट</w> 10698
यो जन</w> 10698
डिजा इन</w> 10698
फे सबुक</w> 10697
pa ying</w> 10696
is lam</w> 10694
गिराव ट</w> 10694
certain ly</w> 10691
अफ ्री 10689
j ab 10687
कठि न</w> 10684
im posed</w> 10683
ट्रै फिक</w> 10683
ह नु 10682
de y</w> 10682
tou rists</w> 10682
deleg ation</w> 10682
ul ty</w> 10680
अमरी का</w> 10680
for t</w> 10679
जवा नों</w> 10676
स क</w> 10674
min or</w> 10674
ल वा 10672
घरे लू</w> 10672
ab ilities</w> 10670
न ंद</w> 10667
recei ve</w> 10667
ग लती</w> 10664
brit ain</w> 10664
no t 10663
z o 10659
ह र् 10658
war ned</w> 10656
परमा णु</w> 10656
sh ing</w> 10654
pri ority</w> 10654
प्र शास 10653
स् पी 10652
acce pted</w> 10652
सहम ति</w> 10641
बि ल 10640
निय न</w> 10640
crow d</w> 10639
कि मी</w> 10635
as ks</w> 10633
k ha</w> 10632
n u</w> 10632
me th 10632
herit age</w> 10632
per ce 10631
वि पक्ष</w> 10630
dis ru 10630
hop es</w> 10628
us d</w> 10624
बु लाया</w> 10623
निक ले</w> 10619
मुद् दों</w> 10619
civi c</w> 10619
अ मि 10618
द श 10617
to m</w> 10612
6 1</w> 10611
pay ments</w> 10609
pap ers</w> 10605
मंजू री</w> 10605
जता ई</w> 10604
p dp</w> 10602
i phone</w> 10599
तरी न</w> 10597
बॉ ल</w> 10596
partici pants</w> 10591
से ल</w> 10590
चो ट</w> 10590
ow ner</w> 10589
mo squ 10587
ह ट</w> 10585
er ies</w> 10582
जि ये</w> 10581
ti ally</w> 10580
री ज</w> 10579
डॉ क्टरों</w> 10576
s er</w> 10573
स त्य 10573
sing apore</w> 10573
mil k</w> 10573
हटा ने</w> 10573
वा ता 10572
अम ृ 10572
di e</w> 10568
app a</w> 10567
निरी क्षण</w> 10567
implemen ted</w> 10564
th ering</w> 10557
de gre 10556
pic k</w> 10556
तिहा सिक</w> 10555
be at 10554
celebr ated</w> 10553
pro vin 10552
प वि 10549
दू र 10548
भ ट् 10545
ne pal</w> 10544
नी ंद</w> 10543
hum an 10542
lo sses</w> 10540
ex pan 10539
anim al</w> 10539
gr ounds</w> 10538
de vices</w> 10537
fac tors</w> 10535
चंडी गढ़</w> 10535
मा ंगी</w> 10534
lo ad</w> 10534
vo ting</w> 10534
स् लाइ 10532
pa in 10531
mal ay 10527
स् क्र 10526
प्रति क्रिया</w> 10522
promis es</w> 10520
स् कोर</w> 10518
degre es</w> 10518
बा नी</w> 10517
के जरी 10517
f ts</w> 10516
सुना ई</w> 10514
बैं कों</w> 10514
सी नियर</w> 10513
through out</w> 10512
क्ष म</w> 10507
si m 10500
de mone 10498
s ound</w> 10497
पश्चि मी</w> 10497
मृ तक</w> 10496
emerg ing</w> 10494
ak sha 10493
rupe e</w> 10489
ंद े</w> 10484
chris ti 10484
अनु सं 10483
डा उन 10480
कॉ लोनी</w> 10477
fe e</w> 10476
ran chi</w> 10476
स्टा फ</w> 10475
ra ti 10474
and ro 10474
pl astic</w> 10474
wr ite</w> 10474
see ing</w> 10470
बचा व</w> 10468
ह स्ता 10466
appe ars</w> 10462
abs ence</w> 10457
ra ins</w> 10456
gu il 10456
friend ly</w> 10449
disci pl 10448
उद य 10447
strugg le</w> 10446
सु न्दर</w> 10444
अ जी 10442
c old</w> 10441
घ न</w> 10441
सि र् 10441
सप ना</w> 10440
lim it</w> 10438
ab road</w> 10433
al er 10430
inj ury</w> 10430
औ सत</w> 10427
th i 10427
भाग ्य</w> 10427
सा धारण</w> 10425
abdul lah</w> 10422
बा बू</w> 10420
क स् 10418
तत् काल</w> 10418
m es</w> 10415
decl ined</w> 10415
sun il</w> 10414
ne gative</w> 10412
new ly</w> 10412
suppor ted</w> 10412
मे ले</w> 10411
तारी ख</w> 10411
com fort 10409
defic it</w> 10406
केजरी वाल</w> 10406
पाठ क</w> 10405
ट्र ॉ 10400
a g</w> 10397
ir a</w> 10394
आ धा</w> 10393
ti s</w> 10393
k ath 10391
सम क्ष</w> 10391
en counter</w> 10390
ने ह 10390
अन् दर</w> 10387
भार ती</w> 10385
rescu e</w> 10385
advoc ate</w> 10377
विश् ले 10376
चेयर मैन</w> 10376
च तु 10372
bu sy</w> 10371
प्राथ मिक</w> 10370
u ally</w> 10365
गिरफ् तारी</w> 10365
addres sed</w> 10364
selec ted</w> 10360
e u</w> 10356
ष ा</w> 10356
te a</w> 10355
mal e</w> 10355
ho li 10354
सी मित</w> 10354
छ वि</w> 10352
फु ट 10351
win ter</w> 10350
पब् लिक</w> 10346
पर् व</w> 10345
s cor 10344
दा ई</w> 10344
pic ked</w> 10340
sub sequ 10338
dav id</w> 10337
s and 10335
ला पर 10335
per form</w> 10334
आ राम</w> 10333
आ दर्श</w> 10331
मान ता</w> 10326
st ating</w> 10325
ha ar</w> 10322
inde ed</w> 10322
ve er</w> 10318
fu n</w> 10316
परि चय</w> 10315
अनु मान</w> 10315
पार् षद</w> 10313
च लती</w> 10312
pati ent</w> 10310
जा ओ</w> 10309
aim ed</w> 10308
exce pt</w> 10305
surpr ise</w> 10304
pr int</w> 10300
au d 10297
विनो द</w> 10297
संपा दित</w> 10296
सर् वे</w> 10295
squ ad</w> 10295
dispu te</w> 10294
न ने</w> 10290
scienti sts</w> 10290
भ क्ति</w> 10288
ले गी</w> 10288
सफ र</w> 10287
mag ist 10287
par is</w> 10285
gh o 10285
po ol</w> 10280
पा र 10280
ं ति 10279
us er</w> 10278
पर्य टन</w> 10278
स्थि तियों</w> 10272
भाष ण</w> 10271
sk in</w> 10271
win ner</w> 10265
app ly</w> 10263
per formed</w> 10260
ऑस्ट्रे लिया</w> 10260
शास् त्र</w> 10259
सं चार</w> 10257
मह ज</w> 10257
ul a</w> 10256
दिव सीय</w> 10254
खु ले</w> 10252
contro versi 10252
निक ला</w> 10251
ला इसे 10250
गठ बंधन</w> 10248
bl es</w> 10247
ट्र ीय</w> 10246
आतंक वाद</w> 10244
cont act</w> 10241
purcha se</w> 10241
appropri ate</w> 10241
पु ष् 10240
स क्षम</w> 10239
गाय ब</w> 10236
in ess</w> 10234
mir ror</w> 10232
वि रुद्ध</w> 10230
re moved</w> 10228
ता जी</w> 10228
दा खिल</w> 10228
we i 10226
k new</w> 10224
बन कर</w> 10218
pr of</w> 10217
il a</w> 10216
sug ar</w> 10215
का लेज</w> 10213
ह ु</w> 10207
उ जा 10206
weap ons</w> 10205
फ़ि र</w> 10201
g ate</w> 10198
ac compan 10197
य कों</w> 10192
anim als</w> 10191
शा री 10190
er o 10188
अम र</w> 10184
lo ws</w> 10182
विद्यु त</w> 10180
conce pt</w> 10177
हो ंगी</w> 10176
ह री 10172
read ing</w> 10170
academ ic</w> 10170
बा ँ 10169
ट क्कर</w> 10168
reque sted</w> 10168
अं जाम</w> 10166
द्र ा</w> 10164
r on 10162
ं की</w> 10162
inv ited</w> 10161
का ंड</w> 10159
श ्</w> 10155
lu x 10153
ट ली</w> 10152
खे लने</w> 10152
gui delines</w> 10152
gh tly</w> 10148
pur a</w> 10145
sen ti 10141
spi rit</w> 10141
re sig 10140
id u</w> 10140
त्र ि</w> 10137
भ रने</w> 10129
बेह तरीन</w> 10129
si kh</w> 10128
ide as</w> 10128
इ जा 10126
ah med 10126
dra ft</w> 10124
de vice</w> 10120
श्र ृ 10119
एस सी</w> 10119
ra i 10118
tion ary</w> 10117
compu ter</w> 10117
hon our</w> 10116
s al</w> 10113
schedu le</w> 10113
गि यों</w> 10110
स् मृ 10104
शही द</w> 10103
लगा ते</w> 10102
धी श</w> 10102
म ण 10101
cl ari 10101
int end 10099
applic ations</w> 10098
क च 10096
o di</w> 10095
bo ss</w> 10095
offic es</w> 10095
he ar</w> 10094
a z</w> 10093
च स् 10091
7 1</w> 10090
oc cur 10090
अस ली</w> 10090
gi ble</w> 10088
lar gely</w> 10088
tri bu 10086
ध् या</w> 10086
आ कार</w> 10084
g ar</w> 10083
ह त्या 10083
कु मारी</w> 10083
२ ० 10078
बा दल</w> 10078
चुना वी</w> 10077
जु न</w> 10075
b ak 10074
ड ु 10074
स् ता</w> 10074
st ress</w> 10073
म ल 10071
ख़ ि 10070
व्या व 10069
has kar</w> 10069
बु द् 10068
पढ़ ें</w> 10067
रूप ये</w> 10067
seiz ed</w> 10067
x ing</w> 10064
tre es</w> 10062
stoc ks</w> 10059
s ons</w> 10057
अहम द</w> 10056
defin itely</w> 10053
y am 10050
it al 10049
equip ment</w> 10046
h all</w> 10043
स् त्र</w> 10043
k im</w> 10041
आं खों</w> 10039
pl ying</w> 10037
s wee 10034
उ र्फ</w> 10024
administ rative</w> 10024
दा ताओं</w> 10021
ग ल 10019
t we 10018
sam sung</w> 10017
wil ling</w> 10016
2 ,000</w> 10015
v ul 10014
decl ine</w> 10014
other wise</w> 10014
bal ls</w> 10013
भ ला</w> 10011
boo ked</w> 10008
पा लिका</w> 10004
लि ंक</w> 10003
j uni 10001
मा या 10001
tol l</w> 9997
ques tioned</w> 9995
सिर् फ़</w> 9995
t res</w> 9994
pro mp 9992
avi ation</w> 9989
exp end 9987
ब री</w> 9986
comp li 9985
ई ओ</w> 9984
tom or 9983
reco very</w> 9981
स्टे डियम</w> 9977
भ गत</w> 9976
fil ing</w> 9975
er ial</w> 9974
0 6 9971
tro phy</w> 9971
nu tri 9971
श क्ति 9970
या ना</w> 9970
bra h 9970
ab dul</w> 9969
bigg er</w> 9966
temper ature</w> 9965
ahmed abad</w> 9964
k har 9963
ज्यो ति 9963
s ongs</w> 9962
आवा ज़</w> 9961
con sist 9955
D ain 9950
ro c 9944
re marks</w> 9943
organiz ed</w> 9943
ath le 9942
e dition</w> 9937
सि ता 9937
suff ering</w> 9937
thak ur</w> 9937
or d 9935
analy sis</w> 9935
en for 9934
ses sions</w> 9933
k on 9928
quo ted</w> 9928
e co 9926
flo od</w> 9926
मा रने</w> 9925
expend it 9922
श नी</w> 9916
ha v</w> 9914
commit ment</w> 9913
fe ren 9912
0 5 9911
विजे ता</w> 9910
cel si 9909
s ang 9907
ति त</w> 9904
tomor row</w> 9902
ज हा 9899
उल् लेख 9897
favour ite</w> 9895
डे ट</w> 9894
op posed</w> 9891
बा ढ़</w> 9890
ver i 9889
7 7</w> 9887
fun dam 9887
वी र 9883
andro id</w> 9882
wh at 9879
रे ज</w> 9879
उत्पा द</w> 9879
उ म 9878
pas sing</w> 9878
lear nt</w> 9877
ं ज 9876
अ खि 9875
gh ters</w> 9875
भा ष</w> 9874
स सु 9873
शिका य 9873
ड़ ना</w> 9868
ब्रा ह् 9868
आँ खों</w> 9868
आगा मी</w> 9868
इलाहा बाद</w> 9868
reti red</w> 9867
पु स्त 9865
die sel</w> 9865
ir ing</w> 9858
ti le</w> 9857
chan ne 9857
निर् भर</w> 9856
acquis ition</w> 9856
ष ेक</w> 9855
बी मा</w> 9854
even tually</w> 9852
vis ed</w> 9850
ज त</w> 9847
वर् ल्ड</w> 9847
की न</w> 9847
cha in</w> 9846
8 1</w> 9842
w ake</w> 9836
नि वास</w> 9835
premis es</w> 9835
का ले</w> 9833
ver ma</w> 9833
cou ldn</w> 9833
प त 9831
entreprene ur 9830
p h</w> 9827
पु ष्टि</w> 9826
sever e</w> 9826
all er</w> 9823
ex ports</w> 9822
tro ops</w> 9821
enjo y</w> 9821
as set</w> 9820
far m</w> 9819
पड़ ती</w> 9817
रो ल</w> 9815
१ ९ 9814
ंगा ई</w> 9813
ते रे</w> 9812
वा यर 9811
शारी रिक</w> 9810
ले न</w> 9809
k it 9807
संस् कार</w> 9807
अ ज 9806
डो र</w> 9806
n is</w> 9805
प्र ौ 9805
सू रज</w> 9804
initi ated</w> 9804
expla ined</w> 9804
sub mit</w> 9801
ra inf 9800
दौ रे</w> 9800
na idu</w> 9798
col lap 9798
कम ल</w> 9798
cho ose</w> 9798
मुकद मा</w> 9797
डायरे क्टर</w> 9797
fin ding</w> 9796
emer ged</w> 9792
t ag 9791
चौ रा 9791
mes sa 9790
re min 9789
mo h 9788
6 9</w> 9785
usu al</w> 9785
premi um</w> 9784
con vin 9783
vers y</w> 9781
आश् चर् 9778
dis crimin 9774
contro versy</w> 9774
प्र दू 9773
ser ving</w> 9770
recru it 9764
n ity</w> 9763
कॉ ल</w> 9761
jo shi</w> 9760
b ond</w> 9759
dri ven</w> 9757
tr il 9755
pris on 9753
ri g 9751
1. 5</w> 9751
को र्स</w> 9747
निक लने</w> 9747
bat ting</w> 9747
con spir 9745
po ver 9743
func tioning</w> 9742
ro les</w> 9740
a warded</w> 9738
सर् वा 9737
सै कड़ों</w> 9734
लक्ष् मी</w> 9733
फ ौ 9731
हे ल् 9730
ं पि 9729
celebr ate</w> 9726
cro p</w> 9725
ne g 9723
bu ses</w> 9721
g al</w> 9718
B haskar</w> 9718
per forming</w> 9718
deplo yed</w> 9718
जो ड़</w> 9714
k ish 9711
ru shed</w> 9710
अधि नियम</w> 9710
अनुसं धान</w> 9710
दु ख</w> 9709
ड् डी</w> 9707
b id 9705
वि द् 9704
सब के</w> 9701
organiz ation</w> 9701
un like</w> 9700
पहुँ च</w> 9699
br ands</w> 9698
fo rec 9696
आश् वासन</w> 9695
प्र ॉ 9693
इंग् लैंड</w> 9692
कॉ न् 9691
tax es</w> 9691
as e 9688
ri d</w> 9686
ari an</w> 9686
ye e</w> 9685
bu ying</w> 9681
fo ot</w> 9681
प् र</w> 9680
pat ter 9680
challeng ing</w> 9680
टि ल</w> 9679
rainf all</w> 9676
शा खा</w> 9674
त् न</w> 9673
ro yal</w> 9672
up per</w> 9672
राज्य पाल</w> 9671
st un 9669
प्रे रित</w> 9669
pos sibility</w> 9668
सी सी</w> 9666
य ंस</w> 9665
ल कों</w> 9664
ना री</w> 9662
f low</w> 9661
द त्त</w> 9659
मा ण 9658
गुण व 9658
n d</w> 9657
ab h</w> 9656
ही न</w> 9656
ad mission</w> 9651
फर् जी</w> 9648
regist er</w> 9647
8 4</w> 9646
भ व 9646
व ट</w> 9645
बी स</w> 9645
र वि</w> 9644
pro ved</w> 9644
जल ि</w> 9643
tw ice</w> 9642
mu ham 9642
j u</w> 9641
त् तर</w> 9641
मा लि 9640
om i</w> 9638
गो पाल</w> 9638
सिने मा</w> 9638
7 4</w> 9634
पंड ित</w> 9634
न यी</w> 9629
bac ked</w> 9629
e v</w> 9627
fiel ds</w> 9627
को लका 9625
shi fted</w> 9625
l l 9624
bag h</w> 9624
drin king</w> 9624
जी तने</w> 9622
feder ation</w> 9622
monit oring</w> 9622
ex cell 9621
ता कत</w> 9620
,201 9,0 9617
दु ः 9617
mu tual</w> 9616
gra de</w> 9615
परि वहन</w> 9614
cir cum 9612
um s</w> 9611
8 6</w> 9610
ट ते</w> 9610
st ressed</w> 9609
सप् लाई</w> 9608
7 6</w> 9606
dh an 9606
break ing</w> 9605
ele ments</w> 9603
bl ing</w> 9600
super intend 9598
bo y 9597
fac tor</w> 9597
lo ts</w> 9595
ष् टि 9595
ऐ तिहासिक</w> 9589
दाय िक</w> 9588
अव श्य</w> 9585
tra ders</w> 9581
wat ching</w> 9580
se as</w> 9573
tri p</w> 9572
गतिवि धियों</w> 9571
ma il</w> 9570
regul atory</w> 9568
ता एं</w> 9567
sch ol 9566
pro spec 9565
adv anced</w> 9564
वाप सी</w> 9564
tor ate</w> 9563
sugg es 9563
सद न</w> 9561
tra dition</w> 9560
सुन कर</w> 9560
ं ती</w> 9559
ma o 9558
जु ट</w> 9558
solu tions</w> 9554
धि कारियों</w> 9551
ण् ड 9551
prac tices</w> 9549
de st</w> 9547
appro ached</w> 9542
उद् घाटन</w> 9541
ban i</w> 9535
बता ई</w> 9533
रि टी</w> 9531
particip ate</w> 9531
feder al</w> 9530
j ac 9529
vie wed</w> 9529
फि या</w> 9527
प्र बंधक</w> 9524
खो ल</w> 9524
डाउन लोड</w> 9522
मोर् चा</w> 9519
b at</w> 9518
si vely</w> 9517
fir ing</w> 9514
sec ure</w> 9514
व्या पा 9513
खरीद ने</w> 9513
su it</w> 9511
s low</w> 9508
सी ख 9507
नि युक्त</w> 9505
hi ke</w> 9497
रा त्रि</w> 9496
shan kar</w> 9496
विस् फो 9496
दिखा ने</w> 9495
oun ded</w> 9492
प्रार्थ ना</w> 9491
ल ंदन</w> 9490
lat ter</w> 9490
techno logies</w> 9485
को ण</w> 9482
ला स 9481
प्रभ ु</w> 9480
मि लाकर</w> 9479
ban ned</w> 9479
proper ties</w> 9479
सके गा</w> 9479
journal ist</w> 9479
s an</w> 9478
f at 9478
collec ted</w> 9478
aad haar</w> 9478
analy sts</w> 9477
du n</w> 9475
ब ंग 9473
टि यां</w> 9473
आलो चना</w> 9473
हफ् ते</w> 9472
dar k</w> 9470
का या</w> 9469
produc er</w> 9469
पी ड़ि 9467
बा ला</w> 9465
af p</w> 9465
नाग रि 9463
champion ship</w> 9463
indi es</w> 9462
en s 9460
खु श 9460
custom er</w> 9460
कु त् 9459
न र् 9458
deli ver</w> 9458
औ र 9456
yat ra</w> 9456
versi ties</w> 9455
क्षेत्र ीय</w> 9453
hel ping</w> 9450
tel ls</w> 9448
12 :0 9447
clas s 9447
ठे के 9444
im s</w> 9442
gan g</w> 9442
veter an</w> 9435
ass ment</w> 9434
आ यु 9433
रि यर</w> 9433
सुविधा ओं</w> 9433
स्था यी</w> 9432
रे प</w> 9431
सप ने</w> 9429
model s</w> 9427
mo tiv 9426
en han 9425
ton nes</w> 9425
perman ent</w> 9425
चे हरा</w> 9423
pen alty</w> 9423
टा ने</w> 9422
उल्लेख नीय</w> 9422
ab solu 9421
ha ir</w> 9420
jud ges</w> 9420
charac ters</w> 9420
परि वारों</w> 9418
stra ight</w> 9418
ca tions</w> 9417
tr act</w> 9416
quick ly</w> 9412
न न</w> 9408
0 3 9407
र् ना 9405
ट्र ि 9405
il er</w> 9401
o logical</w> 9400
st es</w> 9400
u til 9399
zer o</w> 9399
ले जों</w> 9398
दर्श कों</w> 9392
दर् जन</w> 9391
e ing</w> 9389
सै निक</w> 9388
after noon</w> 9387
कार्य वाही</w> 9386
tim ate</w> 9386
0 4 9385
ar g 9384
ग्र ी 9383
ऑपरे शन</w> 9382
अ ड् 9381
the red</w> 9380
ici ous</w> 9376
la y</w> 9375
3 70</w> 9372
8 3</w> 9372
star ts</w> 9371
हृ दय</w> 9371
un less</w> 9369
in ner</w> 9367
सं कल्प</w> 9366
vol um 9362
petro l</w> 9362
ब च</w> 9361
पुरु षों</w> 9361
du o</w> 9359
inte rested</w> 9359
:4 5</w> 9359
bra in</w> 9359
buil dings</w> 9358
mo de</w> 9357
engine er</w> 9355
suppor ting</w> 9353
यू ं</w> 9352
ला ते</w> 9350
छु ट्टी</w> 9349
कोलका ता</w> 9346
med al</w> 9344
g reg 9343
ले ती</w> 9339
10 00</w> 9338
फै क् 9337
bure au</w> 9336
ga thering</w> 9335
twe et</w> 9335
जिन की</w> 9333
वी य</w> 9332
पृ ष्ठ</w> 9332
h ot</w> 9329
fac tory</w> 9326
insp ired</w> 9326
दि न 9323
ex pe 9323
ga p</w> 9323
Dain ik</w> 9322
behavi our</w> 9320
शा ही</w> 9317
बता ने</w> 9317
लोक प्रिय</w> 9310
ch ri 9309
द फ् 9306
sit u 9305
deta iled</w> 9305
रख कर</w> 9303
cre ation</w> 9301
mu se 9301
2. 5</w> 9301
पा ंच 9300
activ ist</w> 9300
पत्र कारिता</w> 9299
कला कार</w> 9299
दि ना 9296
bure au 9296
सर् वो 9295
j av 9294
le ment</w> 9294
कि यां</w> 9294
de als</w> 9292
आ श्रम</w> 9291
उपा य</w> 9290
ं खला</w> 9289
mo re 9288
पंचा य 9287
contribu tion</w> 9286
to il 9283
दाय ि 9283
फी स</w> 9281
champ ion</w> 9281
परी क्षा 9279
per cent 9278
bat sman</w> 9278
dece ased</w> 9277
ई मान 9274
resol ve</w> 9274
धा म</w> 9273
arrang ements</w> 9272
अखि लेश</w> 9272
ex it</w> 9271
बे चने</w> 9271
pi ka</w> 9271
परंप रा</w> 9269
ह टा</w> 9267
on ym 9267
ते ज 9264
mu f 9263
लं का</w> 9262
भे द</w> 9261
ed ings</w> 9261
co oper 9259
pa war</w> 9259
सं दर्भ</w> 9258
से न</w> 9258
देख े</w> 9253
noti fication</w> 9252
साइ ड</w> 9251
नज दी 9245
उ तर</w> 9244
sc op 9243
12 0</w> 9242
proce edings</w> 9241
ड़ ते</w> 9240
up s</w> 9240
liqu or</w> 9240
air lines</w> 9236
threat ened</w> 9236
du m</w> 9235
h c</w> 9232
c iting</w> 9232
न पुर</w> 9231
पाठ ्य 9231
pri ze</w> 9230
expendit ure</w> 9228
घ् र</w> 9227
cour ses</w> 9224
ish es</w> 9223
यू नियन</w> 9222
am rit 9221
v oc 9218
cont em 9218
मु केश</w> 9217
इस को</w> 9217
बा लि 9214
islam abad</w> 9214
ना मा 9213
¨ सह</w> 9210
7 3</w> 9209
लापर वाही</w> 9207
मु क्ति</w> 9206
द् द</w> 9201
impro ved</w> 9200
प्रता प</w> 9198
दा यर</w> 9197
ep iso 9197
su c 9196
yi el 9196
w ali</w> 9195
se bi</w> 9195
दौ रा</w> 9190
कू ल</w> 9190
b o</w> 9189
मु सल 9189
stre ets</w> 9189
fal se</w> 9189
पा वर</w> 9183
pat ri 9183
exhi bition</w> 9182
gr ant</w> 9180
पृथ् वी</w> 9179
a a</w> 9177
comm and</w> 9173
tra ined</w> 9173
pe t</w> 9172
त रित</w> 9171
रख ता</w> 9171
क़ ् 9166
al ing</w> 9164
ex tent</w> 9163
sk ill</w> 9162
targe ted</w> 9160
हंगा मा</w> 9160
arti st</w> 9159
guar an 9157
8 2</w> 9155
दि रा</w> 9155
सं ग्रह</w> 9155
ali zed</w> 9155
क् के</w> 9154
दुष् कर्म</w> 9154
मान क</w> 9152
identi fy</w> 9152
न् व 9151
arti sts</w> 9151
कान पुर</w> 9150
W eb</w> 9149
चे क</w> 9149
kno ws</w> 9149
मु फ् 9148
मान त</w> 9148
निका लने</w> 9148
f ab 9147
com pre 9147
gradu ate</w> 9143
प्रतिनि धि 9142
beat en</w> 9142
fal ling</w> 9140
ज ना 9138
c ad 9136
uni versities</w> 9136
ं टन</w> 9135
राज स्व</w> 9135
पक ड़ा</w> 9135
claim ing</w> 9134
f y 9133
अभ ्या 9132
अ ग् 9130
7 8</w> 9129
nor thern</w> 9129
मं त्रियों</w> 9128
expan sion</w> 9128
पे ट्रोल</w> 9127
्रा ष् 9127
ब स 9126
अ भाव</w> 9126
डि प् 9126
रण नीति</w> 9126
def en 9123
de hra 9120
स् ते</w> 9119
promin ent</w> 9116
cor respon 9113
p ts</w> 9110
अ स्ति 9110
य स</w> 9109
su sh 9106
मा रा</w> 9103
सि या 9103
तथ ्य</w> 9102
discus sions</w> 9101
v it 9100
म् भ</w> 9100
आत् मह 9099
scen ari 9099
ri val</w> 9098
eng aged</w> 9098
hur t</w> 9097
भा गी 9094
सि न्हा</w> 9094
प्रा वधान</w> 9094
o th</w> 9093
पढ़ ा</w> 9093
wil d 9092
k as 9091
पा त्र</w> 9091
बद ला</w> 9091
वाता वरण</w> 9091
celsi us</w> 9089
ज ब् 9088
श य</w> 9087
श हरी</w> 9087
कब् जा</w> 9085
alter native</w> 9085
con sci 9084
gg ing</w> 9082
बि न</w> 9081
स च् 9080
fo cus 9079
क् वि 9077
गु ण</w> 9076
शी घ्र</w> 9076
dehra dun</w> 9074
जी ता</w> 9071
gain s</w> 9071
तु ल 9069
achiev ed</w> 9069
ढू ं 9068
j as 9067
fac ts</w> 9067
टू र्ना 9067
य न 9065
re ferred</w> 9063
happ ens</w> 9063
पदा धिकारी</w> 9063
juni or</w> 9063
र कम</w> 9062
secur ities</w> 9062
particip ation</w> 9061
un able</w> 9059
धि कार</w> 9057
confi dent</w> 9053
जि तनी</w> 9052
ri c</w> 9051
sh ir 9050
pe l 9050
kee per</w> 9048
p o</w> 9047
फ े</w> 9045
eas es</w> 9043
nag aland</w> 9043
भ क्त</w> 9042
है या</w> 9040
muf ti</w> 9035
comp rising</w> 9034
ता भ</w> 9031
trans ferred</w> 9028
ला ए</w> 9027
th ack 9026
ग र्म</w> 9024
अंदा ज</w> 9023
muham mad</w> 9023
जो न</w> 9022
no ida</w> 9021
गा र् 9021
main ly</w> 9019
रि वा 9016
चो र</w> 9016
मुला यम</w> 9015
प्र करण</w> 9014
it ec 9013
constitu encies</w> 9012
उप करण</w> 9011
201 9,0 9010
वि शिष्ट</w> 9009
vis itors</w> 9009
बन ता</w> 9009
exper t</w> 9009
pover ty</w> 9007
सै न</w> 9006
क ते</w> 9005
ear nings</w> 9005
j ur 9003
m ig 9002
equ al</w> 9002
connec ted</w> 9002
tri bun 9001
particip ated</w> 9001
percent age</w> 9001
j al 9000
द रा 9000
id ity</w> 9000
ग ह 8997
foc used</w> 8997
initi atives</w> 8996
deli vered</w> 8994
histor ic</w> 8993
तीस री</w> 8992
गु ना</w> 8991
sha re 8991
sho ot</w> 8991
न व</w> 8987
शू टिंग</w> 8982
inst al 8980
cor p</w> 8978
मु ँ 8977
गू गल</w> 8977
wit ness</w> 8975
त् सा 8974
jan a</w> 8970
लाइसे ंस</w> 8970
mater i 8969
h t</w> 8968
रा णा</w> 8968
जग हों</w> 8968
शि मला</w> 8967
क मिश् 8965
car ri 8965
कॉ म</w> 8960
arch itec 8960
ऑ टो</w> 8958
re ferring</w> 8957
secon dary</w> 8957
doub t</w> 8956
g han</w> 8955
T it 8955
मे र 8954
ri f 8953
फ् ट 8950
pan dey</w> 8948
Tit le</w> 8944
कौ शल</w> 8943
mam ata</w> 8941
co ast</w> 8940
ch a</w> 8939
por ted</w> 8939
कै सा</w> 8937
vio lation</w> 8937
प्रति भा 8936
par king</w> 8934
गण ेश</w> 8933
स्त ु</w> 8931
ne ar 8930
cro res</w> 8927
ह ँ 8925
pro vision</w> 8925
प्राइ वेट</w> 8924
po wered</w> 8923
मही नों</w> 8923
वा या</w> 8922
sh ri</w> 8922
tr in 8922
shar p</w> 8921
h d 8920
मिश् र</w> 8920
,201 1</w> 8919
मज दूर</w> 8919
r ice</w> 8915
ti a</w> 8915
sp here</w> 8915
sur roun 8915
fit ness</w> 8915
8 8</w> 8914
ड़ि या</w> 8914
औ द्योगि 8913
ने पाल</w> 8913
श्र ा 8913
आई ए 8912
त त्व</w> 8910
dist ance</w> 8910
we aring</w> 8909
an ese</w> 8907
योज क</w> 8905
फ ंड</w> 8904
por ting</w> 8903
tt on</w> 8903
ca a</w> 8900
f ill</w> 8899
द ली 8899
gri ev 8899
बढ़ा वा</w> 8898
का रा</w> 8890
ंद ु 8889
agricul tural</w> 8889
portfoli o</w> 8888
न म 8887
उ तना</w> 8887
छ ा</w> 8885
bow ling</w> 8883
recei ving</w> 8880
lo ved</w> 8878
नु सार</w> 8878
वि वि</w> 8877
बा ंग् 8877
moham med</w> 8875
्राष् ट्रीय</w> 8875
n am</w> 8874
superintend ent</w> 8874
tr i</w> 8873
मह ंगाई</w> 8873
ब ृ 8872
b in 8871
ud din</w> 8871
tra ins</w> 8870
cont ex 8870
बढ़ ो 8870
ऋ ण</w> 8869
li e</w> 8869
youn ger</w> 8869
का य 8868
:4 0</w> 8868
स्व तंत्र</w> 8867
mem or 8866
तस्वी रें</w> 8865
ग्रा ह 8864
my self</w> 8862
बहा दु 8857
दिल चस् 8857
dn ess</w> 8854
प्रशास निक</w> 8853
तरी का</w> 8850
syri a</w> 8848
दि नेश</w> 8847
e dge</w> 8846
l ing 8846
t ree</w> 8845
डा लने</w> 8845
sp ac 8844
struc k</w> 8844
अब् दु 8844
वारदा त</w> 8840
प्ला ंट</w> 8839
8 7</w> 8838
passen ger</w> 8838
near by</w> 8838
bo tt 8837
पुरा ना</w> 8837
ह् न</w> 8837
ड्यू टी</w> 8837
ang er</w> 8834
प्ला न</w> 8834
bil ateral</w> 8833
pos ite</w> 8833
ne u 8832
क क्ष</w> 8830
ध मा 8827
हि रासत</w> 8827
conclu ded</w> 8825
be d 8824
स ख्त</w> 8823
ol a</w> 8823
thack er 8821
मंग ल</w> 8818
v aj 8816
प्र कट</w> 8815
खो ज 8815
स्ट ल</w> 8813
ir an 8812
emp has 8811
trans actions</w> 8810
reser vation</w> 8810
week end</w> 8810
उन् हीं</w> 8809
chan ces</w> 8808
प्रे मी</w> 8808
श् त</w> 8807
lead s</w> 8807
क् लास</w> 8806
आ न् 8800
trou ble</w> 8797
to w 8793
pa yee</w> 8793
bhu ban 8793
gro wn</w> 8792
bla ir</w> 8792
t ack 8789
इ शा 8788
al ists</w> 8788
भू षण</w> 8788
चु प</w> 8787
su me</w> 8786
र ती</w> 8784
सु भाष</w> 8781
फ् लै 8780
in no 8779
रू स</w> 8777
en tr 8776
meh ta</w> 8776
द ्य 8775
को य 8775
भ य</w> 8773
ब ंद 8772
ro ll</w> 8770
pr oud</w> 8769
या नि</w> 8768
रिश् ते</w> 8768
द स्त</w> 8767
bad al</w> 8767
ऊ ँ 8766
on a</w> 8766
cor rid 8766
asse ss 8766
ti e</w> 8764
मे ला</w> 8763
gre w</w> 8763
posi tions</w> 8761
is land</w> 8759
विभा गों</w> 8758
नेह रू</w> 8757
का मना 8752
श्री वास्तव</w> 8752
मह ल</w> 8751
bro thers</w> 8751
comfort able</w> 8751
p are</w> 8749
लंब ित</w> 8749
en ab 8748
ह ू</w> 8746
् स</w> 8743
connec t</w> 8739
jap anese</w> 8739
चै ंपि 8738
allow ing</w> 8738
recomm ended</w> 8737
thacker ay</w> 8736
का यम</w> 8734
critic ism</w> 8734
खा रिज</w> 8733
अमि ताभ</w> 8731
dedic ated</w> 8726
प वन</w> 8723
ir on</w> 8720
expec tations</w> 8720
cru de</w> 8720
क्रा ंति</w> 8720
टूर्ना मेंट</w> 8720
por tra 8719
लि मि 8718
se mi</w> 8717
यं त्र</w> 8717
संचा लित</w> 8717
आ एगा</w> 8715
9 6</w> 8713
रि पोर् 8713
अरवि ंद</w> 8713
pre gn 8704
तत् कालीन</w> 8703
कार्य क्रमों</w> 8700
r are</w> 8699
रिश् ते 8699
cha m 8698
प्रौ द्योगि 8696
फिल् में</w> 8695
vig il 8695
नृ त्य</w> 8695
संस् करण</w> 8694
r d</w> 8692
क् तों</w> 8690
बु जुर् 8687
संवेद न 8686
ने वाले</w> 8684
seri ously</w> 8684
प्री त</w> 8683
धू प</w> 8681
beau ty</w> 8680
ली ला</w> 8679
पा इ 8678
ordin ary</w> 8678
गा ह</w> 8677
ब ड़ 8675
रो टी</w> 8674
gal ax 8674
mo on</w> 8673
व्या पारी</w> 8673
leng th</w> 8670
ig n 8669
j in 8668
dis eases</w> 8668
आय ु</w> 8668
g g</w> 8667
sn ap 8666
territ ory</w> 8664
attemp ts</w> 8661
सह ज</w> 8659
recruit ment</w> 8658
9 8</w> 8657
फा इल</w> 8656
ब्लॉ क</w> 8656
कार णों</w> 8654
को ट</w> 8650
see ks</w> 8648
d ry</w> 8647
ता ब</w> 8647
conven i 8646
रि लीज</w> 8645
स भ 8644
पि ंग</w> 8643
deli ber 8643
वास्त विक</w> 8643
सम स्त</w> 8640
sa pp</w> 8637
ंग ों</w> 8636
gi l</w> 8636
भाव नाओं</w> 8634
sou thern</w> 8631
प न् 8629
रा ई</w> 8628
प शु 8626
meas ure</w> 8624
9 2</w> 8623
regi ons</w> 8623
बा मा</w> 8621
दू रों</w> 8621
क स</w> 8619
vide os</w> 8619
श ख् 8618
dist ur 8618
dis h</w> 8612
imple ment</w> 8612
अधी क्षक</w> 8612
फी सद</w> 8611
च् छ</w> 8610
स ना</w> 8609
allo ws</w> 8606
t 20</w> 8604
सु धा 8602
गुणव त्ता</w> 8601
ca using</w> 8599
हू र</w> 8599
cor ner</w> 8598
ज ्य</w> 8597
environ mental</w> 8596
सी रीज</w> 8594
mukh erjee</w> 8594
ते री</w> 8593
hindu s</w> 8591
travel ling</w> 8591
sugg est</w> 8591
सि त 8590
सा थियों</w> 8587
जा ल</w> 8587
औद्योगि क</w> 8585
more over</w> 8582
dis missed</w> 8581
दु श् 8580
sig n 8580
air line</w> 8580
शु द्ध</w> 8578
ड ू</w> 8577
in do</w> 8576
we ak</w> 8570
over seas</w> 8568
टाइ म</w> 8568
घोटा ले</w> 8568
शि क</w> 8566
bri ef 8566
what sapp</w> 8565
assa ult</w> 8564
स वालों</w> 8562
सी धा</w> 8561
बना ते</w> 8560
bra tions</w> 8559
s sing</w> 8558
मा ंड</w> 8558
इन कार</w> 8558
नेट वर्क</w> 8556
पा पा</w> 8554
glo b 8553
या ता 8551
p ers</w> 8550
ज ं 8549
mo od</w> 8549
प ट</w> 8541
वि चार 8541
पूर् वी</w> 8540
f a</w> 8538
सं साधन</w> 8538
aksha y</w> 8538
म तों</w> 8537
हि या</w> 8537
im ages</w> 8537
fi red</w> 8537
बी ज</w> 8537
channe ls</w> 8536
ड ्रे 8535
दे शा 8535
ट्र ो</w> 8535
institu tion</w> 8535
us a</w> 8534
निशा ना</w> 8534
n d 8533
squ are</w> 8533
manufac tu 8532
म ्यू 8531
acce pt 8530
50 ,000</w> 8530
l ac 8528
प्रो ग्राम</w> 8528
दु कानों</w> 8527
वि परी 8525
la ke</w> 8521
inaugur ated</w> 8521
l ite</w> 8519
sat el 8518
man age</w> 8516
इस्ला म</w> 8516
समा जवा 8514
बि ग 8508
दर् शा 8508
k ong</w> 8505
pa th 8505
स् मा 8504
fam ili 8503
coun t</w> 8502
happ ening</w> 8502
seem ed</w> 8501
work shop</w> 8498
फॉ र्म</w> 8496
आ काश</w> 8495
व्य ू</w> 8495
ar jun</w> 8494
अस्ति त्व</w> 8494
br ings</w> 8491
आत्मह त्या</w> 8491
राज ेंद्र</w> 8490
cri mes</w> 8489
की र् 8488
निक ट</w> 8488
sa hi 8486
लग ेगा</w> 8486
अरु ण</w> 8486
re ha 8481
suspec ted</w> 8481
सक ों</w> 8480
val ues</w> 8480
दि लाने</w> 8479
fin ished</w> 8479
जिन का</w> 8479
आदि वासी</w> 8478
जि श</w> 8476
newspap er</w> 8475
in ated</w> 8474
पे ज</w> 8474
retur ning</w> 8473
सी जन</w> 8472
पश् चा 8471
dha wan</w> 8470
अधिक तम</w> 8469
एम एस</w> 8466
cle ared</w> 8464
h em 8463
ख तर 8463
टा टा</w> 8462
streng th 8462
am bas 8461
mone tary</w> 8461
न्यू नतम</w> 8461
c ali 8459
ना राज</w> 8458
ge or 8458
न क् 8457
streng then</w> 8457
bhuban eswar</w> 8456
k ing 8455
j id</w> 8455
ज मा 8454
tur ning</w> 8452
construc ted</w> 8452
leav es</w> 8450
milit ant</w> 8449
कह े</w> 8446
याता यात</w> 8446
ex ac 8443
for d</w> 8442
विशेष ज्ञ</w> 8441
bhat t</w> 8440
spo tted</w> 8439
द् धा</w> 8436
ve en</w> 8436
gol den</w> 8436
उदय पुर</w> 8435
a f</w> 8434
चा लू</w> 8433
सक र् 8431
ओ बामा</w> 8430
तुम्हा रा</w> 8430
compre hen 8428
do g</w> 8426
फा ंसी</w> 8424
201 8, 8421
ambas sad 8420
restaur ant</w> 8419
चरि त्र</w> 8415
‘ ‘</w> 8413
ना र</w> 8413
मुसल मानों</w> 8413
विपरी त</w> 8413
न ष्ट</w> 8412
झ ग 8411
म ज़ 8410
विद्या र्थी</w> 8409
पी ढ़ी</w> 8408
am bar 8406
cha u 8406
ra il</w> 8405
sub scri 8404
m w</w> 8403
पुन ः</w> 8402
chur ch</w> 8402
दे गी</w> 8401
दी वार</w> 8400
समु द्र</w> 8397
वा र्य</w> 8395
pre pare</w> 8395
जाय ेगी</w> 8394
li t</w> 8393
बच ने</w> 8393
effec ts</w> 8392
h ong</w> 8391
ak es</w> 8391
pre ven 8390
स्व स्थ</w> 8390
ab use</w> 8388
pr an 8388
sm aller</w> 8387
jus ti 8386
h ome 8385
ex emp 8385
ge red</w> 8385
:3 5</w> 8384
ड्राइ वर</w> 8384
ac commo 8377
धर ना</w> 8375
जि क्र</w> 8374
dal it</w> 8373
रा ण 8372
her self</w> 8372
पी ए</w> 8370
प्रति भा</w> 8370
gr at 8369
wa ve</w> 8367
अनि वार्य</w> 8367
झ े</w> 8366
z z</w> 8365
sk ip 8365
legis lative</w> 8363
उत्सा ह</w> 8363
काब ू</w> 8362
ul ated</w> 8361
गंभी रता</w> 8361
sh ei 8360
strong ly</w> 8360
पवि त्र</w> 8360
f low 8359
कर् ज</w> 8359
ud hi 8358
पा ल 8357
ca p</w> 8356
presid ential</w> 8356
dam aged</w> 8351
विष यों</w> 8350
भेज ने</w> 8350
भि क</w> 8349
s ity</w> 8347
खी ंच 8347
t c</w> 8346
u te</w> 8346
व्य क्तियों</w> 8346
जा पान</w> 8345
adop ted</w> 8345
requ ire</w> 8342
मध्य प्रदेश</w> 8342
9 7</w> 8340
f ed</w> 8337
indi ra</w> 8335
ran a</w> 8335
पं क 8335
p vt</w> 8332
bo t 8330
co ff 8327
suc ce 8326
for um</w> 8325
ग ढ़ 8322
प्र दीप</w> 8322
:5 5</w> 8321
र पुर</w> 8320
का ली</w> 8319
demone tisation</w> 8319
सि ंग 8318
पढ़ ा 8317
ए शिया</w> 8316
am it 8316
dee pika</w> 8315
रह े 8314
ira q</w> 8313
ए ह 8311
गो वि 8311
शु रू 8309
pul w 8308
pri or</w> 8307
skip per</w> 8307
ट्रे निंग</w> 8305
तु मने</w> 8302
अर् जुन</w> 8301
ra wat</w> 8300
न ः</w> 8299
ens uring</w> 8299
स ला</w> 8298
क च्च 8295
अभि नेता</w> 8295
199 9</w> 8295
cat ch</w> 8295
des k</w> 8295
0 1 8294
डि ट</w> 8294
अधिक तर</w> 8293
विद्या लयों</w> 8292
बे ड 8291
galax y</w> 8291
f ish 8289
him achal</w> 8289
अर्थ व्यवस्था</w> 8288
farm er</w> 8286
he at</w> 8285
pan aji</w> 8285
ke en</w> 8283
छ त</w> 8282
tali ban</w> 8282
re move</w> 8280
नि रं 8279
हि ता</w> 8278
तु म 8276
circum st 8276
पॉ लि 8273
ग ण</w> 8272
वि वि 8271
indu l 8271
desig ner</w> 8271
si r</w> 8270
o x 8268
क ड़ 8267
7 9</w> 8266
प दक</w> 8266
करो ड़ों</w> 8264
dest ro 8264
pulw ama</w> 8264
hand le</w> 8262
magist rate</w> 8262
der ing</w> 8260
pati l</w> 8258
b ought</w> 8257
kil ome 8256
ni tish</w> 8255
बढ़ ी</w> 8254
अं धे 8252
स फे 8250
tel s</w> 8250
tex t</w> 8244
tin y</w> 8244
\\\\ \\\\ 8244
ग ौर</w> 8243
htt p</w> 8242
th ly</w> 8241
na wa 8241
एक् ट</w> 8241
mil lions</w> 8240
फी ट</w> 8240
enfor cement</w> 8239
डि ़ 8238
tre at</w> 8238
re sist 8237
ho o 8236
cele brations</w> 8236
ए कदम</w> 8235
mis sions</w> 8234
ल् ट</w> 8233
ch id 8231
निर्वा चन</w> 8229
कि ंतु</w> 8228
acc es 8228
प्रभा वी</w> 8228
व श</w> 8224
ला ई 8221
गण ना</w> 8219
st y</w> 8216
prof ile</w> 8216
प्रेर णा</w> 8216
b mc</w> 8213
समाजवा दी</w> 8213
un g</w> 8212
पुलि सकर् 8212
cy cl 8212
न्याया धीश</w> 8212
is lands</w> 8211
कमा ई</w> 8211
re ments</w> 8209
di visi 8209
इंजीनिय रिंग</w> 8209
ear ned</w> 8208
दृ ष्टि 8205
8 9</w> 8200
सं देह</w> 8200
कमिश् नर</w> 8200
च लाया</w> 8199
cu ts</w> 8199
col um 8198
photo s</w> 8198
gh u 8195
du bai</w> 8195
जब् त</w> 8195
ack no 8193
sustain able</w> 8193
स ्रो 8192
bor ro 8192
defe ated</w> 8191
y e</w> 8190
ru kh</w> 8190
मु सलमान</w> 8189
बा र 8188
से ल् 8188
no body</w> 8187
in sul 8185
an onym 8185
stor age</w> 8185
at mo 8183
मु ना 8182
ट ना</w> 8181
वार् ष 8178
मश हूर</w> 8177
s op 8176
शा न</w> 8175
cr pf</w> 8172
शास् त्री</w> 8171
मी टिंग</w> 8170
एस एस</w> 8170
दू न</w> 8169
उत् तर 8169
im a</w> 8167
आ यी</w> 8165
बो लने</w> 8165
उ ठ</w> 8164
beg ins</w> 8163
k ill</w> 8159
व स्तु</w> 8159
e at</w> 8157
निग रानी</w> 8157
अभि षेक</w> 8156
करि यर</w> 8156
भ जन</w> 8155
अमृ त 8154
हस्ता क्ष 8154
लि न</w> 8150
,201 5, 8150
m d</w> 8146
mach ine</w> 8144
सी मा 8143
vir al</w> 8143
shar if</w> 8142
cam ps</w> 8141
invol ving</w> 8141
udhi ana</w> 8141
affec t</w> 8138
सित म्बर</w> 8137
far oo 8135
भ ड़ 8134
ज मानत</w> 8133
आ भार</w> 8132
on y</w> 8132
श र</w> 8131
as ing</w> 8131
connec tivity</w> 8131
पा ती</w> 8127
arab ia</w> 8126
दे न</w> 8123
ma hin 8121
re aching</w> 8119
सो नी</w> 8119
म रा 8117
ha ven</w> 8117
ram esh</w> 8113
tt ers</w> 8112
चि ंग</w> 8111
pal est 8110
po o 8109
hol lywood</w> 8109
बी मार</w> 8108
एस डीएम</w> 8108
pres er 8106
पे पर</w> 8106
contex t</w> 8104
ज़ ल</w> 8102
विशेष ज्ञ 8102
इ मा 8101
ष ्</w> 8100
direc tions</w> 8100
का ंत</w> 8099
स्ट्र ी 8098
i k 8096
stor m</w> 8096
प् स</w> 8094
9 4</w> 8093
धा री</w> 8091
controversi al</w> 8091
ल् ले</w> 8090
journal ists</w> 8090
ger man</w> 8089
हो म</w> 8085
resid ential</w> 8085
eli min 8084
व्यवसा य</w> 8082
बला त्कार</w> 8082
f ing 8078
ज स 8078
पंक ज</w> 8076
समझ ते</w> 8072
कह कर</w> 8070
स्मृ ति</w> 8070
le n</w> 8069
प्रती क</w> 8069
स्ट िक</w> 8068
ja ipur</w> 8068
प्रो त्सा 8064
in fo 8062
मु आव 8062
sal ary</w> 8062
खूब सूरत</w> 8062
ना श</w> 8060
promo tion</w> 8059
lux ury</w> 8058
s wi 8057
ro oms</w> 8057
बच्च न</w> 8057
साम ू 8057
बो ध</w> 8056
टि श</w> 8055
s om 8053
बिल कुल</w> 8053
अफ्री का</w> 8052
ब तौर</w> 8051
सद र</w> 8051
tour ist</w> 8051
d d 8050
tren ds</w> 8049
बी न</w> 8048
सर् विस</w> 8048
अभ्या स</w> 8048
si a</w> 8047
al u 8046
popu lar 8045
ch el 8042
p ag 8041
खे लों</w> 8040
s or</w> 8039
नामा ंकन</w> 8039
nr c</w> 8038
ho pe 8037
shu t</w> 8036
vul ner 8036
tab les</w> 8035
y our 8033
scenari o</w> 8032
m ir</w> 8031
ex port</w> 8031
emo tional</w> 8031
w ins</w> 8029
उल् लेख</w> 8029
e sts</w> 8024
आ ग्रह</w> 8022
ई रान</w> 8019
ना ं 8019
आप स</w> 8019
mig ration</w> 8016
swar aj</w> 8015
la h 8011
साय िक</w> 8011
se min 8010
ar ily</w> 8008
मु ह 8007
तीस रा</w> 8005
चु ना</w> 8003
खु ला</w> 8003
har dly</w> 8002
her o 8002
परि जन</w> 8000
कर् ताओं</w> 8000
ch at 7997
बां ध</w> 7993
f s</w> 7991
अ क 7990
ten nis</w> 7990
गृ ह 7990
ना म 7989
लिख ते</w> 7988
sle ep</w> 7987
सं सद 7986
he k</w> 7986
ग्र ं 7986
con soli 7984
ge o 7984
wild life</w> 7983
आ ड 7982
ख ण्ड</w> 7979
प्र गति</w> 7979
impro ving</w> 7978
g all 7977
lad y</w> 7977
म रने</w> 7976
बि लास 7976
adv ance</w> 7976
direc torate</w> 7975
पा ली</w> 7974
सर पंच</w> 7974
अर्था त</w> 7968
ag ree</w> 7967
fla g</w> 7967
man mohan</w> 7966
aspec ts</w> 7966
क् लि 7964
प्रे म 7963
profes sion 7958
tit led</w> 7958
c l</w> 7956
ट कों</w> 7954
po c 7951
sco res</w> 7950
e y</w> 7948
आस मान</w> 7942
विधा यकों</w> 7941
pre tty</w> 7939
vaj payee</w> 7938
tel ling</w> 7936
recommend ations</w> 7936
रो ह 7931
x it</w> 7929
mo tor</w> 7929
muse um</w> 7928
वि धे 7927
competi tive</w> 7926
विद् या</w> 7926
c b</w> 7924
ho c 7924
a am</w> 7921
वि ंग</w> 7921
बढ़ ते</w> 7920
गे ंद</w> 7920
मुँ ह</w> 7920
ba g</w> 7919
auth or 7919
sen sex</w> 7918
pos si 7914
प्रदर्श ित</w> 7914
एयर पोर्ट</w> 7913
सर्वा धिक</w> 7913
े न्द्र</w> 7912
टे क</w> 7912
medic ine</w> 7912
अन ू 7911
श पथ</w> 7910
ख ैर</w> 7909
previ ously</w> 7909
peace ful</w> 7909
ra id</w> 7908
signific antly</w> 7908
सी टें</w> 7907
ici ency</w> 7907
वे ब</w> 7905
ताला ब</w> 7905
इंटर नेशनल</w> 7903
camer as</w> 7903
gi ant</w> 7902
war ning</w> 7902
कैम रे</w> 7901
स् वर</w> 7900
आग रा</w> 7900
ho tels</w> 7898
kar i</w> 7898
कै द</w> 7896
objec tive</w> 7896
बि नेट</w> 7893
am ir</w> 7892
बा ग 7892
सर ल</w> 7890
guil ty</w> 7890
raj a</w> 7889
clo sure</w> 7889
:3 4</w> 7889
v ar</w> 7887
जी ने</w> 7887
उ ड़ 7885
से क 7885
फ़ े 7885
प थ 7884
स्पे शल</w> 7884
प्रारं भ</w> 7884
हि म्मत</w> 7883
बढ़ कर</w> 7883
ग्राह कों</w> 7882
दि सम् 7881
खो लने</w> 7881
वाय ु</w> 7879
:3 2</w> 7878
मा ँ 7877
:3 7</w> 7876
प्रस्तु ति</w> 7876
रच ना 7876
ra d 7875
aim s</w> 7875
ए कता</w> 7872
accompan ied</w> 7872
shei kh</w> 7868
pat naik</w> 7867
नागरि कों</w> 7867
cen ter</w> 7864
pen sion</w> 7864
t um 7863
con c 7863
पा ँच</w> 7863
h ill</w> 7862
क लन</w> 7862
pat na</w> 7862
s bi</w> 7861
खि या</w> 7861
inst alled</w> 7860
ं ध 7859
benef ici 7859
dic tion</w> 7857
c ops</w> 7855
म छ 7855
success fully</w> 7855
mon thly</w> 7854
देख ता</w> 7852
pro of</w> 7850
investig ating</w> 7850
वि दा</w> 7849
रो मा 7849
वै श् 7848
impro vement</w> 7848
inter ven 7847
con grat 7845
ten ure</w> 7845
भू ख</w> 7844
प्रदू षण</w> 7842
कला कारों</w> 7840
सो ना</w> 7838
conspir acy</w> 7838
di ag 7836
eng ine</w> 7835
:5 3</w> 7835
गौर व</w> 7833
pro gram</w> 7832
can ada</w> 7832
संसद ीय</w> 7832
मि लना</w> 7830
सामू हिक</w> 7827
n ic</w> 7826
द शा</w> 7826
dri vers</w> 7826
mag az 7826
cha ud 7825
कि रदार</w> 7824
dang erous</w> 7824
har assment</w> 7823
bel ong 7817
ज स्टि 7816
mem ory</w> 7816
bat tery</w> 7816
कि रण</w> 7814
र ते</w> 7812
out fit</w> 7810
दिसम् बर</w> 7810
st ro 7808
ay ed</w> 7808
प्र च 7807
सै निकों</w> 7807
bab a</w> 7807
बी मा 7805
sam aj 7805
fal ls</w> 7805
सं दीप</w> 7804
respon d</w> 7803
where as</w> 7803
ed itor</w> 7802
un ve 7801
the me</w> 7801
teach ing</w> 7799
te en</w> 7798
psy cho 7798
assess ment</w> 7798
0 2 7794
men tion</w> 7794
औ रत</w> 7793
thu si 7792
sanc tions</w> 7791
राज कुमार</w> 7789
ं का</w> 7787
ब सपा</w> 7786
:5 7</w> 7786
e k 7785
stri kes</w> 7784
you ths</w> 7784
ar ts</w> 7781
as es</w> 7781
ag itation</w> 7781
migr ants</w> 7780
ak hil 7779
p ant</w> 7778
ho ly</w> 7778
माया वती</w> 7777
फ़ ै 7775
life style</w> 7773
ढ ाई</w> 7772
ven ue</w> 7772
bhar ti</w> 7772
सम्बन् ध</w> 7771
प्रौद्योगि की</w> 7768
स कारात्मक</w> 7767
hoc key</w> 7767
em bar 7765
आप से</w> 7765
संस् कृत</w> 7765
व जन</w> 7764
:5 6</w> 7764
cha k 7763
आजा द</w> 7761
re public</w> 7760
ज़ ो 7759
x im 7758
संचा लक</w> 7757
prec e 7756
प शु</w> 7754
व ्</w> 7752
वा ड़ा</w> 7749
am o 7748
प्रोफे सर</w> 7747
chid ambar 7747
उ तार</w> 7743
अनु वाद</w> 7743
निर् मित</w> 7743
doc um 7742
certific ate</w> 7742
गु ल 7741
plat forms</w> 7740
en thusi 7739
पू जन</w> 7738
इं ट</w> 7736
सच् चाई</w> 7736
लाइ फ</w> 7735
:4 9</w> 7733
fli ghts</w> 7731
man n</w> 7730
sc ru 7729
पक ड़े</w> 7729
w re 7728
:4 4</w> 7728
de ter 7727
:4 8</w> 7727
ं ट 7726
oper ators</w> 7726
li ved</w> 7725
प ू</w> 7721
सं दिग् 7721
rati o</w> 7719
k aur</w> 7718
देखि ए</w> 7718
conver sation</w> 7716
th or 7715
:4 1</w> 7715
पार् किंग</w> 7714
न् न 7713
हो श</w> 7713
de fa 7712
इं स्पे 7712
tech ni 7712
pra dhan</w> 7710
र द्द</w> 7708
di a 7708
स्पि टल</w> 7708
मस् जिद</w> 7707
p y 7703
electr onic</w> 7703
विवे क</w> 7703
employe e</w> 7702
advis ed</w> 7701
पें शन</w> 7699
in cen 7698
ba j 7698
d as 7697
p s 7697
ब् लै 7697
भ ट 7696
जु ड़ा</w> 7696
पहुंचा ने</w> 7696
differen ces</w> 7696
aj it</w> 7694
stak e 7692
il lu 7691
:3 8</w> 7691
law yers</w> 7691
bureau cr 7691
ंच े</w> 7690
वि स्त 7689
:3 3</w> 7689
:5 2</w> 7689
खन न</w> 7686
ten ance</w> 7685
:3 9</w> 7685
:3 1</w> 7685
scop e</w> 7685
ग र 7683
sig ns</w> 7681
at titude</w> 7680
sto res</w> 7680
सि फा 7678
citiz en</w> 7678
tril lion</w> 7677
reha bil 7677
al ong 7675
नव म्बर</w> 7674
vik as</w> 7674
kh ur 7673
नि स्तान</w> 7672
:4 3</w> 7672
c ks</w> 7669
गठ ित</w> 7669
कैं प</w> 7668
बा हरी</w> 7666
mo ves</w> 7666
olymp ic</w> 7666
ir s</w> 7665
chri st 7665
व्र त</w> 7664
फ्ट वेयर</w> 7663
:5 9</w> 7662
थ न</w> 7661
ari a</w> 7660
:0 5</w> 7660
spec tr 7660
proce d 7660
wor ld 7659
गर् भ 7659
b ho 7658
di et</w> 7658
un a</w> 7656
encoura ge</w> 7655
:4 2</w> 7654
mar k 7653
ची फ</w> 7652
ir rig 7651
का ला</w> 7650
दे री</w> 7650
m t</w> 7644
अ त्या 7644
आ धे</w> 7644
photo graph 7643
र क्त</w> 7641
सा क्षा 7641
वि रा 7641
कर णों</w> 7640
fin ish</w> 7640
jud g 7638
प्र शं 7636
खा ता</w> 7635
regu lations</w> 7635
au ction</w> 7634
chidambar am</w> 7634
मु द्रा</w> 7632
ब्रि टिश</w> 7632
टॉ प</w> 7631
स न 7629
उत् सव</w> 7629
मा ओ 7627
wor se</w> 7627
kh al 7626
अभ ्य 7626
il li 7625
को त 7624
p an</w> 7623
इस लिये</w> 7621
sm ith</w> 7621
re pu 7620
:5 8</w> 7620
फर् क</w> 7619
com plic 7618
:4 7</w> 7618
tre as 7617
शि ल् 7615
यौ न</w> 7615
u red</w> 7614
clas h</w> 7613
su res</w> 7612
मह ेश</w> 7612
:3 6</w> 7610
ल ड 7606
oper ational</w> 7606
वि द्वा 7605
र घु 7603
स रो 7603
शै क्ष 7603
स न्</w> 7601
amar inder</w> 7601
ra dio</w> 7600
ना य 7600
सि पा 7600
चू ंकि</w> 7600
gr y</w> 7599
promo ting</w> 7599
sach in</w> 7599
भू ति</w> 7597
मे श्वर</w> 7595
फ् तार</w> 7595
fran ch 7595
शुभ कामना 7595
z es</w> 7594
त ौ 7590
3 5 7587
deta ined</w> 7585
gain ed</w> 7585
la x 7583
pil ot</w> 7582
nav y</w> 7581
दस्ता वेज</w> 7580
बांग् ला 7580
resig nation</w> 7578
य था 7576
द् वी 7576
main tenance</w> 7572
अ फ़ 7571
no vel</w> 7571
को ह 7571
j er 7570
नी त</w> 7570
av a</w> 7569
मुफ् त</w> 7569
raj esh</w> 7566
sy ed</w> 7564
viol ent</w> 7562
su resh</w> 7561
i as</w> 7560
st able</w> 7560
gro ss</w> 7560
श्री लंका</w> 7560
de pres 7558
he c 7553
एस टी</w> 7551
exten d</w> 7551
im ran</w> 7549
ज ज</w> 7548
प्रति दिन</w> 7548
film maker</w> 7548
pro cu 7547
ali ve</w> 7547
प्रति ष् 7547
bro ken</w> 7547
pris es</w> 7547
ma hat 7546
विस्त ृत</w> 7546
bl ack 7542
कब् जे</w> 7542
en able</w> 7541
जरि ये</w> 7541
गे हूं</w> 7539
innov ation</w> 7539
lo cations</w> 7538
स रा 7537
आर टी 7537
पूर् वा 7536
सहम त</w> 7536
जि ंग</w> 7535
ap ps</w> 7535
सा ई 7534
li ve 7534
chan cell 7533
ता जा</w> 7532
sur face</w> 7532
secre t</w> 7532
o p</w> 7530
अभि ने 7529
p aul</w> 7528
sup posed</w> 7528
refu ge 7528
e c</w> 7526
ध क</w> 7526
:5 4</w> 7524
:4 6</w> 7522
गरी बी</w> 7521
d am</w> 7519
mano j</w> 7519
pre vention</w> 7517
कर वाई</w> 7516
pi one 7516
dh ya</w> 7516
दिना ंक</w> 7515
man gal 7513
स दा</w> 7512
स च 7510
ला यक</w> 7507
ck y</w> 7506
sustain ed</w> 7506
पे य 7505
marg in</w> 7505
your self</w> 7505
र् द</w> 7504
f ought</w> 7503
mi x</w> 7503
exac tly</w> 7502
डि यों</w> 7501
chand ra 7500
bon ds</w> 7499
demon str 7499
अम र 7498
सब ू 7497
bl ast</w> 7496
regul ator</w> 7496
paren tly</w> 7495
श्री मती</w> 7492
लॉ जी</w> 7487
मज दूरों</w> 7487
मुकाब ला</w> 7487
विधे यक</w> 7486
th es</w> 7485
messa ges</w> 7485
लं घन</w> 7483
circumst ances</w> 7483
s ort</w> 7482
n p 7480
सुविधा एं</w> 7480
बर ें</w> 7479
अंतर ्राष्ट्रीय</w> 7478
ध ता</w> 7477
ज्ञ ा</w> 7477
निका ली</w> 7475
उपभो क्ता</w> 7475
s wa 7472
invest or</w> 7472
दफ् तर</w> 7472
क ना 7470
min e</w> 7470
भे जे</w> 7468
fic ations</w> 7467
ले स</w> 7466
vir us</w> 7466
इं दिरा</w> 7465
कार्य काल</w> 7465
ad ap 7464
निशा न</w> 7464
lic en 7464
fra ud</w> 7464
क्षे प</w> 7463
सि र 7462
राज कीय</w> 7462
2 nd</w> 7460
ris ks</w> 7460
दा ल</w> 7459
estim ates</w> 7459
दुः ख</w> 7459
एटी एम</w> 7458
च लो</w> 7457
ट् वि 7454
conser vation</w> 7453
ब्या ज</w> 7453
रि स</w> 7452
ंत्र िक</w> 7450
neighbour ing</w> 7449
लिमि टेड</w> 7449
त व्य</w> 7448
ब् बत</w> 7446
मह त् 7446
मार् टम</w> 7446
ab his 7444
gh ten 7444
vari ety</w> 7444
अल् लाह</w> 7444
पदा र्थ</w> 7444
चढ़ ा 7444
घा टी</w> 7442
:5 1</w> 7442
invol vement</w> 7442
कं प</w> 7438
akhil esh</w> 7438
map ur</w> 7435
in ch</w> 7434
n an</w> 7432
win d</w> 7432
a o</w> 7431
रो शनी</w> 7431
जाय ेंगे</w> 7430
ब्यू रो</w> 7429
glob ally</w> 7428
न शे</w> 7427
tribun al</w> 7425
सि ले 7424
fu sion</w> 7424
ro ad 7420
निर् देशक</w> 7420
is s</w> 7419
op h 7419
संशो धन</w> 7419
faroo q</w> 7418
ag ues</w> 7416
ran k</w> 7416
restric tions</w> 7416
9 00</w> 7414
li m</w> 7414
शो षण</w> 7413
expen sive</w> 7411
pac i 7410
चौ की</w> 7408
निर् माता</w> 7407
अंत रि 7407
दे हरा 7406
em ail</w> 7405
डि स् 7405
scienti fic</w> 7405
categ ories</w> 7403
mano har</w> 7403
मि र</w> 7402
ash ing</w> 7401
कॉ लेजों</w> 7399
ta k</w> 7395
sk y</w> 7393
be gun</w> 7391
कै बिनेट</w> 7390
v ad 7387
पा ना</w> 7387
बना ये</w> 7386
कर ों</w> 7384
ri ots</w> 7384
collec tor</w> 7384
व क़् 7382
प ने</w> 7382
tan e 7380
re ference</w> 7378
रि कार्ड</w> 7378
से वाओं</w> 7378
समझौ ता</w> 7378
i it</w> 7377
cu tting</w> 7377
यूनि ट</w> 7377
ro h 7375
ल ह 7373
tur ns</w> 7371
tic kets</w> 7370
bu yers</w> 7369
गु प्त</w> 7369
स्टि ंग</w> 7369
slog ans</w> 7368
रा वत</w> 7367
ल ु</w> 7366
ति याँ</w> 7366
el i</w> 7365
hindu stan</w> 7365
di ble</w> 7364
पी सी</w> 7364
politici an</w> 7364
mechan ism</w> 7364
ple as 7363
li ft</w> 7362
सफे द</w> 7360
छो ड़ने</w> 7358
गि ंग</w> 7356
करा ए</w> 7356
avail ability</w> 7356
नवी न</w> 7354
aff ord 7352
साहि ब</w> 7352
en ty</w> 7351
मत दाता</w> 7349
ढ ो 7348
di an</w> 7348
lo s</w> 7348
शे खर</w> 7345
पाठ्य क्रम</w> 7345
अ र</w> 7343
सै न्य</w> 7343
केन्द्र ीय</w> 7343
acqu ired</w> 7341
हस्ताक्ष र</w> 7340
experi enced</w> 7338
अका द 7337
ur g 7336
ap parently</w> 7336
छ ी 7334
tru ck</w> 7334
महा त्मा</w> 7333
sett led</w> 7333
pro hi 7332
दा द</w> 7332
u se 7331
मु ज 7329
बन ना</w> 7329
ल स</w> 7328
ग हरी</w> 7327
su kh 7327
आतंक वादी</w> 7327
chow k</w> 7325
colon y</w> 7323
छे ड़ 7320
an e</w> 7318
it i</w> 7317
f ad 7316
im ports</w> 7315
गा र्ड</w> 7313
गा ना</w> 7312
ह की 7309
exam s</w> 7309
ic o</w> 7308
का व्य</w> 7308
dee pak</w> 7308
bom b</w> 7308
कने क्शन</w> 7308
re l</w> 7307
मनो रंजन</w> 7307
गाँ धी</w> 7306
ty pes</w> 7304
famili ar</w> 7304
stric t</w> 7303
ब रों</w> 7299
म द् 7299
राज नैतिक</w> 7299
mahin dra</w> 7299
इस्ती फा</w> 7298
ha b 7297
appe arance</w> 7297
लॉ न् 7296
sc ra 7293
ं प</w> 7292
je well 7292
ब सों</w> 7291
ambassad or</w> 7291
e ating</w> 7287
लो न</w> 7287
अमरी की</w> 7287
ben ch 7284
al isation</w> 7283
exp and</w> 7283
na y 7282
requi rements</w> 7281
w ra 7279
प्र बंध</w> 7279
al co 7277
min orities</w> 7277
n ap 7275
टे ज</w> 7275
come dy</w> 7275
mem orial</w> 7274
मान ने</w> 7273
इन् हीं</w> 7272
रि जर् 7271
the ast</w> 7271
go d 7270
exten sion</w> 7270
f ty</w> 7269
आ एगी</w> 7269
ter med</w> 7269
पड़ ने</w> 7269
199 8</w> 7269
pilgri ms</w> 7268
वर् ती</w> 7266
intel lec 7266
comprehen sive</w> 7266
qu it</w> 7265
equ ally</w> 7265
b bed</w> 7263
फा न</w> 7263
लग ् 7262
जो श</w> 7262
appe aled</w> 7262
पदा धिकारियों</w> 7261
सर्व श्रेष्ठ</w> 7258
sym bo 7258
ए यर</w> 7257
establ ishment</w> 7257
atmo sphere</w> 7257
ौ ती</w> 7256
3 ,000</w> 7255
om ar</w> 7255
अ ज्ञात</w> 7253
क् सी</w> 7253
d mk</w> 7252
त स् 7252
b hat</w> 7251
cre ative</w> 7251
de ser 7249
राम देव</w> 7248
वक़् त</w> 7248
समझौ ते</w> 7247
शि या 7246
मे यर</w> 7244
वार्ष िक</w> 7242
बिलास पुर</w> 7242
बी एस 7241
रु क</w> 7241
fl at</w> 7241
ना राज 7240
मैने जर</w> 7240
samaj wadi</w> 7240
asi de</w> 7239
op pon 7236
मं त्र</w> 7236
सं जीव</w> 7235
प्र खंड</w> 7234
mach ines</w> 7233
dela yed</w> 7232
b c</w> 7230
मो ड़</w> 7229
फा र् 7229
he l</w> 7226
हनु मान</w> 7226
pos ure</w> 7224
m ere</w> 7223
उप स्थिति</w> 7223
बिज नेस</w> 7223
स्वर् ण</w> 7223
शिक्ष ित</w> 7222
increas ingly</w> 7222
whe el 7221
जागरू क</w> 7221
mahat ma</w> 7221
wat er 7220
जस्टि स</w> 7220
गि री</w> 7219
pack age</w> 7218
ha el</w> 7217
सा ँ 7216
lo k 7214
उल् लंघन</w> 7213
से ंट</w> 7211
ति न</w> 7209
reduc tion</w> 7206
मान ो</w> 7202
pu shed</w> 7199
hus sain</w> 7199
आ चार्य</w> 7197
op ti 7197
सा फ़</w> 7195
jewell ery</w> 7194
पा रित</w> 7193
लड़ ने</w> 7193
bha i</w> 7193
v o</w> 7192
h man</w> 7191
ju ven 7191
एस आई</w> 7191
in spi 7190
मु हैया</w> 7190
an ci 7186
अव स्था</w> 7183
डा ंस</w> 7182
चा वल</w> 7180
से वक</w> 7180
उप न्यास</w> 7180
धो नी</w> 7180
चा ल</w> 7179
ज मेंट</w> 7178
आद त</w> 7173
comple tion</w> 7171
joh n 7171
प्र जा 7170
effec tively</w> 7167
ak h</w> 7165
surg ery</w> 7165
आन् दो 7165
व्यक्ति त्व</w> 7164
बु द्धि</w> 7162
wel com 7160
सब् जी</w> 7160
ऑ र् 7159
बन ती</w> 7159
बुद् धि 7159
in duc 7158
सि स</w> 7156
विश्ले षण</w> 7156
हु सैन</w> 7152
y as</w> 7151
झू ठ</w> 7151
गा न</w> 7150
doz en</w> 7149
agar wal</w> 7148
खतर नाक</w> 7148
kore an</w> 7146
r ating</w> 7145
plan e</w> 7145
ti wari</w> 7143
रे डियो</w> 7143
bow lers</w> 7143
ंडे य</w> 7143
क पि 7141
धा रा 7141
सि या</w> 7140
communic ations</w> 7139
इंजी नियर</w> 7139
उ पे 7136
पोस्ट मार्टम</w> 7132
f lu 7130
क मी 7129
ह स्त 7129
सु नी</w> 7129
उठा ए</w> 7129
या म</w> 7128
d ress</w> 7127
se es</w> 7127
ayo dhya</w> 7126
ह वाले</w> 7125
tu be</w> 7125
ber t</w> 7125
ton om 7125
ंग् स</w> 7125
बदमा शों</w> 7124
divi ded</w> 7123
सर् जन</w> 7122
aler t</w> 7122
ड ो</w> 7120
resul ted</w> 7119
se as 7118
डे ंट</w> 7116
क ना</w> 7114
scri pt</w> 7114
संस्था ओं</w> 7114
च् छा 7113
vis a</w> 7113
dre w</w> 7112
:0 1</w> 7112
m erg 7110
d h</w> 7110
ad vice</w> 7109
inter vention</w> 7109
may or</w> 7109
ex tra 7108
requi res</w> 7108
scor ing</w> 7108
ff s</w> 7107
g es 7105
ti er</w> 7105
बा जा 7105
form al</w> 7104
au tonom 7103
kap il</w> 7103
diag no 7100
irrig ation</w> 7098
cal cu 7096
आरो पों</w> 7096
correc t</w> 7095
म रण</w> 7093
na g</w> 7093
main taining</w> 7092
पो ल</w> 7091
floo ds</w> 7091
braz il</w> 7091
abhis hek</w> 7091
वि पक्षी</w> 7090
gar b 7089
्यु नि 7088
प्रति बंध</w> 7087
unfortun ately</w> 7085
fel low</w> 7083
may be</w> 7083
por tion</w> 7081
te sting</w> 7079
आश्चर् य</w> 7078
है दरा 7077
प्रि यं 7077
दिक् कत</w> 7077
ल री</w> 7076
लु धि 7076
मनी ष</w> 7074
शख् स</w> 7073
welcom ed</w> 7073
न ती</w> 7072
sugge sts</w> 7072
i ve</w> 7071
जब र 7071
ठो स</w> 7071
ब स्ती</w> 7070
tar gets</w> 7070
व्य स्त</w> 7069
मूल ्या 7068
ra tions</w> 7067
:0 4</w> 7067
:0 8</w> 7067
लि टी</w> 7065
fr ame 7065
c ted</w> 7064
ध ु</w> 7063
ली ग</w> 7063
e ties</w> 7061
सू च 7061
br illi 7061
collabor ation</w> 7061
् या</w> 7060
um ar</w> 7058
ren der</w> 7058
म नी</w> 7057
र्थ क</w> 7056
काम ना</w> 7054
इंस्पे क्टर</w> 7054
सम ृ 7052
वर् णन</w> 7052
कार्य रत</w> 7052
bag s</w> 7052
सी पी</w> 7051
representa tive</w> 7051
ten sion</w> 7049
pul led</w> 7049
श ता 7048
ran i</w> 7048
ला ता</w> 7047
र फ्तार</w> 7046
rela tives</w> 7045
she et</w> 7045
fl ying</w> 7043
कामया ब</w> 7042
w i</w> 7040
लगा ना</w> 7040
pris on</w> 7040
स राह 7039
li br 7039
chancell or</w> 7039
कृ प 7038
बै ग</w> 7037
बहा ने</w> 7036
m r 7035
jo y</w> 7035
pat i</w> 7035
di wali</w> 7032
,201 0</w> 7032
से स</w> 7031
डा ली</w> 7031
dra wn</w> 7028
te en 7027
भा ल</w> 7026
o ce 7025
मक सद</w> 7025
अ ति</w> 7023
ti mat 7022
ja wa 7022
बैठ कर</w> 7021
बढ़ो तरी</w> 7018
spir it 7017
re iter 7016
उन् होने</w> 7016
so il</w> 7015
har ya</w> 7014
continu ing</w> 7013
रा ने</w> 7012
ti li 7011
ला नी</w> 7011
टर् न</w> 7011
उ ज् 7010
मांग ों</w> 7010
y el 7009
sec ular</w> 7009
a ar 7008
चे तना</w> 7008
mor al</w> 7008
episo de</w> 7005
amit abh</w> 7005
सु ंद 7003
:0 2</w> 7002
re p 6999
i ya</w> 6998
बढ़ ता</w> 6995
दो स्ती</w> 6994
sci ences</w> 6992
back ground</w> 6992
plac ement</w> 6991
analy st</w> 6990
a e 6989
जी ते</w> 6988
मे ट्रो</w> 6987
olymp ics</w> 6986
k en 6985
ri de</w> 6984
fi es</w> 6983
कि ट</w> 6982
nav is</w> 6982
yo gi</w> 6980
sha pe</w> 6980
शर् त</w> 6980
t am</w> 6979
pre ci 6979
कं ट्रोल</w> 6978
मु र् 6976
bil ities</w> 6976
eas ier</w> 6976
ल ि</w> 6974
धार णा</w> 6974
श्रद्धा लुओं</w> 6974
volun te 6973
thr il 6972
a e</w> 6971
ac tual</w> 6971
stake holders</w> 6971
gur u 6970
सौं पा</w> 6969
ू र</w> 6967
bil ls</w> 6966
mic hael</w> 6966
c s 6962
ए सी</w> 6962
काउ ंट</w> 6962
ट्र ल</w> 6961
suff icient</w> 6961
ai ah</w> 6960
ज्यो ति</w> 6960
जो ड़ने</w> 6959
वे स्ट 6957
ma x</w> 6955
ul ts</w> 6955
वा दा</w> 6953
con ve 6953
नी तियों</w> 6952
col ours</w> 6952
सोच ने</w> 6951
पार्ट मेंट</w> 6949
गौ तम</w> 6947
clo thes</w> 6945
परि स्थितियों</w> 6944
एजे ं 6942
आ मिर</w> 6941
ची जों</w> 6939
साध ना</w> 6936
k an</w> 6934
बंध ित</w> 6934
de sai</w> 6931
ची जें</w> 6931
ज मी 6930
spec tive</w> 6930
प्रका शन</w> 6929
नरे श</w> 6927
pro secu 6924
b our 6923
नग र 6923
महो त्सव</w> 6923
p g</w> 6922
b all 6920
im port</w> 6920
वि जन</w> 6919
ठा न</w> 6919
ob a</w> 6918
आर ंभ</w> 6918
समर्थ कों</w> 6918
सु शील</w> 6917
chair person</w> 6917
min d 6916
समा ज 6916
:0 3</w> 6916
spectr um</w> 6916
मि र् 6915
रो का</w> 6914
जे ब</w> 6914
ंच ित</w> 6914
performan ces</w> 6914
t u</w> 6913
comp on 6913
establ ish</w> 6912
in ary</w> 6911
ur du</w> 6911
r as</w> 6910
mand atory</w> 6908
ज ंग</w> 6907
co ast 6907
रि सर्च</w> 6906
कै प् 6902
संपा दक</w> 6902
शी ष</w> 6901
az ad</w> 6901
man ish</w> 6900
as sum 6898
प्र माण 6898
short age</w> 6898
pun jab 6897
चा ंदी</w> 6894
provin ce</w> 6892
for get</w> 6891
फै शन</w> 6891
quali fied</w> 6890
dead line</w> 6890
s par 6889
mo tion</w> 6889
साह ू</w> 6888
अनु रोध</w> 6886
संबंध ों</w> 6886
उच् चा 6885
hi l</w> 6884
chil d 6882
:0 6</w> 6882
ple ase</w> 6881
adit ya</w> 6881
ch ose</w> 6879
प्र वी 6878
जि तने</w> 6878
अपे क्षा</w> 6878
स्मा र्ट</w> 6877
sett lement</w> 6876
le tters</w> 6875
sa ff 6875
फ्र ी</w> 6875
ट के</w> 6874
al aya</w> 6874
mar ty 6873
hur ri 6873
त ब 6872
ड ै 6871
as pi 6871
नि धन</w> 6871
win ners</w> 6871
youn g 6871
reas on 6870
i um</w> 6869
tra ge 6869
d red</w> 6868
मु खिया</w> 6868
z ar 6867
दा र 6867
fad navis</w> 6866
v end 6865
भा विक</w> 6864
जय ंती</w> 6863
ह ं 6862
an tici 6862
ढे र</w> 6861
पूर् ण 6859
सिद्धा ंत</w> 6858
occur red</w> 6858
न सी 6857
es sive</w> 6857
ak ed</w> 6857
fa ster</w> 6856
जुर् माना</w> 6856
ग् र</w> 6855
माध्य मिक</w> 6854
त ता</w> 6851
raj nath</w> 6850
b ration</w> 6849
kam al</w> 6849
po on 6848
ma p</w> 6847
langu ages</w> 6847
eli gible</w> 6845
do ws</w> 6842
प ट् 6840
ज र्म 6840
au dit</w> 6840
भो ज 6839
afric an</w> 6839
हि म</w> 6838
bh us 6838
ti se</w> 6837
तर फ़</w> 6837
सु पर</w> 6836
ho l</w> 6836
संदिग् ध</w> 6836
मं द</w> 6835
sec ution</w> 6835
हैदरा बाद</w> 6835
l ars</w> 6834
ar re 6834
conduc ting</w> 6834
अनु प 6833
ji o</w> 6833
mil es</w> 6832
:0 7</w> 6832
p m 6830
गो यल</w> 6829
lo c</w> 6826
fore sts</w> 6826
श रा 6825
आ एंगे</w> 6825
क मान</w> 6824
वर् ड</w> 6823
भाषा ओं</w> 6823
क टा 6822
अ ंग</w> 6822
liter ature</w> 6822
ती त</w> 6821
clo sely</w> 6821
बॉ क्स</w> 6821
l o</w> 6820
मै चों</w> 6820
अव गत</w> 6820
proced ure</w> 6820
ang el 6819
मृ त</w> 6818
scre ening</w> 6817
w are</w> 6816
अप हरण</w> 6815
वसू ली</w> 6814
li kes</w> 6813
गु जर</w> 6810
bri ef</w> 6810
constitu ted</w> 6810
ex posure</w> 6809
t mc</w> 6807
du ties</w> 6807
n c</w> 6806
ली टर</w> 6805
u ti</w> 6804
peti tion 6804
प्रतिनि धियों</w> 6804
visi ble</w> 6804
प्रति मा</w> 6803
आड वाणी</w> 6802
उ च्च 6801
ste ad 6801
prev ail 6800
स्ना न</w> 6800
un likely</w> 6799
cha p 6799
मुज फ् 6799
फो र्स</w> 6798
reduc ing</w> 6798
st ayed</w> 6797
का ज</w> 6797
कन् या</w> 6796
loc ked</w> 6795
st ration</w> 6794
त्या ग</w> 6794
sha k 6793
अभि नय</w> 6793
repe ated</w> 6793
परि क</w> 6792
कट ौती</w> 6792
s ca 6790
सा जिश</w> 6790
सं स्थानों</w> 6790
सिलसि ला</w> 6790
belong ing</w> 6790
re ci 6789
deal ing</w> 6789
s at</w> 6788
नि ए</w> 6788
गा य</w> 6788
l ings</w> 6784
सौं प</w> 6783
मा सू 6781
व चन</w> 6777
challeng ed</w> 6777
श्रृ ंखला</w> 6776
re public 6775
रो जाना</w> 6775
emplo yed</w> 6775
it ali 6774
गुस् सा</w> 6774
se m 6772
पार् टियों</w> 6770
op posite</w> 6768
clo ser</w> 6768
k ir 6767
कृप या</w> 6767
vi jay 6765
देव ता</w> 6765
bur ning</w> 6764
डब्ल ्यू 6763
c ited</w> 6762
ch er</w> 6761
ve re 6761
wil liam 6761
क् ला 6760
do cu 6760
gen u 6759
hun dred</w> 6759
ष ि 6755
अध ू 6755
अभि व्यक्ति</w> 6755
1 ,0 6753
सी ख</w> 6753
i o</w> 6751
cho sen</w> 6750
पेय जल</w> 6750
resour ce</w> 6749
rol led</w> 6749
मि नि 6748
docu ment</w> 6746
pr at 6745
cancel led</w> 6744
h its</w> 6742
ro ck</w> 6741
डी ओ</w> 6741
भाग ीय</w> 6741
m as</w> 6740
मे ट</w> 6738
tu s</w> 6738
domin ated</w> 6738
th om 6737
ज ्य 6736
खु ल</w> 6735
garb age</w> 6735
k ot</w> 6733
पा ंडेय</w> 6733
व्यापा रियों</w> 6731
क्ष ी</w> 6730
भार ती 6730
ट्रै क</w> 6729
कि शो 6728
li ghts</w> 6728
bur den</w> 6728
regul arly</w> 6728
अह सास</w> 6727
लोक पाल</w> 6725
mi xed</w> 6724
ग् वालि 6724
at ar</w> 6723
न् ट</w> 6723
polic emen</w> 6723
alle n</w> 6723
secu red</w> 6722
1 st</w> 6721
var un</w> 6721
नियंत्र ित</w> 6721
समर्थ क</w> 6720
pl ot</w> 6719
x es</w> 6717
i ved</w> 6716
घ ु</w> 6713
पूछ े</w> 6713
गरी बों</w> 6713
work er</w> 6712
ट्र िक</w> 6711
bab u</w> 6711
chaud h 6711
एक ड़</w> 6710
world wide</w> 6710
खा या</w> 6709
eng ag 6709
प्रियं का</w> 6709
r ounds</w> 6708
advis ory</w> 6708
comb ined</w> 6707
पा प</w> 6706
बैठ ी</w> 6705
pi ec 6705
आतं कियों</w> 6704
प द् 6703
mis s 6703
coff ee</w> 6703
यूरो प</w> 6701
इंड स्ट्री</w> 6700
ol der</w> 6699
एस एसपी</w> 6698
अ दा</w> 6697
वा ं 6696
नि ंदा</w> 6696
y as 6695
ग्रा हक</w> 6692
contro lled</w> 6691
ख्या ल</w> 6691
से वन</w> 6690
रि टा 6688
m end 6686
gener ally</w> 6686
p ar</w> 6685
मा ला</w> 6685
रा शन</w> 6684
20 ,000</w> 6684
ab and 6684
wil d</w> 6684
she tty</w> 6684
histor ical</w> 6683
pit ch</w> 6683
साध नों</w> 6681
का फ़ी</w> 6680
म् प</w> 6680
निक ली</w> 6680
:0 9</w> 6679
समर् पित</w> 6679
ख तरे</w> 6678
es cape</w> 6677
at tract</w> 6676
vo ted</w> 6676
अजी ब</w> 6675
photo grap 6674
खा सकर</w> 6673
स्वी कृति</w> 6673
है ः</w> 6671
fin dings</w> 6670
दाय रे</w> 6670
amrit sar</w> 6670
con secu 6669
पो षण</w> 6669
comm ander</w> 6668
ब गैर</w> 6666
resol ved</w> 6666
हॉ स्पिटल</w> 6666
स् की 6665
ंच ा</w> 6665
ं जलि</w> 6664
क् य</w> 6662
t at 6660
आ मंत्र 6660
च न्द्र</w> 6658
pres cri 6658
जो ड़ी</w> 6658
गी त 6657
प्रा प्ति</w> 6654
fi re 6652
च लेगा</w> 6651
coun sel</w> 6650
ट् वी 6650
क श</w> 6649
कार् या 6649
pos session</w> 6648
gl ass</w> 6648
जर्म नी</w> 6648
j j 6647
त्य ो 6647
si k 6646
witnes ses</w> 6644
ु क</w> 6643
3 6 6641
wh en 6641
obvi ously</w> 6640
afford able</w> 6640
भु त</w> 6639
अ द् 6635
सू र् 6635
smart phones</w> 6635
fer nand 6634
कुर् सी</w> 6634
सी ए</w> 6633
जाए ंगी</w> 6633
केंद्र ों</w> 6632
स् ने 6631
दुर् गा</w> 6630
j nu</w> 6629
र स् 6629
पा ठी</w> 6629
ध ं 6628
ता ंत्रिक</w> 6628
्र ी</w> 6626
tur n 6626
ड़ की</w> 6625
frame work</w> 6625
sen ding</w> 6622
अल् पसं 6622
pri vil 6621
199 0</w> 6621
has n</w> 6619
स श 6618
डी ज</w> 6618
bloc ks</w> 6614
tra tion</w> 6612
ig no 6612
पक्ष ों</w> 6612
ंस क</w> 6611
गु र् 6610
materi als</w> 6610
199 6</w> 6609
ash a</w> 6608
regu lation</w> 6606
बे च</w> 6605
ab les</w> 6604
ग् लो 6604
an ge</w> 6603
अति क्रमण</w> 6603
s per 6601
प्र ण 6601
dy nam 6601
अभि भाव 6600
den ly</w> 6600
वर्ष ा</w> 6600
back ward</w> 6600
expla in</w> 6599
कै सी</w> 6598
k ann 6597
al location</w> 6596
tra iler</w> 6596
highli ghted</w> 6596
bha van</w> 6595
integr ated</w> 6595
when ever</w> 6595
कह ू 6594
उत् तरी</w> 6594
out come</w> 6592
आईपी एल</w> 6592
t au 6591
ंग े 6591
privil e 6591
संतु लित</w> 6590
don es 6589
ब ो</w> 6588
उद ्य 6588
re placed</w> 6587
ele ph 6587
ग्वालि यर</w> 6586
b ou 6585
भे ंट</w> 6585
पड़ो सी</w> 6585
v ital</w> 6584
स ू</w> 6584
बा ल 6583
जग दी 6579
real ised</w> 6579
la khs</w> 6576
सर् वे 6576
स ज् 6575
ma the 6575
in dones 6574
पर म्प 6573
सर स्व 6572
leg ally</w> 6572
c is 6571
ल क्षण</w> 6571
br on 6571
p d 6570
मि नी</w> 6570
उत्पा दों</w> 6570
st aged</w> 6569
राज ू</w> 6568
sw ami</w> 6566
ठेके दार</w> 6566
colle agues</w> 6565
fin ds</w> 6564
भे जी</w> 6564
rol ling</w> 6564
shou l 6564
क ट् 6563
ष् क</w> 6559
ur a</w> 6557
पी य</w> 6555
विष् णु</w> 6555
geor ge</w> 6555
य कीन</w> 6550
बा लक</w> 6550
मा ंगा</w> 6549
six th</w> 6549
spe cies</w> 6548
यू ँ</w> 6547
low est</w> 6545
en der</w> 6544
nom ination</w> 6544
d ges</w> 6543
इ काई</w> 6543
air tel</w> 6543
दर्श क</w> 6543
फ ल 6542
न कर</w> 6540
reti rement</w> 6540
re form</w> 6539
आप दा</w> 6539
corrid or</w> 6539
j k 6538
पा रा</w> 6538
jam es</w> 6538
isra eli</w> 6538
स्टै ंड</w> 6538
शता ब् 6538
san gh</w> 6537
इ क</w> 6536
खु ली</w> 6535
आ स्था</w> 6533
च ं 6532
ma inst 6531
th ik</w> 6530
वैश् विक</w> 6530
अल्पसं ख्य 6530
e ds</w> 6529
आ धी</w> 6528
ga thered</w> 6528
cy ber</w> 6528
ख र 6526
kee ps</w> 6526
नती जा</w> 6526
cricke ter</w> 6523
प्रि ंसि 6522
प्रस्ता वित</w> 6522
i j</w> 6520
ती स</w> 6520
दरवा जे</w> 6520
ए रिया</w> 6519
prin ce</w> 6519
मूल्या ंकन</w> 6519
3 50</w> 6518
app lied</w> 6518
m ex 6516
pre et</w> 6516
re vised</w> 6514
ni k 6514
य ॉ 6513
v is</w> 6512
to tally</w> 6512
म री</w> 6510
bha s 6510
am an 6509
re action</w> 6508
समा पन</w> 6508
आ मत 6507
tol er 6507
anonym ity</w> 6506
st um 6504
hi c</w> 6504
वि मर् 6501
inter im</w> 6501
अन शन</w> 6500
in str 6498
सा ंस</w> 6498
fac ulty</w> 6495
समी प</w> 6495
उपभो क्ताओं</w> 6494
resist ance</w> 6494
recogni tion</w> 6492
झ ी</w> 6490
ता लों</w> 6488
जी वित</w> 6488
n is 6487
198 4</w> 6485
micro soft</w> 6485
k are 6484
धि करण</w> 6484
cro ps</w> 6484
ra w</w> 6483
रे ंद्र</w> 6483
ate dly</w> 6482
j ad 6479
अभि यं 6479
को टा</w> 6478
c p</w> 6477
comb ination</w> 6476
त कों</w> 6475
म पं 6474
fr ame</w> 6474
कम ्युनि 6474
w age</w> 6472
प्र सार</w> 6472
बु द्ध</w> 6472
खे ला</w> 6471
म जा</w> 6470
ph en 6470
consecu tive</w> 6470
आमत ौर</w> 6469
प न 6466
बी ए</w> 6466
सर दार</w> 6466
11 , 6463
dist in 6463
चै न 6462
i p</w> 6460
z y</w> 6460
नि पट 6459
af ghan</w> 6459
अ ँ 6458
f ly</w> 6457
prepar ing</w> 6457
अन ्य 6456
bhus han</w> 6456
en h 6455
co w</w> 6455
बांग्ला देश</w> 6452
पहा ड़</w> 6451
m yan 6450
l ling</w> 6450
du tt</w> 6450
चिकित् सक</w> 6450
lo aded</w> 6447
द ह 6446
र् न</w> 6446
ho sts</w> 6445
मह ेंद्र</w> 6445
tal ked</w> 6444
वि वरण</w> 6441
form at</w> 6441
out put</w> 6440
hit ting</w> 6440
10 , 6438
no tic 6436
ch en</w> 6435
क ती</w> 6434
selec t</w> 6434
ri vals</w> 6432
किस् म</w> 6432
जा इ 6431
distribu ted</w> 6431
expla ins</w> 6429
सत् ता 6429
pe ak</w> 6428
पै दल</w> 6428
thre ats</w> 6428
लिख ना</w> 6427
sahi b</w> 6427
स त्या 6426
enh ance</w> 6426
आ क्रो 6425
spe cu 6425
forec ast</w> 6425
ज ौ 6420
pu ll</w> 6420
कह ें</w> 6420
सरस्व ती</w> 6419
क्रा इ 6416
be ach</w> 6415
than k</w> 6415
and aman</w> 6414
cl ar 6414
बहादु र</w> 6414
char ging</w> 6413
rit i</w> 6413
l udhiana</w> 6412
शाह रुख</w> 6412
ti ed</w> 6411
त न् 6410
fil es</w> 6410
cha ir</w> 6406
an th 6405
al am</w> 6404
दी पा 6404
kh anna</w> 6404
exc ited</w> 6404
fac tion</w> 6402
s d 6401
v ements</w> 6398
गी तों</w> 6397
adv ani</w> 6395
6 ,0 6394
सो साय 6394
फा यर</w> 6394
हथि या 6394
ran veer</w> 6393
ण ु 6392
war m</w> 6391
स्लाइ ड्स</w> 6391
wal king</w> 6390
शि यल</w> 6389
ट ता</w> 6388
aad mi</w> 6388
भ ू</w> 6386
च पेट</w> 6386
meh bo 6386
3 4 6385
रु चि</w> 6383
cel ls</w> 6383
[...]
