, 13680712
the 12536398
. 12188060
। 6648584
के 6461765
of 5582493
to 5111106
में 4889421
and 4876694
है 4610526
in 4545654
की 4110326
- 4037611
a 3885531
; 3287473
से 3020068
& 3017792
को 2959335
और 2384519
का 2384226
is 1963508
on 1948515
for 1911396
पर 1881819
ने 1863168
that 1798686
हैं 1666287
कि 1556162
s 1517851
भी 1489652
’ 1461506
( 1380015
) 1368646
apos 1356676
with 1303170
it 1267234
नहीं 1219578
was 1215777
as 1192817
एक 1173137
said 1138165
by 1135407
: 1111185
at 1056189
लिए 1046687
has 1021044
कर 1015964
ही 1014463
quot 991632
be 990596
from 983001
“ 946782
he 938625
तो 925321
इस 921884
” 889106
are 869583
हो 859203
have 858925
will 767301
था 748100
किया 722303
this 714639
यह 701830
not 690774
his 688462
an 684305
गया 677712
i 627960
करने 586143
india 577496
had 550696
also 549940
# 548758
but 546683
we 534457
साथ 528026
which 524615
their 521699
been 506920
who 491544
they 479858
? 478161
were 470198
कहा 465158
बाद 460039
रहे 458127
अपने 446503
दिया 439750
तक 433004
government 431247
its 429585
रहा 427094
all 420619
थी 414379
after 412334
थे 399644
one 398397
जो 392183
or 388984
कुछ 386362
up 378733
वह 371819
state 370830
रही 364460
हुए 363553
जा 361126
there 357782
/ 354629
गई 354547
लेकिन 350878
new 344440
you 340571
people 334805
minister 334183
year 333668
would 333588
कोई 327954
out 325922
व 324595
about 324374
more 320092
her 318302
न 312070
या 310577
124 310359
when 307411
over 307162
two 306567
! 304854
can 300310
अब 292664
ist 279762
t 279746
पहले 279092
गए 276592
होने 276241
ये 275678
‘ 274511
लोगों 274086
किसी 272351
बात 272003
उन्होंने 269826
police 268924
दी 268881
other 268684
time 268466
she 267344
सिंह 266749
मैं 263948
अपनी 263885
am 261075
पुलिस 259268
वाले 258154
if 257729
while 255950
सरकार 253777
no 253147
दो 249760
जब 249220
तरह 247596
against 244518
first 243632
क्या 243396
आप 241943
करते 241469
इसके 238862
so 238587
delhi 238232
वे 237661
them 233791
updated 233352
हुआ 233155
us 231314
amp 230421
indian 226902
rs 223524
हम 219155
समय 218785
party 218780
chief 217979
like 217715
only 216852
per 216751
into 213851
last 213396
may 212125
pm 211686
some 210021
हुई 209722
उनके 208956
our 208773
बताया 208111
दिन 207539
बार 207271
years 206080
day 205794
under 205387
कई 204584
काम 202700
फिर 202496
जाता 201404
being 200297
बहुत 200179
रूप 199890
now 196717
10 196069
than 195848
these 194726
singh 194602
लोग 193967
bjp 192015
what 191496
world 189937
होता 188835
लेकर 188095
द्वारा 187459
during 187186
any 185489
लिया 184604
जी 184446
सभी 183859
भारत 183750
उन्हें 183734
आज 183212
जाने 182724
such 181948
him 181611
इन 181321
साल 180979
% 180671
उसे 180498
even 179042
सकता 178860
congress 178597
उसके 176647
देश 176493
होगा 176146
2 175363
— 174505
should 174053
court 173984
three 173924
1 170070
my 169888
made 169004
home 167975
घर 166310
करना 166003
नाम 164993
do 162936
पास 157255
उस 157162
says 155349
country 154233
where 153087
could 152286
एवं 152229
आ 149721
वो 149415
हर 149409
many 149222
take 149174
ले 148068
crore 147483
कारण 147336
well 146392
शुरू 146204
most 144846
कम 143664
national 143510
3 142714
president 142323
before 141912
उनकी 141426
through 140968
get 138728
तथा 137904
मुझे 137356
दोनों 137041
ऐसे 136864
यहां 136541
between 136204
चाहिए 135805
just 134271
make 134085
how 133951
here 133111
work 132998
then 132985
high 132743
20 131969
ओर 130985
बीच 130179
सकते 130178
case 130127
cent 129863
your 129506
वाली 129486
दौरान 129466
होती 129225
off 128520
तीन 128504
सबसे 128473
15 127498
however 126494
5 126363
film 125252
दे 125183
देने 123450
back 122845
अन्य 122763
modi 122345
since 121768
कभी 121263
जैसे 119594
क्षेत्र 119237
because 119198
अगर 118158
very 118024
mumbai 117962
around 117310
women 116919
अधिक 116916
जाएगा 116709
12 116557
लगा 116548
ऐसा 116176
कुमार 115641
kashmir 115544
company 115068
including 114684
राज्य 114469
बारे 114289
district 113934
4 113428
मेरे 112251
मामले 111617
team 111471
old 111448
करता 110987
both 110918
प्रदेश 110889
way 110846
ज्यादा 110220
अपना 109671
pakistan 109261
today 108986
public 108580
according 108222
इसी 107436
added 107111
दिल्ली 106870
me 106592
city 106528
पूर्व 106274
उसकी 106158
कांग्रेस 106128
power 105979
life 105863
करें 105712
those 105631
अभी 105352
come 105270
students 104577
सब 104499
30 104161
किए 104082
वर्ष 102970
part 102857
set 102653
down 102574
four 102451
told 102248
इससे 102126
… 101835
did 101555
जाती 101251
भारतीय 101038
विभाग 101008
good 99968
6 99562
11 99532
पार्टी 99388
development 99148
शामिल 99087
फिल्म 98984
prime 98861
टीम 98634
bank 98588
political 98245
होगी 97997
अलग 97918
91 97516
m 97510
news 97336
next 97241
जानकारी 97178
चुनाव 97104
long 96999
ली 96825
हूँ 96617
former 96584
days 96346
सामने 95947
93 95797
need 95787
five 95680
another 95646
आगे 95424
much 94900
go 94785
विकास 94707
पानी 94602
पता 94583
तब 94320
खिलाफ 94228
होते 94110
department 93992
same 93946
meeting 93602
number 93585
आने 93051
जीवन 93021
25 92022
taken 91700
पूरी 90988
second 90947
इसे 90882
group 90843
family 90808
गांव 90779
asked 90707
k 90649
every 90582
based 89974
शहर 89760
too 89666
हमारे 89637
report 89196
kumar 89086
given 88814
held 88748
लाख 88510
ना 88494
जांच 88151
बाहर 87795
जाते 87612
50 87435
security 87267
इसमें 87119
among 87094
रात 86677
water 86663
उनका 86255
जारी 85980
नगर 85978
मे 85605
officials 85567
leader 85564
house 85336
उसने 85182
दूसरे 85136
चार 85000
बजे 84805
market 84786
business 84598
बना 84006
due 83972
media 83783
place 83736
help 83727
man 83560
मंत्री 83479
करीब 83319
मिल 83135
भाजपा 83051
director 83022
18 82881
इसलिए 82651
मैंने 82443
रुपए 82332
स्कूल 82261
issue 82238
महिला 82173
7 81988
official 81987
क्योंकि 81629
दिए 81583
कहना 81503
international 81234
14 81225
पिछले 80919
काफी 80806
वहीं 80765
अनुसार 80591
still 80555
वहां 80532
across 80311
general 80269
16 80162
आदि 80108
8 79939
centre 79917
used 79888
few 79797
* 79791
school 79773
took 79469
यदि 79424
2019 79404
order 79293
right 79242
बड़ी 78775
बनाने 78737
जाए 78713
top 78499
china 78342
मेरी 78324
led 78193
ए 78180
सकती 78178
हजार 78018
lakh 78016
senior 77925
$ 77840
वाला 77499
monday 77492
area 77379
“@@ 77352
सी 77226
health 77200
चल 77166
leaders 76866
बस 76789
going 76773
मन 76737
बच्चों 76692
अ@@ 76339
march 76269
आया 76207
earlier 76164
समाज 76129
published 76056
best 76042
बन 75992
इसका 75929
social 75913
friday 75906
13 75805
different 75793
क्यों 75772
करोड़ 75701
जिला 75577
states 75460
members 75408
जबकि 75195
act 75153
end 75118
कार्यक्रम 75093
आई 74795
यही 74593
don 74447
came 74359
अध्यक्ष 74254
month 74206
उन 74085
each 74062
see 73952
further 73902
secretary 73900
khan 73879
उसका 73870
जिस 73855
17 73684
along 73437
central 73317
found 73221
जगह 73206
बड़े 72932
डॉ 72915
जहां 72911
tuesday 72854
several 72796
परिवार 72735
december 72124
दर्ज 72079
january 71885
हूं 71697
law 71478
e 71449
दिनों 71378
children 71317
लिये 71270
without 71147
wednesday 70993
बंद 70987
own 70880
jammu 70844
want 70713
months 70661
सुबह 70642
elections 70608
thursday 70567
making 70561
union 70531
use 70526
नई 70246
दुनिया 70199
week 70184
called 70130
education 70075
पूरा 69843
24 69729
support 69647
2018 69640
कार्य 69448
तैयार 69417
= 69193
खुद 69080
– 69011
श्री 68815
अलावा 68644
various 68585
growth 68496
रहने 68435
million 68320
u 68314
election 68302
आए 68225
जाना 68221
हाथ 68176
south 68122
कैसे 67950
21 67880
अधिकारी 67868
19 67797
road 67777
आपको 67694
office 67588
seen 67311
got 67293
committee 67191
स्थित 67161
pradesh 67056
left 67024
नही 67006
मुख्यमंत्री 67001
gandhi 66912
money 66801
तुम 66614
june 66408
2017 66332
ऐसी 66276
services 66195
शर्मा 66145
केवल 66111
action 66085
लगे 66053
सिर्फ 66027
व्यक्ति 65995
september 65953
हमें 65929
बैठक 65927
land 65789
assembly 65631
मुख्य 65579
प्रति 65367
पांच 65355
दूर 65313
july 65297
later 65221
मांग 65200
9 65188
know 65166
level 65017
six 64900
रुपये 64841
april 64823
जनता 64793
show 64738
देते 64731
say 64705
why 64555
accused 64363
board 64361
करती 64329
sector 64257
past 64255
statement 64195
0 64182
प्रकार 64158
october 64139
already 64098
100 64044
system 64037
started 63869
special 63826
शिक्षा 63826
sabha 63685
companies 63443
others 63413
नेता 63302
लेने 63087
लगता 63044
जिसमें 62997
look 62990
dr 62948
officer 62938
project 62928
put 62687
कहीं 62661
re@@ 62539
होना 62309
कंपनी 62170
post 62164
un@@ 62120
november 62101
ministry 62085
sunday 62082
संख्या 61950
निर्माण 61869
local 61864
does 61685
far 61655
2014 61582
august 61575
मौत 61548
इसकी 61505
स्थिति 61464
decision 61460
taking 61448
give 61447
राम 61405
february 61399
स@@ 61385
22 61335
देखा 61282
university 61279
away 61236
working 61170
though 60930
areas 60919
must 60901
big 60757
योजना 60372
become 60341
भर 60228
आरोप 60127
play 60109
जाएगी 60038
कहते 60002
saturday 59969
policy 59856
भाई 59833
financial 59788
प्राप्त 59699
major 59621
tax 59599
क@@ 59396
better 59330
won 59199
करके 59167
पिता 59130
सही 59087
मोदी 59013
अस्पताल 58954
capital 58901
मिला 58890
issues 58800
air 58749
नए 58721
40 58531
times 58492
पहली 58469
body 58439
बिना 58426
cases 58389
मेरा 58318
मंदिर 58215
न@@ 58170
गयी 57831
b 57782
global 57748
done 57746
देख 57744
वजह 57743
2016 57740
व्यवस्था 57732
d 57651
within 57580
तहत 57527
घटना 57412
 57329
अच्छा 57284
process 57093
हालांकि 57065
yet 57030
मौके 57030
data 56993
म@@ 56984
बड़ा 56921
food 56864
think 56516
open 56504
रह 56350
run 56345
कोर्ट 56291
p 56251
करेंगे 56237
केंद्र 56166
सुरक्षा 55963
change 55878
important 55787
present 55716
countries 55714
non 55661
industry 55581
punjab 55566
hospital 55397
23 55382
ध्यान 55237
service 55100
information 55090
लगी 55021
रखा 55001
never 54926
रिपोर्ट 54782
आम 54686
सूचना 54543
र@@ 54473
विशेष 54284
2013 54118
start 54085
पूरे 54083
economic 53898
पत्र 53826
कार्रवाई 53681
ः 53592
आधार 53548
तरफ 53417
role 53342
चला 53272
ब@@ 53232
able 53206
men 53146
private 53117
test 53083
कोशिश 52998
foreign 52997
o 52949
26 52918
स्तर 52886
28 52826
सवाल 52731
great 52685
again 52671
cricket 52618
match 52605
मिली 52602
once 52571
जिले 52332
ठीक 52264
सा 52261
सहित 52252
always 52215
अधिकारियों 52190
lot 52169
आ@@ 52166
आपके 52119
बच्चे 52089
स्थान 52037
5@@ 51980
सरकारी 51965
total 51960
actor 51891
यहाँ 51891
following 51813
matter 51656
trump 51612
2015 51559
राष्ट्रीय 51559
j 51472
कार 51459
दूसरी 51396
third 51378
read 51375
बैंक 51371
win 51352
having 51157
गये 51105
चुके 51057
till 51031
sharma 50927
village 50824
मुताबिक 50757
free 50706
saying 50508
खेल 50499
होंगे 50344
soon 50336
series 50328
27 50288
पाकिस्तान 50268
मीडिया 50099
_ 49954
lok 49939
पीछे 49917
मौजूद 49887
शाम 49842
ल@@ 49841
लगभग 49780
army 49764
towards 49653
re 49597
बाजार 49521
9@@ 49423
6@@ 49332
विचार 49295
थीं 49288
fact 49209
near 49198
सेवा 49134
son 49125
technology 49105
लाल 49098
क 49073
expected 49032
less 49001
भाग 48988
उत्तर 48923
move 48873
7@@ 48777
वि@@ 48765
सड़क 48603
went 48498
ई 48393
death 48352
hit 48287
प@@ 48273
final 48258
large 48206
announced 48200
विभिन्न 48058
उसी 48031
नजर 47970
मामला 47914
attack 47884
situation 47857
least 47809
comes 47765
इतना 47736
parties 47735
commission 47694
निगम 47562
k@@ 47527
written 47494
ltd 47479
विरोध 47422
woman 47409
game 47329
justice 47304
मिलने 47303
वालों 47266
management 47233
मदद 47211
सु@@ 47175
control 47154
narendra 47130
west 47128
बनाया 47121
होकर 47099
शादी 47084
प्रमुख 47061
8@@ 47053
plan 47014
visit 46964
चाहते 46839
sources 46775
things 46766
@ 46741
c 46713
तौर 46689
opposition 46666
head 46662
alleged 46545
2012 46501
interest 46487
प्रशासन 46467
recently 46405
News 46358
person 46272
का@@ 46256
decided 46248
killed 46243
side 46192
याद 46084
देर 46050
ago 45997
medical 45924
known 45915
reported 45894
co 45871
keep 45854
महीने 45853
point 45823
member 45817
price 45812
shah 45728
जिससे 45643
रहते 45625
name 45614
love 45571
बल्कि 45525
शायद 45517
higher 45362
चलते 45299
face 45290
war 45232
 45232
arrested 45202
ensure 45199
4@@ 45175
d@@ 45157
community 45143
हमारी 45003
प्रयास 44952
mr 44945
गांधी 44944
अच्छी 44870
human 44781
देखने 44781
goa 44708
यादव 44698
trade 44692
चुकी 44639
provide 44631
demand 44623
प्रधानमंत्री 44590
cost 44583
r 44541
meet 44529
billion 44516
recent 44458
small 44452
29 44432
जवाब 44432
कह 44393
real 44386
despite 44380
मां 44301
बिजली 44264
पत्नी 44242
देना 44227
स 44227
future 44224
त@@ 44178
close 44159
ए@@ 44148
event 44024
हाल 43888
लग 43863
coming 43860
farmers 43857
early 43800
ना@@ 43789
 43753
शिकायत 43711
whether 43709
line 43659
पहुंचे 43493
2009 43455
यात्रा 43374
in@@ 43372
hours 43339
share 43295
पद 43286
night 43275
जिसके 43262
जरूरत 43244
deal 43229
likely 43196
available 43174
station 43171
programme 43141
लिखा 43086
getting 43073
jan 43060
research 43056
सके 43013
2011 43010
म 42986
धर्म 42893
31 42847
north 42826
चर्चा 42799
received 42794
united 42737
rate 42715
महिलाओं 42700
n 42643
कौन 42565
निवासी 42503
region 42350
घंटे 42349
half 42338
lost 42323
chairman 42293
प्रतिशत 42286
forces 42273
रखने 42273
द 42259
प्रदर्शन 42252
college 42181
मगर 42174
समझ 42144
तय 42114
cannot 42105
lead 42097
finance 42093
लगाया 42055
बे@@ 41981
find 41946
ला 41936
age 41893
book 41887
supreme 41767
issued 41745
हत्या 41695
भाषा 41633
society 41568
परीक्षा 41540
sports 41425
जमीन 41378
दिल 41376
full 41375
anti 41374
60 41368
officers 41305
ज@@ 41305
needs 41244
young 41238
समिति 41211
आरोपी 41206
al 41164
आयोजित 41100
कॉलेज 41081
together 41021
ग@@ 41012
form 40967
administration 40965
2010 40889
रोड 40851
देता 40845
ऊपर 40815
पड़ा 40810
economy 40704
आदेश 40586
पति 40534
जिसे 40522
चुका 40518
सचिव 40432
incident 40426
आदमी 40395
continue 40361
story 40359
class 40349
को@@ 40348
force 40345
सोमवार 40330
रहता 40322
नंबर 40263
व@@ 40237
संबंध 40222
strong 40175
rights 40169
उससे 40151
list 40136
र 40130
banks 40088
अमेरिका 39968
let 39955
वापस 39955
बने 39937
period 39887
campaign 39857
cup 39809
hand 39775
‘@@ 39715
clear 39694
term 39622
नीचे 39504
a@@ 39493
study 39466
points 39429
स्वास्थ्य 39339
increase 39334
पहुंच 39323
ahead 39316
fire 39313
कल 39211
ल 39211
फोन 39189
बा@@ 39170
ram 39166
call 39140
e@@ 39113
seats 39054
विश्व 39026
दें 39022
मा@@ 39019
उपलब्ध 38988
scheme 38970
little 38962
जीत 38950
projects 38884
g@@ 38750
investment 38705
मिले 38675
doing 38664
low 38660
workers 38644
देखते 38626
using 38552
t@@ 38510
adding 38498
नी 38478
आते 38448
pay 38446
l 38445
bring 38433
srinagar 38406
behind 38397
2008 38383
१ 38378
seven 38362
₹ 38300
youth 38275
father 38211
authorities 38196
उपयोग 38174
video 38165
almost 38125
लगातार 38116
building 38114
ता 38076
season 37984
com 37976
prices 37973
something 37954
शुक्रवार 37937
reports 37924
s@@ 37891
बिहार 37886
जान 37842
रि@@ 37779
मुंबई 37732
current 37715
claimed 37627
looking 37622
आता 37606
इस्तेमाल 37593
बढ़ 37567
शनिवार 37544
रा 37525
समस्या 37508
हिंदी 37448
child 37420
नि@@ 37411
त 37388
g 37356
front 37326
late 37315
रविवार 37308
माध्यम 37303
polls 37266
space 37253
ali 37209
वक्त 37194
भगवान 37150
मैच 37100
schools 37096
मंगलवार 37089
अवसर 37088
online 37081
माना 37039
आपकी 37029
वैसे 37004
played 36970
छोटे 36962
पी 36956
key 36920
muslim 36896
सा@@ 36866
बुधवार 36755
पाया 36733
पा@@ 36715
वर्ग 36700
outside 36647
budget 36634
कुल 36629
के@@ 36622
released 36601
launched 36584
oil 36496
release 36475
कहानी 36475
n@@ 36425
maharashtra 36398
an@@ 36392
वही 36347
गिरफ्तार 36311
विधायक 36276
b@@ 36231
bill 36207
besides 36162
gt 36084
o@@ 36069
rahul 36061
थाना 36003
हिन्दी 36001
might 35979
आयोजन 35928
किस 35922
बोर्ड 35899
विधानसभा 35895
films 35877
हों 35867
देवी 35785
प्रेम 35785
वा@@ 35782
directed 35767
pti 35703
candidates 35614
ती 35598
हमेशा 35582
kapoor 35579
players 35579
music 35564
al@@ 35507
ताकि 35492
course 35481
रा@@ 35455
टी 35441
नया 35422
ground 35408
ता@@ 35408
रन 35408
छात्रों 35396
really 35384
funds 35381
प्रयोग 35369
कानून 35368
u@@ 35359
राज 35336
राशि 35259
पेश 35258
history 35255
छोड़ 35243
performance 35223
सदस्य 35190
trying 35186
बावजूद 35138
ar@@ 35126
राजनीतिक 35126
य 35077
छात्र 35062
कराने 35054
रंग 35052
ला@@ 35050
i@@ 35048
results 35034
de@@ 35016
उ@@ 35005
p@@ 34970
question 34909
द@@ 34909
sent 34880
brought 34877
charge 34872
ever 34869
पा 34854
छह 34853
y@@ 34822
especially 34787
खान 34787
nation 34770
ऑफ 34740
अभियान 34732
शरीर 34728
v 34681
mother 34680
feel 34641
problem 34519
कविता 34483
विषय 34481
plans 34465
girl 34430
association 34422
जन्म 34397
निर्देश 34393
politics 34344
जेल 34340
प्यार 34301
star 34256
35 34190
main 34172
works 34163
लाभ 34135
poor 34131
सं@@ 34123
defence 34118
हमने 34109
live 34046
met 34036
quality 34014
जल 33953
बता 33950
wife 33940
संघ 33920
इ@@ 33891
council 33814
twitter 33799
सी@@ 33797
चीन 33776
persons 33773
राजनीति 33746
बेहतर 33745
informed 33735
short 33695
साफ 33690
registered 33686
मार्च 33684
कु@@ 33671
इंडिया 33637
लगाने 33635
ह@@ 33634
री 33612
युवक 33594
possible 33573
view 33560
conference 33463
violence 33451
बनी 33451
बनाए 33434
aug 33412
dec 33411
शब्द 33298
बयान 33258
fund 33246
car 33217
deputy 33213
gujarat 33197
job 33160
70 33155
महत्वपूर्ण 33150
कराया 33143
दस 33137
18@@ 33129
सात 33115
फैसला 33081
च@@ 33055
ट@@ 33048
commissioner 33032
माह 33029
m@@ 33017
filed 33014
governor 32988
दल 32969
डा 32957
section 32954
बी 32933
art 32925
नेताओं 32922
किसानों 32919
पोस्ट 32913
press 32869
सामाजिक 32848
sa@@ 32843
runs 32804
cm 32788
gold 32709
हिस्सा 32703
२ 32682
सि@@ 32641
experience 32637
j@@ 32562
feb 32527
enough 32506
nov 32476
investigation 32463
मोबाइल 32451
प्रदान 32441
c@@ 32432
return 32423
training 32414
लड़की 32375
often 32364
स्थानीय 32345
करे 32341
bollywood 32337
देशों 32301
entire 32281
z@@ 32266
डी 32261
gave 32254
सेना 32249
पड़ 32238
haryana 32141
प्रक्रिया 32128
जाएंगे 32105
eight 32081
income 32075
products 31991
सारे 31984
h@@ 31980
related 31968
markets 31962
कमी 31941
13@@ 31919
v@@ 31898
agency 31895
जल्द 31879
कार्यालय 31873
वन 31870
देकर 31855
parliament 31821
उनसे 31790
इतनी 31751
latest 31736
आर्थिक 31732
playing 31730
3@@ 31713
जैसी 31694
single 31690
yadav 31676
account 31674
record 31666
बेटी 31641
भाव 31631
wanted 31626
रेलवे 31606
de 31601
leading 31598
hard 31592
energy 31583
अगले 31582
traffic 31517
लेते 31489
meanwhile 31449
रे@@ 31378
500 31364
executive 31343
संगठन 31336
आपने 31335
efforts 31321
huge 31285
जनवरी 31271
उम्मीद 31222
ं@@ 31220
result 31191
जमा 31188
date 31144
80 31140
बि@@ 31103
हासिल 31071
hold 31051
भारी 31046
फीसदी 31004
रहती 30911
अंदर 30906
ed 30901
पक्ष 30897
league 30895
construction 30752
जरूरी 30724
आती 30692
पहचान 30692
चाहता 30687
ड@@ 30633
phone 30612
200 30592
makes 30581
mp 30577
cut 30533
infrastructure 30510
oct 30497
protest 30488
create 30470
ra@@ 30467
युवा 30448
सोच 30428
उम्र 30404
forward 30392
launch 30385
red 30333
nearly 30321
वहाँ 30305
कदम 30302
जन 30299
chinese 30296
ड 30285
ओ@@ 30276
दिखाई 30266
मि@@ 30252
मई 30247
आग 30237
additional 30233
focus 30218
raised 30197
खर्च 30192
mobile 30167
ट 30140
giving 30123
पंजाब 30117
संबंधित 30117
ग्राम 30092
instead 30090
nothing 30084
ve 30080
निर्णय 30078
पैदा 30073
employees 30058
stand 30055
military 30047
r@@ 30020
problems 29999
parents 29982
गंभीर 29970
didn 29901
खबर 29884
बाबा 29863
राहुल 29837
australia 29816
vice 29766
revenue 29757
अंतिम 29724
ते 29704
talks 29703
jul 29700
quarter 29698
निजी 29677
investors 29629
er 29593
पंचायत 29584
बातें 29568
provided 29542
production 29532
morning 29527
staff 29519
बनने 29501
मु@@ 29484
failed 29477
comments 29470
राय 29459
क्रिकेट 29454
समर्थन 29452
माता 29451
य@@ 29450
l@@ 29418
border 29372
am@@ 29370
उच्च 29349
currently 29328
जा@@ 29306
सीमा 29278
प्रसाद 29223
जैसा 29216
include 29206
ज्ञान 29203
rural 29185
session 29060
loss 29044
peace 29042
पूजा 29041
यानी 29040
saw 29036
y 29028
vehicles 29008
basis 28997
speaking 28948
h 28934
+ 28916
sep 28897
उसमें 28852
मान 28845
ha@@ 28829
अधिकार 28825
तभी 28816
vote 28802
cbi 28796
lives 28781
भूमिका 28779
amount 28765
games 28753
प्रकाश 28741
terms 28692
बातचीत 28675
कर्मचारियों 28670
क्षेत्रों 28623
tv 28622
गलत 28622
पैसे 28612
offer 28595
remain 28571
activities 28563
आयोग 28555
ई@@ 28543
light 28514
self 28509
लागू 28497
impact 28496
स्वयं 28488
worth 28483
पुत्र 28459
institute 28449
black 28447
rs@@ 28422
जाकर 28414
मार्ग 28408
whose 28391
personal 28370
firm 28368
धीरे 28358
खास 28323
involved 28312
student 28305
common 28296
field 28283
गीत 28277
previous 28271
समेत 28270
ball 28251
idea 28239
पहला 28235
bengal 28220
stage 28220
east 28204
movement 28190
सच 28190
जून 28175
sales 28171
चले 28160
affairs 28119
सम्मान 28119
step 28102
मे@@ 28084
तेज 28079
largest 28066
ले@@ 28064
f@@ 28062
मिनट 28033
risk 28022
kind 28006
घोषणा 27986
इनमें 27981
ज 27975
watch 27967
घायल 27965
injured 27957
राष्ट्रपति 27956
shows 27955
believe 27953
biggest 27947
views 27947
care 27923
position 27922
places 27920
reason 27881
लें 27853
similar 27852
इतिहास 27835
stop 27822
दर 27820
himself 27805
environment 27792
followed 27775
बारिश 27768
प्र@@ 27758
conducted 27756
town 27731
pressure 27716
lower 27688
खत्म 27685
जुलाई 27672
मार 27661
candidate 27651
shared 27639
muslims 27626
अगस्त 27592
आपका 27581
कही 27580
अप्रैल 27543
address 27526
express 27511
माँ 27501
अदालत 27499
समारोह 27485
joint 27472
गुरुवार 27450
american 27449
response 27433
15@@ 27426
45 27415
श@@ 27387
leadership 27370
sought 27363
reach 27359
groups 27349
alliance 27339
लो 27330
आठ 27324
मो@@ 27318
white 27303
स्टेशन 27297
cabinet 27287
domestic 27267
means 27242
स्@@ 27201
parts 27179
allegedly 27175
बदल 27147
प्रधान 27143
जिन 27140
पसंद 27128
mla 27126
civil 27117
jun 27057
ने@@ 27057
प्रवेश 27051
details 27019
10@@ 26983
increased 26975
tamil 26928
aap 26902
allowed 26899
भीतर 26884
मत 26879
वाहन 26869
festival 26860
रख 26859
प्रभावित 26851
लाइन 26806
लि@@ 26802
हमारा 26780
concerned 26765
rules 26734
बाल 26712
cash 26692
shot 26692
दूसरा 26689
पड़ता 26688
इलाज 26669
किये 26669
गो@@ 26667
वर्तमान 26660
mind 26649
12@@ 26622
सारी 26601
शक्ति 26598
f 26578
itself 26578
movie 26561
पूर्ण 26544
supply 26528
unit 26512
14@@ 26507
turned 26501
doesn 26486
दा@@ 26482
16@@ 26469
रे 26457
karnataka 26440
cities 26430
spot 26418
विश्वास 26418
Latest 26396
became 26389
difficult 26355
gets 26350
fight 26309
corporation 26304
happy 26300
दोपहर 26256
treatment 26204
रो@@ 26198
ministers 26180
hope 26160
letter 26156
राजस्थान 26139
सौ 26138
भवन 26137
died 26126
से@@ 26112
value 26107
90 26088
either 26079
वा 26050
देती 26047
couple 26035
पि@@ 26033
सुविधा 26020
जुड़े 25994
bihar 25975
सामान्य 25965
इलाके 25937
जागरण 25934
बेटे 25916
सर 25916
तरीके 25910
turn 25890
friends 25880
legal 25839
17@@ 25791
करेगा 25789
occasion 25788
uttar 25774
० 25765
फ@@ 25754
कर्मचारी 25742
population 25731
दिसंबर 25721
certain 25717
पी@@ 25712
heart 25710
बल 25671
kerala 25654
rise 25649
shares 25634
शुरुआत 25626
above 25622
photo 25619
2007 25615
paid 25614
created 25608
पूछा 25569
authority 25568
living 25559
0@@ 25554
धन 25553
ओ 25537
छोटी 25535
seeking 25511
rather 25485
safety 25471
model 25464
award 25448
thing 25414
विश्वविद्यालय 25413
forest 25404
england 25399
आंदोलन 25388
जहाँ 25367
measures 25363
began 25313
ग्रामीण 25298
wants 25290
राजा 25290
mar 25285
प्रबंधन 25262
इनके 25256
rates 25220
एस 25215
ti@@ 25193
daughter 25153
ख@@ 25150
साहित्य 25138
संयुक्त 25133
पे@@ 25130
ka 25122
check 25114
seat 25110
रोक 25105
success 25103
न्@@ 25099
प्रस्ताव 25089
districts 25086
cause 25076
gone 25076
apr 25067
source 25061
round 25054
inside 25052
railway 25042
w@@ 25042
status 25002
बैठे 24992
साहब 24984
organised 24979
अच्छे 24942
2020 24933
भर्ती 24919
leave 24914
review 24913
नदी 24892
temple 24882
किसान 24881
निकल 24856
growing 24836
wrote 24832
required 24829
डि@@ 24828
annual 24821
limited 24811
asia 24770
credit 24756
passed 24744
seems 24742
stated 24724
विज्ञान 24724
भ्रष्टाचार 24706
rbi 24697
popular 24696
लो@@ 24692
urban 24691
महा@@ 24678
बेहद 24677
minutes 24674
note 24670
airport 24666
room 24647
सभा 24628
takes 24607
raj 24605
identified 24579
stay 24567
london 24561
सूची 24537
खाने 24536
जी@@ 24532
स्पष्ट 24517
नेतृत्व 24516
mark 24513
crime 24497
bad 24495
nagar 24481
complete 24477
kept 24461
कमेटी 24447
मिलता 24425
मा 24424
देखकर 24418
ब्लॉग 24413
वी 24357
apart 24353
चाहे 24341
नवंबर 24337
अतिरिक्त 24319
2@@ 24284
लेना 24279
serious 24278
थाने 24269
हालत 24241
middle 24209
upon 24208
stock 24193
personnel 24182
बी@@ 24146
32 24102
ready 24091
वरिष्ठ 24091
सहयोग 24076
tried 24069
11@@ 24057
proposed 24057
प्रथम 24054
भविष्य 24054
net 24052
भ@@ 24036
evening 24035
operations 24031
corruption 24014
as@@ 23999
culture 23994
हा@@ 23948
sri 23938
खड़े 23926
club 23924
वे@@ 23890
जैन 23878
विवाद 23876
heavy 23870
affected 23856
अक्टूबर 23852
everyone 23838
सत्ता 23836
un 23815
quite 23810
complaint 23803
कार्ड 23803
ya 23792
मैदान 23792
भूमि 23787
bench 23758
बो@@ 23754
charges 23745
साबित 23731
le@@ 23729
highest 23726
रहेगा 23721
केस 23717
km 23698
target 23698
reached 23694
तैयारी 23689
career 23681
लोक 23652
बाकी 23645
sure 23637
daily 23625
conditions 23595
citizens 23583
probe 23583
teachers 23570
planning 23564
केंद्रीय 23563
लेख 23563
मूल 23559
ch@@ 23547
families 23525
सो@@ 23519
मौसम 23517
la@@ 23510
govt 23481
पुर 23464
मुश्किल 23461
दौर 23440
मतलब 23364
जे@@ 23337
thought 23318
roads 23309
दिवस 23307
या@@ 23300
girls 23298
su@@ 23294
प 23288
try 23282
जिसका 23279
range 23275
ट्रेन 23269
गुरु 23259
शराब 23246
सफल 23231
science 23225
hindu 23215
इतने 23210
अनुभव 23205
आसपास 23192
ro@@ 23168
dead 23167
डर 23150
ruling 23149
nine 23142
agencies 23133
percent 23105
रखी 23100
सो 23095
x 23078
प्रभाव 23074
उपस्थित 23062
सांसद 23056
विजय 23033
गुजरात 23020
असर 22986
rao 22978
until 22975
en@@ 22973
opportunity 22963
themselves 22962
दिशा 22959
अंक 22935
तेजी 22928
ban 22923
संजय 22905
पहुंची 22892
ं 22885
टेस्ट 22847
votes 22832
चोरी 22823
valley 22816
व्यापार 22811
digital 22800
winning 22799
worked 22778
travel 22756
declared 22746
स्थापित 22746
fresh 22730
levels 22723
ar 22712
majority 22712
मानव 22701
फरवरी 22695
टि@@ 22694
संगीत 22674
british 22667
hands 22648
gupta 22640
jail 22625
captain 22607
challenge 22605
fast 22594
users 22592
rest 22579
अनेक 22573
शासन 22570
religious 22541
इन्हें 22527
fiscal 22526
facebook 22525
गुप्ता 22525
नुकसान 22525
भीड़ 22520
access 22519
hour 22509
सिर 22508
residents 22503
फोटो 22499
भेजा 22497
परेशान 22488
काल 22481
20@@ 22471
man@@ 22469
वोट 22466
मौका 22455
स् 22440
आर 22423
dis@@ 22411
ki 22409
mo@@ 22408
पड़े 22408
तमाम 22370
कंपनियों 22365
es 22362
compared 22358
खराब 22357
पाने 22350
talking 22344
ab@@ 22331
पड़ी 22313
rule 22302
लाने 22284
needed 22277
चली 22277
करनी 22253
chandigarh 22237
कृषि 22227
परिषद 22215
सफाई 22211
terror 22203
strike 22197
शव 22190
300 22171
सजा 22168
talk 22153
संस्कृति 22152
jobs 22139
remains 22135
weeks 22117
drive 22087
kar 22071
23@@ 22042
indians 22042
देंगे 22040
दक्षिण 22038
हरियाणा 22021
प्रस्तुत 22009
constituency 22007
di@@ 21985
presence 21982
जानते 21960
नौकरी 21954
changes 21953
बनाई 21952
scheduled 21916
कीमत 21896
कला 21868
कश्मीर 21859
crisis 21855
uk 21843
कितना 21838
potential 21829
सदस्यों 21828
anything 21816
टीवी 21811
expressed 21793
victim 21787
steps 21782
बताते 21774
lack 21772
दावा 21762
sc 21748
हार 21732
सप्ताह 21718
regional 21717
ani 21715
gst 21711
आवेदन 21704
be@@ 21701
running 21690
विदेशी 21679
परिवर्तन 21669
kolkata 21668
75 21647
hindi 21643
प्रत्येक 21641
understand 21639
sena 21628
average 21624
राजधानी 21623
कब 21612
constitution 21584
आकर 21584
allow 21580
units 21573
टे@@ 21568
पुराने 21564
everything 21554
goes 21531
डिग्री 21517
उनको 21513
आनंद 21512
institutions 21510
ma@@ 21510
whole 21505
attacks 21501
tata 21493
मंत्रालय 21488
questions 21480
हमले 21442
apple 21440
internet 21437
vehicle 21437
गाड़ी 21418
अर्थ 21406
ब 21404
सुधार 21385
murder 21373
बजट 21370
मेडिकल 21369
र्@@ 21345
doctors 21341
दर्द 21333
वीडियो 21325
approach 21324
होटल 21306
पैसा 21274
train 21268
rajasthan 21241
etc 21236
स्कूलों 21234
कहने 21227
brand 21214
ing 21210
deep 21208
victory 21175
par@@ 21174
खड़ा 21168
pro 21164
महसूस 21123
दर्शन 21119
houses 21098
ति@@ 21085
दुकान 21068
प्रतियोगिता 21064
operation 21017
पुरुष 20991
मंडल 20973
ended 20953
exchange 20950
मंच 20943
rally 20942
डॉक्टर 20937
insurance 20928
finally 20926
immediately 20913
ह 20911
kohli 20896
परिणाम 20890
judge 20881
teams 20858
ate 20845
बदलाव 20842
poll 20840
कि@@ 20836
opening 20829
trust 20823
करा 20821
स्वीकार 20803
condition 20796
illegal 20794
संवाददाता 20780
एंड 20777
considered 20756
mission 20753
corporate 20743
sale 20741
claims 20716
सामान 20714
natural 20711
उठा 20687
showed 20677
सिटी 20675
संभव 20672
transport 20670
har@@ 20669
hearing 20660
sp 20653
da 20652
picture 20642
उधर 20637
green 20630
break 20629
relationship 20621
अमेरिकी 20620
google 20615
नरेंद्र 20612
true 20609
er@@ 20606
patients 20605
पार 20599
दा 20571
रास्ते 20563
अचानक 20561
राम@@ 20546
कमरे 20541
positive 20539
odisha 20535
प्रकाशित 20533
मात्र 20532
अंत 20531
हे 20526
राज्यों 20523
अध्ययन 20521
numbers 20520
नीति 20515
चा@@ 20513
अंग्रेजी 20496
जयपुर 20496
sense 20493
se@@ 20490
अशोक 20488
facilities 20479
relief 20463
freedom 20424
language 20413
33 20406
posted 20405
article 20387
जल्दी 20366
बीजेपी 20358
आये 20354
खाना 20353
addressing 20348
मध्य 20344
जरूर 20343
रू@@ 20343
चौधरी 20341
li@@ 20329
tourism 20327
iran 20325
आखिर 20319
asian 20316
हमला 20310
गा@@ 20309
पुरस्कार 20307
प्रभारी 20300
रखते 20294
वर्षों 20293
although 20280
bangladesh 20279
ways 20278
husband 20253
platform 20250
ad@@ 20243
hyderabad 20236
संघर्ष 20236
protests 20218
मामलों 20212
message 20210
खिलाड़ी 20204
री@@ 20196
network 20179
` 20159
मिलेगा 20138
capacity 20137
जाये 20134
named 20132
पे 20124
टी@@ 20116
continued 20108
करेगी 20092
agreement 20081
joined 20057
ो 20050
helped 20048
experts 20040
holding 20034
welfare 20034
लगाए 20033
assets 20031
build 20027
providing 20011
function 20010
Hindi 20000
जिंदगी 19996
जरिए 19993
property 19989
pune 19980
चाहती 19975
कितने 19973
श 19950
voters 19934
शा@@ 19923
भेज 19920
claim 19916
सफलता 19913
keeping 19905
blood 19903
notice 19876
at@@ 19870
africa 19861
करो 19857
आवाज 19851
चलने 19845
fashion 19844
customers 19832
ers 19820
changed 19813
happened 19811
chennai 19808
goal 19782
मकान 19779
debt 19740
q@@ 19738
36 19736
टिकट 19735
file 19731
प्रश्न 19731
सहायता 19708
base 19700
gas 19700
bus 19699
site 19696
carried 19693
significant 19692
ceo 19669
तेल 19660
direct 19646
पर@@ 19634
attention 19629
included 19626
bengaluru 19619
facing 19607
आवश्यकता 19600
competition 19572
बिल 19545
शो 19537
गु@@ 19529
easy 19528
fourth 19511
x@@ 19498
ग 19498
बनाकर 19498
न्यायालय 19496
patel 19490
phase 19481
mid 19471
principal 19464
survey 19462
योग 19460
पो@@ 19452
actress 19442
जाति 19438
परिजनों 19437
आवश्यक 19436
completed 19407
municipal 19407
३ 19384
moved 19368
ba@@ 19367
विकेट 19355
रेल 19354
लक्ष्य 19353
agriculture 19346
जोर 19346
राहत 19341
हो@@ 19341
schemes 19327
पटना 19327
भले 19327
बाइक 19324
villages 19320
घोषित 19317
bodies 19314
कहां 19309
remained 19307
समाप्त 19304
समाचार 19298
river 19276
सामना 19273
events 19247
fell 19236
example 19235
सन 19232
ts 19217
सितंबर 19214
समूह 19212
स्वागत 19207
मिलकर 19196
english 19194
player 19194
moment 19172
organisation 19171
card 19170
cover 19170
उनमें 19169
industrial 19161
मुक्त 19156
football 19146
पाए 19135
reasons 19133
improve 19130
प्रशिक्षण 19129
डे 19125
looks 19122
commercial 19113
vs 19111
killing 19105
built 19104
देव 19084
fall 19076
nuclear 19073
wrong 19072
खा@@ 19068
तू 19060
is@@ 19051
सीधे 19050
उत्पादन 19045
विवाह 19036
है@@ 19034
western 19033
जि@@ 19029
संपर्क 19026
दबाव 19023
दरअसल 19020
दु@@ 19019
ध@@ 19017
पहुंचा 18994
मतदान 18989
आरोपियों 18982
upcoming 18980
लोकसभा 18959
ating 18955
plant 18952
regarding 18952
fans 18946
developed 18927
beyond 18921
existing 18920
क्षमता 18911
hai 18907
अग्रवाल 18901
pakistani 18898
रों 18896
effect 18889
opened 18884
मजबूत 18882
bar@@ 18881
nations 18880
1@@ 18876
concern 18872
चलता 18862
2006 18861
managed 18856
ंग 18844
अथवा 18820
संसद 18799
demanded 18792
दोस्त 18790
design 18787
st 18782
संस्थान 18774
ta 18763
generation 18762
buy 18758
फिल्मों 18758
books 18757
evidence 18755
port 18755
words 18753
paper 18750
स्वामी 18750
34 18747
55 18746
मुद्दे 18746
पाई 18739
अक्सर 18737
nadu 18721
विदेश 18708
रक्षा 18706
brother 18705
nature 18705
खूब 18702
loan 18699
proposal 18692
arrest 18681
0.@@ 18678
tell 18675
protection 18668
steel 18659
app 18638
spread 18638
mar@@ 18629
हवा 18616
sub 18613
someone 18600
कितनी 18600
kejriwal 18597
48 18592
डा@@ 18591
sha@@ 18579
प्रचार 18573
prasad 18565
park 18562
coach 18558
ji 18558
शांति 18554
पूछताछ 18546
वर्मा 18539
रखे 18538
शिक्षक 18536
भोपाल 18527
janata 18524
संभावना 18516
traditional 18511
परेशानी 18506
decades 18490
ज़ 18486
camp 18485
follow 18475
भोजन 18475
नियम 18472
जिसकी 18463
tournament 18458
resident 18453
screen 18445
कवि 18442
committed 18438
अवैध 18435
सालों 18422
बु@@ 18420
हेतु 18419
character 18417
फिलहाल 18415
ak@@ 18410
governments 18383
website 18381
1.@@ 18379
therefore 18377
क्@@ 18365
track 18355
conduct 18353
duty 18343
th@@ 18340
चि@@ 18338
बढ़ाने 18336
हि@@ 18334
pre 18331
actually 18328
pur 18328
co@@ 18323
तीनों 18323
loans 18315
terrorism 18315
appointed 18297
assam 18297
गंगा 18294
century 18291
तलाश 18291
amit 18271
offered 18271
पाल 18256
पु@@ 18254
दास 18253
सीएम 18253
ms 18249
independent 18236
टिप्पणी 18232
2.@@ 18230
visited 18228
मीटर 18226
धारा 18225
चिंता 18219
japan 18209
benefit 18203
लेखक 18203
ri@@ 18193
category 18180
खाली 18171
mint 18163
russia 18161
कहाँ 18160
मी 18160
नौ 18158
calls 18153
S@@ 18121
foundation 18118
on@@ 18111
recorded 18100
york 18098
to@@ 18093
मनुष्य 18089
necessary 18081
thus 18075
mlas 18072
मै@@ 18065
accounts 18062
पार्क 18050
block 18039
se 18031
इनकी 18026
washington 18005
मुस्लिम 18003
audience 17997
pollution 17987
names 17986
जन@@ 17985
डाल 17985
resources 17979
ऑनलाइन 17973
संस्था 17965
la 17951
इधर 17938
industries 17934
spokesperson 17933
रास्ता 17932
५ 17926
65 17914
intelligence 17912
minute 17906
image 17904
product 17901
greater 17898
रु@@ 17885
नी@@ 17869
अनुमति 17852
400 17850
विकसित 17846
consumer 17827
ली@@ 17823
managing 17818
raise 17818
felt 17811
madhya 17806
overall 17796
समीक्षा 17790
revealed 17783
join 17777
स्थल 17774
अंतरराष्ट्रीय 17763
सुनवाई 17755
strategy 17753
responsibility 17748
me@@ 17739
दे@@ 17735
हाथों 17734
profit 17725
setting 17725
शिकार 17725
code 17716
पल 17713
कृष्ण 17703
progress 17685
रैली 17681
शब्दों 17673
वर 17668
रोग 17659
panel 17656
निदेशक 17650
interview 17640
song 17639
chance 17629
युद्ध 17622
फैसले 17618
उद्योग 17609
कड़ी 17602
उप@@ 17588
चरण 17568
सूत्रों 17564
19@@ 17555
go@@ 17548
bharat 17527
attempt 17523
dance 17523
speech 17496
victims 17489
सत्र 17488
reporters 17477
democratic 17468
confidence 17451
division 17439
forced 17433
respect 17432
ni@@ 17428
ke 17421
hotel 17403
application 17400
सार्वजनिक 17398
डॉलर 17353
militants 17337
lo@@ 17336
lal 17330
criminal 17326
particularly 17319
awareness 17313
नों 17305
रखना 17298
lt 17293
छ@@ 17279
वर्षीय 17279
benefits 17278
bit 17277
मै 17274
राष्ट्र 17274
responsible 17261
सुरक्षित 17260
alone 17251
चालक 17247
concerns 17235
ated 17233
clean 17229
टन 17222
ask 17217
25@@ 17212
pe@@ 17210
sanjay 17210
fully 17180
सम्मेलन 17175
एम 17173
150 17158
shall 17155
camera 17153
si@@ 17150
जिन्हें 17146
title 17144
रोज 17142
चौक 17136
ag@@ 17119
im@@ 17113
lines 17111
implementation 17070
बोले 17066
लगने 17060
na@@ 17048
missing 17042
नो@@ 17042
वार्ड 17038
friend 17035
gives 17024
डी@@ 17016
स्थापना 17006
tech 16984
42 16980
परिसर 16980
भुगतान 16974
basic 16972
exercise 16969
spent 16966
equity 16960
box 16944
शिव 16942
एसपी 16936
stories 16935
कार्यकर्ताओं 16934
रहना 16926
आधारित 16921
लगाई 16921
collection 16920
individual 16920
elected 16915
resolution 16902
das 16898
drug 16897
केन्द्र 16893
faced 16883
kar@@ 16883
भा@@ 16880
boy 16879
बातों 16872
् 16867
मालिक 16866
लखनऊ 16856
बढ़ा 16854
modern 16828
threat 16828
ग्रामीणों 16822
वृद्धि 16822
goods 16817
चिकित्सा 16816
विद्यालय 16814
es@@ 16801
increasing 16795
cross 16786
cultural 16783
manager 16783
style 16778
cancer 16777
le 16777
रचना 16769
content 16763
चयन 16763
rape 16762
जिम्मेदारी 16762
{ 16754
king 16751
खुशी 16729
submitted 16726
demands 16725
laws 16724
thousands 16717
anyone 16696
orders 16682
आसान 16676
successful 16675
सिस्टम 16675
राज@@ 16665
bo@@ 16632
दि@@ 16628
थोड़ा 16627
commerce 16624
38 16622
खुश 16615
तुरंत 16613
विस्तार 16611
firms 16606
employment 16594
reduce 16590
regular 16573
जो@@ 16566
born 16565
kg 16563
connection 16560
features 16557
यू@@ 16553
search 16550
सीट 16539
do@@ 16537
गाँव 16537
भूल 16536
allegations 16521
24@@ 16520
यों 16514
सर@@ 16514
आना 16506
perhaps 16501
जु@@ 16501
voice 16494
add 16472
टैक्स 16468
2005 16467
ap@@ 16467
कर@@ 16463
ad 16462
हाउस 16461
massive 16453
बहन 16446
मिलती 16444
समान 16440
सवार 16429
european 16428
सामग्री 16424
spoke 16419
रो 16412
banking 16409
तुलना 16405
रिया 16402
ties 16395
jharkhand 16393
sold 16384
सेंटर 16381
founder 16372
creating 16370
पढ़ाई 16369
देखें 16361
अनिल 16360
ठाकुर 16360
vijay 16338
afghanistan 16337
headed 16313
डे@@ 16313
पकड़ 16307
हाँ 16294
waste 16283
separate 16280
विरोधी 16271
ऊर्जा 16270
धार्मिक 16270
grand 16267
टा@@ 16254
वाद 16253
ones 16251
दूध 16242
रहेगी 16232
scored 16229
super 16218
संदेश 16199
initiative 16172
संवाद 16158
salman 16150
सुप्रीम 16137
चु@@ 16135
थोड़ी 16135
matches 16130
closed 16117
petition 16108
घरों 16099
पुरानी 16099
offers 16098
सेक्टर 16076
posts 16074
relations 16072
ongoing 16066
he@@ 16065
san@@ 16064
रोकने 16062
खोज 16060
manner 16059
इंटरनेट 16050
दृष्टि 16046
attended 16043
महान 16041
शेयर 16041
mu@@ 16035
पत्रकार 16035
ting 16034
carry 16025
कराई 16024
क् 16022
sh@@ 16017
agreed 16012
फायदा 16009
vi@@ 16004
longer 15997
partner 15992
मित्र 15988
लंबे 15988
below 15987
शि@@ 15986
fine 15982
starting 15970
फ़िल्म 15962
सका 15962
rich 15960
knowledge 15954
particular 15953
signed 15942
जाम 15939
हे@@ 15939
dal 15926
अन्ना 15921
निर्धारित 15920
चारों 15918
गरीब 15915
तुम्हारे 15888
effort 15886
safe 15880
battle 15879
37 15875
practice 15873
जायेगा 15871
उदाहरण 15866
it@@ 15863
journey 15863
ओं 15861
sea 15859
na 15849
ll 15848
reserve 15848
rose 15846
वित्त 15839
स्त्री 15836
26@@ 15830
asking 15830
hi 15819
respectively 15818
en 15803
st@@ 15801
गईं 15801
effective 15794
ko@@ 15794
or@@ 15789
निकाल 15785
गैस 15783
निवेश 15781
street 15778
learning 15776
ipl 15775
mishra 15772
हाईकोर्ट 15767
cha@@ 15761
costs 15758
disease 15756
ra 15756
माहौल 15749
अपराध 15742
जिनमें 15742
30@@ 15735
फा@@ 15731
retail 15718
सारा 15714
मारे 15710
inflation 15708
हिसाब 15701
complex 15700
गोली 15699
donald 15694
तैनात 15688
थ@@ 15683
बजाय 15683
सुख 15683
approved 15682
save 15681
मानते 15679
coal 15677
lanka 15677
मानना 15668
reality 15662
looked 15661
सहायक 15657
शिविर 15655
ly 15651
रहेंगे 15651
बै@@ 15643
टो@@ 15637
beat 15624
चंद 15623
ai 15618
degree 15618
democracy 15614
• 15605
housing 15594
मुकाबले 15591
क्लिक 15585
suicide 15579
09 15576
labour 15576
ram@@ 15576
policies 15568
उद्देश्य 15561
normal 15559
हा 15557
choice 15541
examination 15537
उचित 15533
मुलाकात 15515
राजेश 15515
क्लब 15514
इं@@ 15508
व्यवहार 15501
अपील 15485
मूल्य 15485
गृह 15480
stake 15479
sexual 15473
colleges 15465
नेशनल 15465
critical 15460
continues 15457
बोला 15457
amid 15451
stars 15449
z 15433
४ 15429
हालात 15427
नियंत्रण 15425
झारखंड 15408
पश्चिम 15401
seek 15397
बचाने 15397
fair 15394
ability 15393
pass 15390
वेबसाइट 15388
गैर 15387
produced 15383
सड़कों 15383
बधाई 15380
कपूर 15378
लगती 15378
किलोमीटर 15372
fear 15362
sell 15361
2004 15348
बोल 15339
ें 15334
rising 15331
includes 15315
ac@@ 15314
driver 15304
युवाओं 15304
इंतजार 15300
44 15292
regard 15285
होनी 15268
entry 15264
pa@@ 15260
गत 15258
2000 15237
minimum 15234
भरा 15221
े@@ 15217
urged 15214
चीनी 15213
documents 15211
maximum 15205
smart 15203
ho@@ 15197
चेहरे 15194
वी@@ 15190
वें 15183
index 15182
लिख 15173
strength 15171
27@@ 15169
हां 15166
अजय 15161
कथा 15155
contest 15154
छत्तीसगढ़ 15148
टा 15146
अंतर 15143
मंडी 15141
da@@ 15126
सचिन 15125
समस्याओं 15124
introduced 15115
उठाया 15106
engineering 15094
की@@ 15081
लगाकर 15078
1,@@ 15076
दम 15075
फि@@ 15068
मृत्यु 15066
भास्कर 15063
समाधान 15062
television 15056
aware 15047
spokesman 15044
ते@@ 15042
climate 15036
islamic 15035
तीसरे 15035
display 15027
double 15011
ates 15010
multiple 15002
कै@@ 15002
नज़र 14997
tour 14990
completely 14989
पालन 14984
बीमारी 14981
caste 14972
लों 14970
परि@@ 14968
eye 14965
बरामद 14964
flight 14946
ahmad 14929
नो 14923
मिलते 14922
गति 14917
happen 14916
39 14912
याचिका 14911
centres 14909
05 14903
scale 14893
फल 14892
technical 14888
subject 14884
पड़ेगा 14879
पाते 14878
investments 14873
किताब 14871
manufacturing 14868
ir@@ 14865
shiv 14861
शिक्षकों 14859
expect 14857
ग्रुप 14853
bid 14847
po@@ 14843
लौट 14842
॥ 14841
एजेंसी 14839
speaker 14834
stations 14832
confirmed 14831
ma 14815
sar@@ 14802
so@@ 14795
te@@ 14791
task 14789
programmes 14787
ne@@ 14781
ordered 14773
खड़ी 14764
गांवों 14759
वास्तव 14754
avoid 14743
डाला 14741
ड़ 14733
खाते 14731
08 14716
तोड़ 14716
यूनिवर्सिटी 14716
सोने 14711
birth 14708
संबंधी 14705
ic@@ 14699
मेल 14699
panchayat 14696
zealand 14685
korea 14683
passengers 14681
begin 14675
refused 14674
importance 14673
परियोजना 14672
du@@ 14666
caused 14643
मिलेगी 14640
purpose 14636
presented 14635
wickets 14629
trial 14624
राजीव 14624
घ@@ 14618
जे 14614
22@@ 14613
29@@ 14609
गेट 14609
कार्यकर्ता 14605
मुंह 14592
ट्रक 14590
लड़ाई 14585
वाहनों 14584
देखना 14579
हादसे 14578
पेड़ 14577
आर@@ 14574
option 14571
te 14571
incidents 14559
word 14558
छोटा 14556
खरीद 14554
मात्रा 14551
इंदौर 14550
stadium 14549
सागर 14540
lucknow 14539
becoming 14536
via 14534
caught 14533
opportunities 14528
साथी 14523
अहम 14518
नोट 14515
systems 14514
feature 14512
marriage 14509
heard 14503
ians 14502
किनारे 14501
w 14491
ड़ी 14490
unique 14485
else 14472
यात्रियों 14470
yes 14469
boost 14457
shown 14457
संकट 14456
challenges 14447
electricity 14444
अफसरों 14437
धन्यवाद 14436
god 14430
rss 14430
hence 14429
aircraft 14426
noted 14423
उसको 14419
america 14418
prepared 14414
sections 14413
studies 14411
andhra 14405
sides 14400
ceremony 14392
रानी 14388
ईश्वर 14385
skills 14376
prevent 14374
overs 14373
whom 14372
लिखने 14369
armed 14359
formed 14358
beginning 14357
सुंदर 14353
favour 14343
यू 14343
selling 14336
summit 14335
हर@@ 14331
लु@@ 14329
दान 14327
सम्मानित 14326
wicket 14325
pre@@ 14323
shooting 14322
28@@ 14319
वार 14318
payment 14315
51 14308
moving 14308
जिलों 14300
पुस्तक 14287
ta@@ 14282
sharing 14280
acting 14276
carrying 14275
निश्चित 14275
ि@@ 14274
प्रणाली 14265
हाई 14264
खा 14262
comment 14251
इलाकों 14249
departments 14245
कहता 14245
clearly 14243
आशा 14242
बोली 14235
01 14233
ex 14227
47 14226
activity 14225
नाथ 14218
assistant 14215
learn 14209
हजारों 14209
मर 14206
primary 14204
तुम्हें 14195
43 14186
तिवारी 14186
core 14184
physical 14178
उक्त 14175
लेता 14175
52 14167
खिलाड़ियों 14154
stone 14151
active 14141
professional 14141
सलाह 14139
proper 14135
over@@ 14114
boys 14110
send 14110
opinion 14104
balance 14103
तस्वीर 14101
41 14092
leaving 14092
weather 14088
score 14087
speak 14078
wide 14078
चलाने 14077
लिखी 14077
बेटा 14074
cars 14073
अली 14073
rain 14071
immediate 14059
रांची 14056
दिये 14044
admitted 14042
mentioned 14030
sitting 14025
विकल्प 14024
demanding 14016
saudi 14010
पर्यावरण 14007
speed 14006
अरब 14006
चैनल 14005
छूट 14000
emergency 13997
यूपी 13997
professor 13996
इच्छा 13988
पहुंचने 13972
hospitals 13967
decade 13966
develop 13965
touch 13951
छोड़कर 13951
07 13948
परन्तु 13943
सुना 13937
sit 13935
ga@@ 13934
tough 13928
संपत्ति 13928
bombay 13927
addition 13926
bar 13926
चुनौती 13926
हिंसा 13920
ईसा 13911
female 13910
शाह 13910
french 13908
awards 13906
ऐ@@ 13903
tweeted 13901
जिनके 13894
bringing 13891
किन्तु 13884
कल्याण 13877
टर 13877
गि@@ 13872
simple 13870
49 13868
researchers 13866
ड़ा 13853
bal@@ 13847
writing 13845
९ 13843
लड़कियों 13840
सोचा 13835
wedding 13830
रहें 13829
era 13825
लगते 13823
chhattisgarh 13818
बर@@ 13815
व्यक्त 13814
सलमान 13813
em@@ 13809
ि 13803
solution 13800
bridge 13794
जोशी 13791
अनु@@ 13787
3.@@ 13785
delivery 13772
नोटिस 13771
fuel 13768
protect 13768
पीड़ित 13768
reliance 13766
writer 13762
फ़@@ 13759
suggested 13755
कं@@ 13755
चौहान 13752
nor 13747
debut 13746
plea 13745
con@@ 13742
denied 13735
सकें 13732
mean 13730
established 13729
वेतन 13725
appeared 13721
material 13718
terrorist 13715
rajya 13714
placed 13711
दलों 13709
मी@@ 13705
europe 13704
दिखा 13701
associated 13690
fighting 13690
planned 13686
ज़@@ 13684
extended 13682
metro 13680
zone 13676
fir 13675
पढ़ने 13673
residence 13668
रोजगार 13666
वाल 13666
direction 13662
facility 13662
नारायण 13662
cooperation 13661
specific 13661
consumers 13659
ru@@ 13657
author 13651
cast 13649
witnessed 13645
एम@@ 13640
actors 13634
parliamentary 13634
owned 13629
महत्व 13628
प्रत्याशी 13625
table 13612
जिन्होंने 13607
पटेल 13605
गठन 13603
लाया 13602
served 13600
वादी 13591
discussed 13589
हु@@ 13589
religion 13588
े 13579
अध्यक्षता 13575
46 13569
मना 13565
तहसील 13560
म्@@ 13560
स्थानों 13558
ana 13557
समुदाय 13555
कारोबार 13552
operating 13545
प्रोजेक्ट 13541
बनाना 13537
handed 13529
दीपक 13526
independence 13525
सीबीआई 13524
powerful 13522
जाएं 13522
बैठ 13507
bangalore 13500
offering 13499
sex 13499
av@@ 13498
reddy 13494
गौरतलब 13494
meetings 13487
stopped 13486
pns 13484
भावना 13483
दवा 13477
दूरी 13465
सत्य 13454
ka@@ 13452
विद्यार्थियों 13435
regime 13432
शहरों 13432
damage 13431
developing 13431
इनका 13430
assured 13425
जम्मू 13425
reportedly 13418
युवती 13418
M@@ 13416
returned 13403
वीं 13401
consider 13400
जगत 13399
56 13398
mohammad 13393
plays 13382
चित्र 13381
अमित 13376
03 13373
करवा 13368
jaitley 13352
maintain 13351
governance 13350
उम्मीदवार 13346
चाय 13341
decide 13340
प्रो 13337
04 13335
भरी 13325
जिसने 13320
kids 13319
करवाया 13319
bail 13318
france 13318
wing 13318
failure 13312
ढंग 13312
appeal 13305
arun 13294
up@@ 13294
पेट 13292
हिन्दू 13278
बिल्कुल 13277
A@@ 13275
बहस 13274
स्टार 13270
न्याय 13269
दी@@ 13266
auto 13265
06 13262
कहती 13252
sectors 13250
जमकर 13250
yesterday 13241
च 13236
crucial 13225
खाद्य 13220
पै@@ 13220
2002 13217
मरीजों 13217
अतिथि 13216
मारपीट 13212
terrorists 13210
hundreds 13209
एसोसिएशन 13209
दैनिक 13209
आसानी 13206
bharatiya 13201
bi@@ 13197
original 13195
महिलाएं 13192
recovered 13184
transfer 13177
approval 13175
isn 13175
mass 13175
चाहिये 13166
raising 13163
sinha 13163
तापमान 13162
anand 13145
फूल 13145
vision 13140
pace 13136
estate 13129
बचपन 13126
ti 13122
standard 13120
answer 13117
ज्यादातर 13116
करवाने 13109
कौर 13102
माल 13102
भू@@ 13076
महाराष्ट्र 13074
adds 13067
priyanka 13060
injuries 13059
मोहन 13054
di 13053
eyes 13049
meant 13047
रायपुर 13046
wire 13045
debate 13044
polling 13044
sam@@ 13038
उपचार 13036
फे@@ 13034
options 13031
politicians 13031
जितना 13031
defeat 13025
बंगाल 13024
instance 13023
ति 13012
ha 13009
sometimes 13004
६ 13002
strategic 13001
जंगल 12999
discuss 12998
highly 12993
घाट 12990
goals 12986
amendment 12983
communication 12983
नामक 12983
बढ़ती 12977
anil 12975
सिविल 12975
विशाल 12972
standing 12959
रहीं 12951
pointed 12950
ia 12949
खून 12944
मनोज 12944
uttarakhand 12939
ja@@ 12928
telecom 12926
counter 12919
page 12919
कलेक्टर 12919
distribution 12918
gu@@ 12916
enter 12908
observed 12906
उपाध्यक्ष 12905
suffered 12902
योगदान 12901
हल 12900
पढ़ेंः 12895
kh@@ 12892
th 12890
healthy 12889
interests 12888
race 12887
innings 12885
नीतीश 12879
पुरा 12877
सक्रिय 12864
आधुनिक 12863
नागरिक 12856
कमजोर 12851
02 12850
संकेत 12848
अगली 12837
मशीन 12836
summer 12834
matters 12830
लिंग 12822
estimated 12821
internal 12819
एक्सप्रेस 12813
शानदार 12804
il@@ 12802
trading 12802
अखबार 12795
waiting 12791
host 12789
ted 12785
decisions 12783
देगा 12779
mostly 12778
आवास 12777
ल्@@ 12777
calling 12769
अवधि 12769
ंग@@ 12768
ation 12760
probably 12760
पैर 12759
मालूम 12758
95 12753
इंसान 12750
बीते 12740
sets 12738
कपड़े 12737
सहयोगी 12735
identity 12734
married 12733
दिखाया 12733
21@@ 12732
instagram 12731
मुझसे 12727
reduced 12726
समझा 12717
श्रेणी 12716
banerjee 12713
grow 12711
verdict 12707
multi 12704
ahmed 12702
संबोधित 12701
route 12699
लाखों 12698
marketing 12692
ke@@ 12686
records 12686
provisions 12676
गिर 12666
सेक्स 12664
xi 12663
मास्टर 12658
लंबी 12657
seem 12653
झ@@ 12645
version 12639
72 12638
गे@@ 12632
प्रकृति 12629
माने 12621
cards 12618
लिखे 12609
85 12608
बुरा 12604
currency 12600
उप 12591
दशक 12590
promote 12582
plus 12575
external 12573
directly 12564
नियमों 12551
fake 12549
एन 12539
प्रेस 12539
el@@ 12532
क्रम 12529
त्@@ 12523
मनमोहन 12520
सूर्य 12517
exam 12513
nda 12513
» 12499
believed 12497
C@@ 12496
activists 12496
महाराज 12493
citizenship 12490
discussion 12481
tests 12481
bhopal 12477
sa 12473
ऑफिस 12465
सोनिया 12463
electoral 12462
ज़्यादा 12457
तों 12457
मौजूदा 12457
premier 12454
achieve 12453
दो@@ 12453
guru 12450
पुल 12445
spending 12444
कप 12444
बच्चा 12441
जय 12440
produce 12434
size 12434
डेढ़ 12429
sad 12424
request 12420
stood 12419
योजनाओं 12415
भरोसा 12407
बिक्री 12406
वितरण 12406
हिंदू 12402
एस@@ 12400
58 12399
walk 12398
cr 12391
understanding 12387
mining 12383
कंप्यूटर 12383
villagers 12380
kashmiri 12377
guest 12363
ve@@ 12361
floor 12353
trend 12336
located 12331
बच्ची 12331
pictures 12325
1,000 12324
बॉलीवुड 12318
हुये 12315
54 12313
attend 12311
सुनील 12310
कर्मियों 12304
बम 12304
ँ 12298
accident 12288
आई@@ 12287
teacher 12277
८ 12277
सांस्कृतिक 12276
wall 12273
लेंगे 12272
वित्तीय 12271
पीने 12269
कार्यों 12263
तकनीकी 12257
फरार 12253
बढ़ने 12252
स्वरूप 12252
लोगो 12248
प्रवक्ता 12247
 12243
considering 12242
raj@@ 12242
सोशल 12241
pu@@ 12240
6.@@ 12238
मॉडल 12238
प्रति@@ 12233
ps 12224
feels 12217
interesting 12212
नियमित 12208
kan@@ 12207
rohit 12207
वै@@ 12205
रिकॉर्ड 12204
driving 12203
difference 12200
pending 12196
campus 12185
अंतर्गत 12181
dream 12180
wait 12166
fixed 12161
खो 12160
famous 12159
संपन्न 12155
smartphone 12144
लागत 12134
हड़ताल 12134
गर्मी 12131
scam 12130
blue 12125
} 12123
champions 12119
no@@ 12118
गा 12118
store 12110
tu@@ 12107
2003 12101
virat 12099
संचालन 12096
larger 12095
figure 12089
judicial 12080
remaining 12079
reforms 12075
दोषी 12075
drugs 12074
agenda 12072
आरक्षण 12072
ak 12071
साढ़े 12069
श्री@@ 12065
remember 12063
मिश्रा 12063
entered 12060
ally 12059
attacked 12058
partners 12057
पीएम 12057
नये 12055
तु@@ 12051
सै@@ 12041
ten 12040
कक्षा 12030
becomes 12021
कप्तान 12019
structure 12017
homes 12007
monsoon 11999
thinking 11996
पत्थर 11995
संसार 11995
mal@@ 11993
250 11983
push 11978
academy 11976
nehru 11974
उत्तराखंड 11968
कों 11968
cpi 11956
ba 11955
phones 11951
amazon 11947
राह 11939
john 11938
pan@@ 11934
tribal 11930
53 11929
आयुक्त 11927
हिस्से 11927
7.@@ 11925
अन@@ 11925
delay 11917
serve 11917
ण 11914
न्यूज 11913
changing 11907
भरे 11905
partnership 11901
usually 11898
किलो 11897
निकाला 11890
आतंकी 11888
प्रसिद्ध 11883
scene 11882
tiger 11881
जवान 11880
theatre 11876
welcome 11875
संगठनों 11875
होली 11869
returns 11868
आखिरी 11866
roy 11864
पाता 11863
अधिकांश 11862
बचा 11861
highway 11850
एँ 11849
ओवर 11848
धरती 11845
spend 11835
B@@ 11829
600 11819
वैज्ञानिक 11818
arvind 11812
supporters 11803
coalition 11801
worst 11796
जनरल 11794
simply 11780
चे@@ 11778
birthday 11776
प्रमाण 11768
फाइनल 11768
israel 11765
segment 11764
jain 11760
obama 11758
representatives 11758
सकेंगे 11754
4.@@ 11745
इन्@@ 11745
इसीलिए 11744
डो@@ 11742
पाठ 11742
पहल 11740
लूट 11736
शेष 11735
complaints 11733
software 11729
ban@@ 11720
losing 11720
prakash 11714
businesses 11710
krishna 11708
anniversary 11707
kal@@ 11705
ट्स 11701
appear 11700
notes 11700
statements 11697
राकेश 11689
तुम्हारी 11686
सुनने 11667
आबादी 11666
similarly 11664
branch 11656
करार 11654
suspended 11651
entertainment 11638
हवाई 11638
अफसर 11631
cinema 11629
P@@ 11627
feet 11611
64 11606
organisations 11606
ruled 11606
सीटों 11606
gh@@ 11604
पन 11604
जाहिर 11602
stands 11600
powers 11589
showing 11588
railways 11581
laid 11577
७ 11577
शोध 11570
announcement 11567
helps 11567
marks 11564
विचारों 11561
whatever 11556
the@@ 11551
shop 11549
movies 11540
एल 11539
्@@ 11535
मजबूर 11531
वकील 11531
खुलासा 11523
शंकर 11521
putting 11517
एं 11516
ः@@ 11514
बदले 11514
लड़के 11514
earth 11512
door 11511
karan 11509
gdp 11508
arms 11507
मन@@ 11502
सह@@ 11497
तकनीक 11495
स्टूडेंट्स 11495
norms 11493
विज्ञापन 11490
दूसरों 11486
medium 11484
संत 11474
silver 11472
मानसिक 11466
नियुक्ति 11465
weight 11461
सपा 11461
फ 11459
5.@@ 11455
communities 11449
compensation 11445
os 11441
path 11441
रखें 11440
इंडियन 11439
link 11438
छात्राओं 11438
lose 11437
पत्रकारों 11436
देखी 11434
om@@ 11432
तो@@ 11428
ur@@ 11427
मिट्टी 11426
सुनिश्चित 11426
रवाना 11424
ा@@ 11423
reuters 11418
दिख 11418
लोकतंत्र 11414
जानने 11411
लेखन 11400
courts 11392
venture 11391
wish 11390
arrived 11387
cell 11386
आशंका 11383
li 11382
ों 11375
दोबारा 11374
extremely 11370
तनाव 11370
sub@@ 11369
आय 11369
yoga 11368
लालू 11368
invest 11365
साइट 11360
drop 11357
आत्मा 11354
rejected 11353
चक्कर 11353
wasn 11350
draw 11346
बाप 11344
प्राचीन 11342
dc 11339
ठ@@ 11330
solar 11328
जानता 11326
headquarters 11325
rajiv 11323
आजादी 11321
conflict 11316
doctor 11313
faith 11312
ticket 11312
धमकी 11307
महासचिव 11292
bu@@ 11285
मार्केट 11277
granted 11274
पढ़ 11272
62 11271
directors 11269
individuals 11269
colour 11268
extra 11261
jo@@ 11259
bsp 11257
gi@@ 11244
russian 11243
baby 11235
थ 11232
परंतु 11232
broke 11231
पिछली 11228
beautiful 11227
व्यक्तिगत 11227
perfect 11220
rai 11218
faces 11216
bound 11213
मरीज 11210
कर्म 11208
विधि 11207
fc 11206
हद 11204
छात्रा 11199
funding 11196
दौड़ 11194
परीक्षण 11189
dialogue 11182
संरक्षण 11182
मेहनत 11179
appointment 11176
dropped 11174
यात्री 11174
ds 11170
बा 11170
मुख्यालय 11170
ashok 11164
educational 11164
पारी 11163
sign 11162
जिम्मेदार 11161
करण 11160
australian 11155
ँ@@ 11155
thanks 11148
बैठा 11144
सुन 11144
ू 11144
figures 11143
वीर 11143
कैंसर 11139
व्यापक 11135
दिमाग 11134
neither 11131
संविधान 11129
ajay 11128
खतरा 11127
initial 11124
minority 11119
पर्याप्त 11116
pro@@ 11115
www 11115
assistance 11114
talent 11112
bse 11099
selection 11097
टू 11096
contract 11095
owners 11094
ग्रहण 11091
lodged 11086
sister 11082
ap 11080
drama 11078
बदलने 11077
feeling 11071
registration 11071
उठाने 11069
स्वतंत्रता 11068
lord 11066
chopra 11062
फसल 11061
consumption 11059
promised 11058
अरे 11057
provides 11055
रेखा 11052
eastern 11051
रू 11049
जोधपुर 11047
मनाया 11046
मान्यता 11046
विमान 11040
disaster 11038
धा@@ 11037
permission 11036
बुरी 11036
हथियार 11034
57 11031
जुड़ी 11029
healthcare 11028
communal 11021
ravi 11020
id 11017
channel 11010
समझने 11008
सम@@ 11007
66 11004
सुझाव 11003
2001 11001
inc 11000
reply 10998
telangana 10997
sport 10983
चुनावों 10982
locals 10981
quick 10970
रमेश 10968
देखो 10964
पत्रिका 10964
believes 10963
रस 10962
ling 10961
दोस्तों 10958
apex 10957
accept 10953
easily 10953
germany 10953
अतः 10944
हिमाचल 10940
आपूर्ति 10939
charged 10936
designed 10934
शुल्क 10932
दलित 10931
linked 10929
उत्पन्न 10922
dhoni 10917
upa 10914
none 10913
बराबर 10913
beijing 10911
आस 10911
fifth 10907
nath 10907
shift 10906
शुरु 10902
forms 10901
sonia 10880
bachchan 10878
चौ@@ 10876
influence 10874
युग 10873
मैने 10866
bcci 10862
items 10859
चीज 10857
pal 10855
aim 10854
initially 10853
यहीं 10852
prove 10851
ncp 10850
described 10846
ch 10842
classes 10842
makers 10837
जानी 10837
heads 10835
ii 10834
सुरेश 10831
sun 10829
malik 10825
देव@@ 10823
मोहम्मद 10822
यो 10822
आजकल 10817
शीर्ष 10815
dollar 10814
lawyer 10809
मुद्दा 10803
custody 10795
inquiry 10787
web 10787
mis@@ 10785
soldiers 10784
पाकिस्तानी 10780
सबको 10780
maintained 10772
truth 10768
leg 10749
ब्रिटेन 10744
op@@ 10743
हित 10742
गले 10740
inspector 10737
jd 10735
T@@ 10734
अकेले 10731
खेती 10730
चेतावनी 10727
दुर्घटना 10727
युवकों 10722
ढ@@ 10718
ममता 10716
type 10715
car@@ 10714
deaths 10714
protesters 10711
standards 10701
काट 10698
डिजाइन 10698
फेसबुक 10697
islam 10694
गिरावट 10694
certainly 10691
लता 10689
कठिन 10684
imposed 10683
ट्रैफिक 10683
delegation 10682
tourists 10682
अमरीका 10680
minor 10674
घरेलू 10672
mps 10669
receive 10667
britain 10664
गलती 10664
bs 10661
पुरी 10661
अं@@ 10657
09@@ 10656
warned 10656
परमाणु 10656
priority 10654
accepted 10652
सूत्र 10650
सहमति 10641
crowd 10639
किमी 10635
खु@@ 10635
kha@@ 10633
heritage 10632
किशोर 10631
विपक्ष 10630
hopes 10628
usd 10624
बुलाया 10623
civic 10619
निकले 10619
मुद्दों 10619
papers 10605
एन@@ 10605
मंजूरी 10605
जताई 10604
pdp 10602
iphone 10599
lies 10591
participants 10591
चोट 10590
owner 10589
holds 10588
शांत 10587
डॉक्टरों 10576
milk 10573
singapore 10573
हटाने 10573
यो@@ 10572
plants 10571
निरीक्षण 10567
नव@@ 10566
implemented 10564
घटनाओं 10562
pick 10556
celebrated 10553
mi 10549
कू@@ 10546
तर्क 10546
nepal 10544
नींद 10543
sp@@ 10542
losses 10540
animal 10539
devices 10537
factors 10535
चंडीगढ़ 10535
voting 10534
मांगी 10534
ks 10530
hi@@ 10525
10,000 10524
ine 10522
प्रतिक्रिया 10522
degrees 10518
स्कोर 10518
बैंकों 10514
सुनाई 10514
सीनियर 10513
throughout 10512
singer 10499
sound 10497
पश्चिमी 10497
मृतक 10496
emerging 10494
rupee 10489
नाटक 10487
प्राकृतिक 10484
ant 10478
कॉलोनी 10477
fee 10476
ranchi 10476
स्टाफ 10475
plastic 10474
बचाव 10468
absence 10457
ous 10450
friendly 10449
struggle 10446
सुन्दर 10444
cold 10441
सपना 10440
limit 10438
abroad 10433
रूम 10432
advantage 10430
injury 10430
औसत 10427
um@@ 10423
abdullah 10422
तत्काल 10418
declined 10415
खेत 10415
sunil 10414
negative 10412
newly 10412
supported 10412
तारीख 10411
मेले 10411
deficit 10406
केजरीवाल 10406
inter 10405
कानूनी 10405
पाठक 10405
chandra 10404
paying 10401
sen 10398
puri 10397
respective 10396
आधा 10393
समक्ष 10391
encounter 10390
अन्दर 10387
rescue 10385
भारती 10385
99 10380
शन 10378
सहारा 10378
advocate 10377
चेयरमैन 10376
मैन 10373
रु 10372
busy 10371
प्राथमिक 10370
electric 10365
गिरफ्तारी 10365
addressed 10364
selected 10360
63 10359
पीठ 10357
male 10355
tea 10355
छवि 10352
winter 10350
सकी 10349
टूट 10344
david 10337
आराम 10333
आदर्श 10331
वार्ता 10331
योग्य 10328
indeed 10322
67 10320
visiting 10319
राव 10319
fun 10316
अनुमान 10315
परिचय 10315
पार्षद 10313
चलती 10312
जाओ 10309
aimed 10308
except 10305
surprise 10304
विनोद 10297
संपादित 10296
squad 10295
सर्वे 10295
dispute 10294
59 10293
सू@@ 10291
scientists 10290
per@@ 10286
paris 10285
पदों 10280
master 10278
user 10278
पर्यटन 10278
skin 10271
शे@@ 10270
pain 10266
winner 10265
apply 10263
ge@@ 10260
payments 10260
ऑस्ट्रेलिया 10260
महज 10257
खुले 10252
निकला 10251
आतंकवाद 10244
तर@@ 10243
सेट 10242
contact 10241
purchase 10241
सक्षम 10239
गायब 10236
पाक 10234
tha 10233
mirror 10232
विरुद्ध 10230
removed 10228
दाखिल 10228
knew 10224
सेल 10222
800 10221
बनकर 10218
prof 10217
har 10215
sugar 10215
कालेज 10213
मो 10213
weapons 10205
ish 10201
णी 10199
animals 10191
अमर 10184
विद्युत 10180
concept 10177
होंगी 10176
academic 10170
requested 10168
टक्कर 10168
मह@@ 10168
यी 10167
rains 10166
अंजाम 10166
gain 10165
2,@@ 10163
invited 10161
essential 10155
68 10154
guidelines 10152
vi 10152
खेलने 10152
गाने 10144
spirit 10141
appears 10134
बेहतरीन 10129
ideas 10128
sikh 10128
draft 10124
wa@@ 10124
device 10120
computer 10117
write 10117
honour 10116
schedule 10113
शहीद 10103
लगाते 10102
applications 10098
boss 10095
offices 10095
hear 10094
fit 10092
असली 10090
fish 10089
largely 10088
आकार 10084
pic 10079
pal@@ 10078
बादल 10078
चुनावी 10077
stress 10073
seized 10067
पढ़ें 10067
रूपये 10067
8.@@ 10066
तार 10066
aid 10065
स्टेट 10065
trees 10062
stocks 10059
तंत्र 10059
अहमद 10056
भु@@ 10054
definitely 10053
अप@@ 10052
equipment 10046
hall 10043
08@@ 10042
प्@@ 10042
आंखों 10039
गी 10034
han 10031
administrative 10024
उर्फ 10024
samsung 10017
· 10016
decline 10014
otherwise 10014
भला 10011
नु@@ 10009
booked 10008
था@@ 10007
ची@@ 10004
लिंक 10003
मं@@ 10001
toll 9997
questioned 9995
सिर्फ़ 9995
मानी 9993
aviation 9989
भि@@ 9988
झा 9987
ig@@ 9985
गढ़ 9983
recovery 9981
स्टेडियम 9977
D@@ 9971
trophy 9971
abdul 9969
bigger 9966
temperature 9965
ahmedabad 9964
songs 9962
आवाज़ 9961
ala 9960
ku@@ 9955
निया 9955
promises 9951
remarks 9943
edition 9937
suffering 9937
thakur 9937
analysis 9935
quoted 9928
flood 9926
perform 9926
मारने 9925
devi 9920
commitment 9913
mental 9910
picked 9908
आइ@@ 9906
सफर 9905
फ़िर 9903
tomorrow 9902
actions 9896
favourite 9895
बाढ़ 9890
कल्पना 9885
android 9882
उत्पाद 9879
learnt 9877
pak 9874
reading 9868
आँखों 9868
आगामी 9868
इलाहाबाद 9868
retired 9867
pra@@ 9866
diesel 9865
q 9865
sensitive 9865
जरा 9862
दृश्य 9862
acquisition 9856
बीमा 9854
eventually 9852
यु@@ 9851
कोच 9848
patient 9843
ul 9841
wake 9836
premises 9835
couldn 9833
verma 9833
गली 9833
प्रतिनिधि 9828
severe 9826
पुष्टि 9826
performed 9825
bha@@ 9823
exports 9822
enjoy 9821
troops 9821
asset 9820
farm 9819
पड़ती 9817
treated 9813
शारीरिक 9810
संस्कार 9807
सूरज 9804
दार 9803
submit 9801
दौरे 9800
choose 9798
naidu 9798
डायरेक्टर 9797
मुकदमा 9797
finding 9796
guard 9794
emerged 9792
premium 9784
and@@ 9780
controversy 9774
पब्लिक 9769
joshi 9760
bond 9759
driven 9757
1.5 9751
इ 9751
वर्@@ 9750
batting 9747
कोर्स 9747
निकलने 9747
roles 9740
awarded 9738
सैकड़ों 9734
हक 9732
celebrate 9726
crop 9725
id@@ 9724
तर 9723
buses 9721
deployed 9718
performing 9718
श्@@ 9714
\ 9710
rushed 9710
अधिनियम 9710
अनुसंधान 9710
दुख 9709
संतोष 9708
सबके 9701
unlike 9700
पहुँच 9699
brands 9698
आश्वासन 9695
इंग्लैंड 9692
taxes 9691
61 9690
us@@ 9688
प्रा@@ 9685
ये@@ 9684
भाषण 9682
buying 9681
challenging 9680
rainfall 9676
royal 9672
upper 9672
ख 9672
प्रेरित 9669
possibility 9668
खो@@ 9664
नारी 9662
द्@@ 9657
पर्व 9656
फार्म 9655
admission 9651
फर्जी 9648
register 9647
proved 9644
रवि 9644
twice 9642
icc 9640
shops 9639
ल्स 9639
सिनेमा 9638
71 9637
74 9634
पंडित 9634
कां@@ 9632
backed 9629
नयी 9629
wear 9628
shifted 9625
drinking 9624
monitoring 9622
जीतने 9622
ताकत 9620
mutual 9616
परिवहन 9614
stressed 9609
सप्लाई 9608
seeing 9605
elements 9603
relevant 9602
मू@@ 9602
factor 9597
ऐतिहासिक 9589
अवश्य 9585
traders 9581
watching 9580
pi@@ 9578
तिथि 9577
listed 9571
गतिविधियों 9571
regulatory 9568
advanced 9564
वापसी 9564
qu@@ 9562
गोल 9562
सदन 9561
सुनकर 9560
ran 9558
solutions 9554
बाबू 9554
filing 9544
approached 9542
उद्घाटन 9541
आउट 9535
बताई 9533
participate 9531
sessions 9531
federal 9530
खोल 9524
डाउनलोड 9522
द्वितीय 9522
bat 9518
गीता 9518
firing 9514
खरीदने 9513
slow 9508
initiated 9505
00@@ 9502
hike 9497
shankar 9496
दिखाने 9495
प्रार्थना 9491
latter 9490
लंदन 9490
काले 9489
सीमित 9489
technologies 9485
सिद्ध 9482
banned 9479
properties 9479
मिलाकर 9479
सकेगा 9479
aadhaar 9478
collected 9478
analysts 9477
explained 9477
balls 9475
दाम 9475
आलोचना 9473
हफ्ते 9472
07@@ 9471
dark 9470
producer 9469
out@@ 9467
afp 9465
69 9464
championship 9463
customer 9460
deliver 9458
fi@@ 9455
ans 9453
क्षेत्रीय 9453
helping 9450
tells 9448
ko 9445
कता 9444
gang 9442
organized 9442
प्रो@@ 9441
भरने 9436
veteran 9435
va 9433
सुविधाओं 9433
सपने 9429
dh@@ 9427
models 9427
permanent 9425
tonnes 9425
चू@@ 9425
penalty 9423
चेहरा 9423
उल्लेखनीय 9422
characters 9420
hair 9420
judges 9420
straight 9418
परिवारों 9418
functioning 9417
इन@@ 9416
organization 9412
quickly 9412
ri 9410
ur 9405
zero 9399
रोल 9395
दर्शकों 9392
दर्जन 9391
afternoon 9387
ca@@ 9387
कार्यवाही 9386
ऑपरेशन 9382
ऊ@@ 9378
starts 9371
हृदय 9371
mi@@ 9370
unless 9369
संकल्प 9366
petrol 9362
il 9361
बच 9361
brain 9359
duo 9359
interested 9359
buildings 9358
mode 9357
3,@@ 9356
engineer 9355
तेरे 9355
supporting 9353
sal@@ 9351
छुट्टी 9349
ne 9348
शाखा 9347
कोलकाता 9346
medal 9344
लेती 9339
bureau 9336
gathering 9335
tweet 9335
जिनकी 9333
Bhaskar 9332
grounds 9331
miss 9330
hot 9329
कारों 9329
inspired 9326
gap 9323
Dainik 9322
बताने 9317
लोकप्रिय 9310
detailed 9305
ter 9305
रखकर 9303
creation 9301
activist 9300
लिस्ट 9300
कलाकार 9299
पत्रकारिता 9299
deals 9292
आश्रम 9291
उपाय 9290
700 9286
contribution 9286
esh 9282
champion 9281
फीस 9281
batsman 9278
deceased 9277
promise 9274
resolve 9274
arrangements 9272
अखिलेश 9272
exit 9271
बेचने 9271
परंपरा 9269
हु 9260
76 9259
pawar 9259
संदर्भ 9258
देखे 9253
notification 9252
maker 9250
lu@@ 9249
shi@@ 9249
gender 9248
जै@@ 9246
उतर 9244
120 9242
शेर 9242
proceedings 9241
नें 9241
liquor 9240
ups 9240
न्स 9240
ती@@ 9237
airlines 9236
threatened 9236
opposed 9233
जाय 9233
prize 9230
expenditure 9228
यूनियन 9222
इसको 9217
मुकेश 9217
islamabad 9214
वां 9214
ण@@ 9213
¨सह 9210
73 9209
लापरवाही 9207
मुक्ति 9206
improved 9200
दायर 9197
sebi 9195
covered 9192
शैली 9192
दौरा 9190
वर्ल्ड 9190
false 9189
streets 9189
अव@@ 9185
 9183
पावर 9183
84 9182
exhibition 9182
grant 9180
journalist 9179
पृथ्वी 9179
4,@@ 9174
command 9173
trained 9173
trip 9172
रखता 9171
खे@@ 9165
yatra 9164
extent 9163
skill 9162
fields 9161
targeted 9160
हंगामा 9160
artist 9159
शुभ 9156
संग्रह 9155
दुष्कर्म 9154
identify 9152
मानक 9152
artists 9151
कानपुर 9150
Web 9149
knows 9149
चेक 9149
odi 9148
निकालने 9148
hero 9147
bh@@ 9146
falling 9140
universities 9136
पकड़ा 9135
राजस्व 9135
claiming 9134
northern 9129
expansion 9128
पेट्रोल 9127
अभाव 9126
रणनीति 9126
prominent 9116
वाह 9110
el 9109
मिशन 9107
मारा 9103
तथ्य 9102
discussions 9101
engaged 9098
rival 9098
band 9097
min@@ 9097
विजेता 9095
प्रावधान 9094
सिन्हा 9094
kam@@ 9093
पढ़ा 9093
ो@@ 9093
बदला 9091
वातावरण 9091
celsius 9089
constitutional 9087
शहरी 9087
alternative 9085
कब्जा 9085
फो@@ 9080
dehradun 9074
gains 9071
जीता 9071
ward 9070
रुप 9070
achieved 9069
wani 9064
happens 9063
junior 9063
referred 9063
पदाधिकारी 9063
रकम 9062
participation 9061
unable 9059
धान 9055
confident 9053
जितनी 9052
00 9044
nagaland 9043
mufti 9035
comprising 9034
370 9029
row 9029
transferred 9028
कमल 9027
गर्म 9024
muhammad 9023
noida 9021
मोर्चा 9020
mainly 9019
चोर 9016
मुलायम 9015
एल@@ 9014
प्रकरण 9014
constituencies 9012
प्रभु 9012
उपकरण 9011
expert 9009
visitors 9009
बनता 9009
विशिष्ट 9009
fan 9007
piece 9007
poverty 9007
earnings 9005
participated 9001
percentage 9001
focused 8997
initiatives 8996
mohan 8996
dar 8994
delivered 8994
historic 8993
1000 8992
under@@ 8992
तीसरी 8992
jet 8989
behaviour 8988
शूटिंग 8982
foot 8977
गूगल 8977
क्स 8976
लाइसेंस 8970
appropriate 8969
जगहों 8968
मूर्ति 8967
शिमला 8967
arm 8966
ऑटो 8958
गठबंधन 8958
mm 8957
referring 8957
secondary 8957
doubt 8956
दिवसीय 8950
pandey 8948
Title 8944
कौशल 8943
practices 8942
mamata 8941
coast 8940
violation 8937
कैसा 8937
crores 8927
provision 8925
प्राइवेट 8924
eu 8923
महीनों 8923
shri 8922
sharp 8921
राज्यपाल 8921
मिश्र 8920
courses 8919
मजदूर 8919
fitness 8915
rice 8915
नेपाल 8913
पृष्ठ 8913
distance 8910
wearing 8909
hc 8908
willing 8905
flow 8904
caa 8900
जवानों 8899
बढ़ावा 8898
लक्ष्मी 8897
H@@ 8894
स्व@@ 8890
agricultural 8889
cor@@ 8889
हटा 8889
portfolio 8888
उतना 8887
bowling 8883
अभि@@ 8881
receiving 8880
विवि 8877
mohammed 8875
ice 8874
superintendent 8874
महंगाई 8873
trains 8870
younger 8869
ऋण 8869
कारी 8868
ग्@@ 8868
यां 8867
स्वतंत्र 8867
तस्वीरें 8865
myself 8862
प्रशासनिक 8853
तरीका 8850
syria 8848
wal 8847
दिनेश 8847
edge 8846
डालने 8845
struck 8844
हरी 8843
वारदात 8840
प्रताप 8839
nearby 8838
passenger 8838
ड्यूटी 8837
पुराना 8837
प्लान 8834
bilateral 8833
कथित 8830
हिरासत 8827
सह 8826
concluded 8825
सख्त 8823
मंगल 8818
ा 8818
प्रकट 8815
त् 8814
reservation 8810
transactions 8810
weekend 8810
उन्हीं 8809
chances 8808
प्रेमी 8808
leads 8807
क्लास 8806
breaking 8805
78 8798
trouble 8797
यूं 8795
blair 8792
ill 8789
सुभाष 8781
रूस 8777
mehta 8776
शीघ्र 8770
proud 8769
यानि 8768
रिश्ते 8768
badal 8767
tie 8764
विधान 8764
grew 8763
मेला 8763
chain 8761
island 8759
ष@@ 8759
77 8758
विभागों 8758
नेहरू 8757
श्रीवास्तव 8752
ी@@ 8752
brothers 8751
नियुक्त 8747
निर्@@ 8747
ai@@ 8740
japanese 8739
83 8738
allowing 8738
recommended 8737
thackeray 8736
criticism 8734
mon@@ 8734
कायम 8734
पू@@ 8734
ing@@ 8733
खारिज 8733
निर्भर 8732
अमिताभ 8731
dedicated 8726
पवन 8723
crude 8720
expectations 8720
iron 8720
टूर्नामेंट 8720
semi 8717
संचालित 8717
अल 8716
आएगा 8715
अरविंद 8713
hurt 8708
acts 8705
तत्कालीन 8703
कार्यक्रमों 8700
डीसी 8700
rare 8699
6,@@ 8696
नृत्य 8695
फिल्में 8695
कॉल 8689
लू@@ 8688
seriously 8684
धूप 8681
beauty 8680
ग्रह 8678
गुण 8675
रोटी 8674
व्यापारी 8673
length 8670
securities 8670
diseases 8668
आयु 8668
territory 8664
ंस 8664
attempts 8661
hu@@ 8658
recruitment 8658
ब्लॉक 8656
कारणों 8654
seeks 8648
मान@@ 8645
रिलीज 8645
वास्तविक 8643
समस्त 8640
southern 8631
fe@@ 8627
measure 8624
ज्ञापन 8624
regions 8623
शक 8622
ir 8619
videos 8619
भो@@ 8613
implement 8612
अधीक्षक 8612
चंद्र 8612
फीसद 8611
ding 8608
जोन 8607
allows 8606
न्यू 8605
t20 8604
location 8602
गुणवत्ता 8601
causing 8599
corner 8598
environmental 8596
mukherjee 8594
सीरीज 8594
तेरी 8593
hindus 8591
suggest 8591
travelling 8591
uses 8588
साथियों 8587
औद्योगिक 8585
moreover 8582
dismissed 8581
airline 8580
indies 8575
9.@@ 8573
प्रिय 8573
~ 8571
weak 8570
overseas 8568
घोटाले 8568
टाइम 8568
whatsapp 8565
secure 8562
सीधा 8561
बनाते 8560
इनकार 8558
नेटवर्क 8556
यार 8556
हें 8555
पापा 8554
82 8553
ic 8548
equal 8547
passing 8546
ded 8542
पूर्वी 8540
akshay 8538
संसाधन 8538
images 8537
बीज 8537
channels 8536
institution 8535
निशाना 8534
square 8533
प्रोग्राम 8528
दुकानों 8527
inaugurated 8521
lake 8521
कट 8517
manage 8516
इस्लाम 8516
kong 8505
लिखित 8505
ise 8504
ul@@ 8504
गणेश 8504
happening 8502
seemed 8501
workshop 8498
त्रि@@ 8498
आकाश 8495
arjun 8494
अस्तित्व 8494
brings 8491
आत्महत्या 8491
राजेंद्र 8490
crimes 8489
निकट 8488
अरुण 8486
लगेगा 8486
शी 8485
suspected 8481
serving 8480
values 8480
जिनका 8479
दिलाने 8479
आदिवासी 8478
newspaper 8475
पेज 8474
returning 8473
dhawan 8470
अधिकतम 8469
ju@@ 8466
cleared 8464
N@@ 8462
टाटा 8462
monetary 8461
न्यूनतम 8461
गंज 8458
नाराज 8458
strengthen 8457
bhubaneswar 8456
लर 8453
constructed 8452
turning 8452
यें 8451
ends 8450
leaves 8450
militant 8449
7,@@ 8446
sites 8446
कहे 8446
यातायात 8446
81 8445
ton 8445
श्रम 8445
शोर 8442
विशेषज्ञ 8441
bhatt 8440
spotted 8439
dev 8437
golden 8436
उदयपुर 8435
चालू 8433
citing 8432
gate 8432
5,@@ 8431
ओबामा 8430
तुम्हारा 8430
पुरुषों 8426
ease 8425
फांसी 8424
gram 8421
restaurant 8419
ism 8416
चरित्र 8415
मुसलमानों 8413
विपरीत 8413
‘‘ 8413
नष्ट 8412
विद्यार्थी 8409
पीढ़ी 8408
rail 8405
में@@ 8405
ah 8403
pur@@ 8402
पुनः 8402
देगी 8401
दीवार 8400
भक्ति 8397
समुद्र 8397
96 8395
prepare 8395
die 8394
जायेगी 8394
बचने 8393
effects 8392
hong 8391
abuse 8388
smaller 8387
jan@@ 8386
ड्राइवर 8384
जाया 8383
van 8377
धरना 8375
जिक्र 8374
dalit 8373
herself 8372
प्रतिभा 8370
बुक 8370
अनिवार्य 8367
गोपाल 8367
legislative 8363
उत्साह 8363
je@@ 8362
adequate 8361
गंभीरता 8361
strongly 8360
पवित्र 8360
कर्ज 8359
presidential 8356
यन 8355
damaged 8351
भेजने 8350
विषयों 8350
व्यक्तियों 8346
adopted 8345
जापान 8345
require 8342
मध्यप्रदेश 8342
एच@@ 8341
tri@@ 8338
indira 8335
ड़@@ 8333
सैनिक 8333
pvt 8332
जय@@ 8329
forum 8325
shoot 8324
प्रदीप 8322
R@@ 8320
demonetisation 8319
ang@@ 8317
deepika 8315
als 8313
iraq 8313
कर्मी 8312
स्तरीय 8309
prior 8307
skipper 8307
ट्रेनिंग 8305
ंगा 8303
5,000 8302
कान 8302
तुमने 8302
अर्जुन 8301
rawat 8300
द्वार 8300
ensuring 8299
1999 8295
catch 8295
desk 8295
ex@@ 8295
अभिनेता 8295
अधिकतर 8293
galaxy 8291
ge 8289
himachal 8289
अर्थव्यवस्था 8288
88 8286
farmer 8286
heat 8285
panaji 8285
keen 8283
taliban 8282
wealth 8282
छत 8282
remove 8280
फ़ 8272
designer 8271
2.5 8267
पदक 8266
pulwama 8264
करोड़ों 8264
handle 8262
magistrate 8262
भगत 8261
ol@@ 8258
patil 8258
bought 8257
अ 8257
nitish 8255
बढ़ी 8254
tar@@ 8250
एक्ट 8241
millions 8240
enforcement 8239
witness 8239
celebrations 8236
एकदम 8235
92 8234
ंक 8232
federation 8231
निर्वाचन 8229
किंतु 8228
चो@@ 8228
प्रभावी 8228
86 8226
der 8225
profile 8216
प्रेरणा 8216
शु@@ 8216
2020,@@ 8215
समाजवादी 8213
tree 8212
न्यायाधीश 8212
islands 8211
कमाई 8211
इंजीनियरिंग 8209
earned 8208
लेट 8208
br@@ 8203
fired 8203
parking 8203
कमिश्नर 8200
cuts 8199
चलाया 8199
photos 8198
dubai 8195
जब्त 8195
defeated 8191
मुसलमान 8189
nobody 8187
2,000 8186
नर 8186
storage 8185
छि@@ 8184
पात्र 8177
मशहूर 8177
50@@ 8175
टे 8174
crpf 8172
मीटिंग 8170
न् 8169
आयी 8165
बोलने 8165
उठ 8164
begins 8163
grown 8163
connect 8162
kill 8159
eat 8157
निगरानी 8157
अभिषेक 8156
करियर 8156
ja 8148
ची 8146
साइकिल 8145
machine 8144
viral 8143
sharif 8142
camps 8141
involving 8141
affect 8138
सितम्बर 8137
tan@@ 8134
जमानत 8133
बाग 8133
आभार 8132
connectivity 8131
दत्त 8131
पाती 8127
arabia 8126
ci@@ 8125
corp 8124
लाई 8123
ce@@ 8122
alia 8120
pat@@ 8119
reaching 8119
सोनी 8119
haven 8117
ita 8114
ramesh 8113
सम्@@ 8110
hollywood 8109
एसडीएम 8108
बीमार 8108
पेपर 8106
context 8104
directions 8100
controversial 8091
journalists 8090
finals 8089
german 8089
ay@@ 8085
residential 8085
होम 8085
्र@@ 8085
बलात्कार 8082
व्यवसाय 8082
छा@@ 8078
पंकज 8076
भय 8075
समझते 8072
कहकर 8070
प्रतीक 8069
jaipur 8068
connected 8065
50,000 8063
sons 8063
salary 8062
खूबसूरत 8062
om 8060
stating 8060
निवास 8060
promotion 8059
luxury 8058
फै@@ 8057
बच्चन 8057
समा@@ 8055
बिलकुल 8053
अफ्रीका 8052
tourist 8051
बतौर 8051
सदर 8051
trends 8049
अभ्यास 8048
सर्विस 8048
ship 8043
बे 8042
खेलों 8040
युक्त 8040
mas@@ 8039
काली 8039
नामांकन 8039
nrc 8038
shut 8036
एशिया 8035
scenario 8032
emotional 8031
export 8031
ु 8030
wins 8029
उल्लेख 8029
87 8028
आग्रह 8022
दोष 8022
आपस 8019
ईरान 8019
facts 8018
formation 8018
swaraj 8015
प्लांट 8014
कर्@@ 8009
चुप 8008
ised 8006
तीसरा 8005
moon 8003
खुला 8003
चुना 8003
hardly 8002
परिजन 8000
ran@@ 7995
बांध 7993
tennis 7990
लिखते 7988
sleep 7987
wildlife 7983
प्रगति 7979
improving 7978
lady 7977
advance 7976
मरने 7976
directorate 7975
hat 7974
war@@ 7974
सरपंच 7974
अर्थात 7968
flag 7967
aspects 7966
manmohan 7966
positions 7965
titled 7958
cap 7954
ons 7953
ंगी 7947
बाई 7943
indo 7942
आसमान 7942
विधायकों 7941
asks 7939
pretty 7939
vajpayee 7938
recommendations 7936
gun 7934
प्रे@@ 7930
motor 7929
museum 7928
competitive 7926
विद्या 7926
ीं 7923
gen 7922
ऑ@@ 7920
गेंद 7920
बढ़ते 7920
मुँह 7920
sensex 7918
दीप 7918
प्रदर्शित 7914
ls 7913
एयरपोर्ट 7913
सर्वाधिक 7913
medicine 7912
ph@@ 7912
घु@@ 7911
शपथ 7910
peaceful 7909
previously 7909
खैर 7909
significantly 7908
सीटें 7907
तालाब 7905
वेब 7905
cameras 7903
इंटरनेशनल 7903
giant 7902
warning 7902
गे 7902
कैमरे 7901
आगरा 7900
स्वर 7900
hotels 7898
objective 7896
guilty 7890
सरल 7890
साधारण 7890
89 7889
raja 7889
जीने 7887
प्रारंभ 7884
स्पेशल 7884
बढ़कर 7883
हिम्मत 7883
ग्राहकों 7882
खोलने 7881
प्रस्तुति 7876
aims 7875
ver@@ 7873
accompanied 7872
एकता 7872
sheikh 7868
patnaik 7867
नागरिकों 7867
center 7864
pension 7864
पाँच 7863
patna 7862
sbi 7861
installed 7860
cops 7855
monthly 7854
देखता 7852
filled 7850
investigating 7850
हरा 7850
improvement 7848
tenure 7845
भूख 7844
ud@@ 7842
प्रदूषण 7842
कलाकारों 7840
conspiracy 7838
सोना 7838
कार@@ 7837
engine 7835
गौरव 7833
canada 7832
program 7832
संसदीय 7832
मिलना 7830
G@@ 7828
सामूहिक 7827
drivers 7826
dangerous 7824
किरदार 7824
harassment 7823
mor@@ 7823
98 7822
inter@@ 7817
battery 7816
memory 7816
टों 7816
dry 7815
outfit 7810
कुमारी 7810
दिसम्बर 7810
finished 7809
मंत्रियों 7808
सैनिकों 7807
संदीप 7804
respond 7803
whereas 7803
editor 7802
theme 7801
लै@@ 7800
teaching 7799
एच 7799
79 7798
assessment 7798
गौर 7798
mention 7794
औरत 7793
ore 7792
sanctions 7791
यान 7791
राजकुमार 7789
बसपा 7786
assault 7785
बीस 7785
youths 7784
agitation 7781
arts 7781
सवालों 7781
मायावती 7777
http 7774
lifestyle 7773
शिव@@ 7773
bharti 7772
venue 7772
ढाई 7772
सम्बन्ध 7771
प्रौद्योगिकी 7768
hockey 7767
सकारात्मक 7767
आपसे 7765
वजन 7764
mad@@ 7761
आजाद 7761
republic 7760
संचालक 7757
पशु 7754
व् 7752
फीट 7749
प्रोफेसर 7747
rukh 7745
अनुवाद 7743
उतार 7743
certificate 7742
platforms 7740
फु@@ 7740
सच्चाई 7736
जीव 7733
ध 7733
flights 7731
सर्@@ 7731
स्वस्थ 7731
पकड़े 7729
operators 7726
lived 7725
ratio 7719
kaur 7718
देखिए 7718
conversation 7716
ॅ@@ 7716
पार्किंग 7714
pradhan 7710
जोड़ 7708
रद्द 7708
मस्जिद 7707
ht 7704
electronic 7703
वस्तु 7703
विवेक 7703
employee 7702
advised 7701
et 7700
ft 7700
पेंशन 7699
differences 7696
जुड़ा 7696
पहुंचाने 7696
स्टे@@ 7692
lawyers 7691
णा 7689
signs 7681
ै 7681
attitude 7680
stores 7680
स्मृति 7679
/@@ 7678
citizen 7678
trillion 7677
ings 7676
vikas 7674
नवम्बर 7674
joining 7669
कैंप 7668
moves 7666
olympic 7666
बर्@@ 7666
बाहरी 7666
चा 7664
निक 7663
ी 7662
diet 7658
अर्@@ 7656
encourage 7655
sun@@ 7655
क़@@ 7653
चीफ 7652
जर 7652
काला 7650
देरी 7650
sustainable 7649
आधे 7644
रक्त 7641
finish 7640
church 7639
regulations 7635
auction 7634
chidambaram 7634
ंड 7634
ब्रिटिश 7632
मुद्रा 7632
उत्सव 7629
worse 7627
सहज 7627
smith 7621
इसलिये 7621
फर्क 7619
यौन 7615
रोहित 7615
सां@@ 7614
clash 7613
महेश 7612
operational 7606
amarinder 7601
सन् 7601
radio 7600
चूंकि 7600
promoting 7599
sachin 7599
detained 7585
gained 7585
जल@@ 7583
pilot 7582
navy 7581
दस्तावेज 7580
bag 7579
bmc 7579
resignation 7578
wave 7575
एफ 7574
bed 7573
संचार 7573
maintenance 7572
novel 7571
तन 7571
मुफ्त 7569
नौ@@ 7567
syed 7564
violent 7562
suresh 7561
gross 7560
ias 7560
श्रीलंका 7560
suit 7557
संस्करण 7552
extend 7551
ash@@ 7550
ji@@ 7550
imran 7549
filmmaker 7548
जज 7548
प्रतिदिन 7548
alive 7547
भक्त 7547
मौ@@ 7546
विस्तृत 7546
ot 7543
sir 7543
कब्जे 7542
enable 7541
खि@@ 7540
innovation 7539
गेहूं 7539
locations 7538
सहमत 7536
apps 7535
secret 7532
surface 7532
लोक@@ 7529
paul 7528
supposed 7528
ec 7526
टिंग 7525
गरीबी 7521
manoj 7519
prevention 7517
करवाई 7516
झा@@ 7516
दिनांक 7515
सदा 7512
sustained 7506
margin 7505
yourself 7505
fought 7503
mix 7503
scores 7503
exactly 7502
bonds 7499
शो@@ 7498
blast 7496
regulator 7496
क्रांति 7493
श्रीमती 7492
K@@ 7491
मजदूरों 7487
मुकाबला 7487
फंड 7486
विधेयक 7486
messages 7485
circumstances 7483
sort 7482
सुविधाएं 7480
pe 7478
अंतर्राष्ट्रीय 7478
उपभोक्ता 7475
निकाली 7475
यर 7473
investor 7472
दफ्तर 7472
भेजे 7468
virus 7466
इंदिरा 7465
कार्यकाल 7465
fraud 7464
ari 7463
राजकीय 7462
राणा 7461
risks 7460
estimates 7459
दाल 7459
दुःख 7459
एटीएम 7458
gar@@ 7457
चलो 7457
लाना 7457
conservation 7453
ब्याज 7453
sing 7451
neighbouring 7449
लिमिटेड 7449
संस्कृत 7448
­ 7445
variety 7444
अल्लाह 7444
पदार्थ 7444
involvement 7442
घाटी 7442
akhilesh 7438
ou@@ 7438
inch 7434
दू@@ 7432
रोशनी 7431
जायेंगे 7430
ब्यूरो 7429
globally 7428
नशे 7427
tribunal 7425
naik 7423
8,@@ 7421
lying 7421
निर्देशक 7420
factory 7419
संशोधन 7419
farooq 7418
पथ 7417
bagh 7416
restrictions 7416
शोषण 7413
aam 7412
94 7408
चौकी 7408
निर्माता 7407
email 7405
scientific 7405
categories 7403
manohar 7403
कॉलेजों 7399
स्ट 7396
sky 7393
begun 7391
कैबिनेट 7390
dar@@ 7389
nia 7388
ho 7387
पाना 7387
बनाये 7386
collector 7384
riots 7384
मों 7379
reference 7378
रिकार्ड 7378
समझौता 7378
सेवाओं 7378
cutting 7377
iit 7377
ki@@ 7377
यूनिट 7377
रेट 7372
ed@@ 7371
turns 7371
tickets 7370
slogans 7368
hindustan 7365
holy 7364
mechanism 7364
politician 7364
सफेद 7360
छोड़ने 7358
याँ 7358
रुख 7357
लाइट 7357
कराए 7356
97 7354
नवीन 7354
ay 7353
साहिब 7352
मतदाता 7349
fed 7348
पाठ्यक्रम 7345
तत्व 7344
केन्द्रीय 7343
सैन्य 7343
गठित 7342
acquired 7341
हस्ताक्षर 7340
टो 7339
apparently 7336
truck 7334
महात्मा 7333
व्रत 7330
बनना 7329
०० 7328
आतंकवादी 7327
गहरी 7327
छा 7327
chowk 7325
colony 7323
pan 7319
soft 7319
ara 7317
imports 7315
exams 7309
प्रबंधक 7309
र्स 7309
bomb 7308
deepak 7308
कनेक्शन 7308
nag@@ 7307
मनोरंजन 7307
गाँधी 7306
strict 7303
काबू 7300
mahindra 7299
राजनैतिक 7299
इस्तीफा 7298
लाइफ 7296
पूजन 7294
ambassador 7291
बसों 7291
ख़@@ 7288
eating 7287
अमरीकी 7287
tradition 7286
expand 7283
requirements 7281
ian 7280
res 7279
प्रबंध 7279
minorities 7277
क्षण 7276
comedy 7275
फ़ा@@ 7275
मानने 7273
इन्हीं 7272
टै@@ 7272
नायक 7271
extension 7270
1998 7269
termed 7269
आएगी 7269
पड़ने 7269
pilgrims 7268
bad@@ 7266
comprehensive 7266
equally 7265
quit 7265
appealed 7262
जोश 7262
पदाधिकारियों 7261
तः 7259
सर्वश्रेष्ठ 7258
atmosphere 7257
establishment 7257
एयर 7257
omar 7255
अज्ञात 7253
creative 7251
नै@@ 7251
ins 7250
gur@@ 7248
रामदेव 7248
वक़्त 7248
समझौते 7247
successfully 7246
मेयर 7244
पं@@ 7243
बिलासपुर 7242
वार्षिक 7242
flat 7241
samajwadi 7240
मैनेजर 7240
मंत्र 7236
संजीव 7235
प्रखंड 7234
machines 7233
भी@@ 7233
delayed 7232
hal@@ 7231
मोड़ 7229
ina 7226
हनुमान 7226
mere 7223
उपस्थिति 7223
बिजनेस 7223
स्वर्ण 7223
increasingly 7222
mahatma 7221
जागरूक 7221
जस्टिस 7220
package 7218
sur@@ 7214
उल्लंघन 7213
श्याम 7213
loved 7212
reduction 7206
वाई 7203
che@@ 7202
ending 7202
कॉ@@ 7201
hussain 7199
pushed 7199
आचार्य 7197
jewellery 7194
गुना 7194
ring 7193
पारित 7193
लड़ने 7193
लॉ@@ 7192
भिन्न 7191
मुहैया 7190
दर@@ 7186
लायक 7184
अवस्था 7183
डांस 7182
कह@@ 7181
उपन्यास 7180
चावल 7180
धोनी 7180
किंग 7176
आदत 7173
धार 7172
completion 7171
effectively 7167
pa 7167
अंदाज 7167
surgery 7165
व्यक्तित्व 7164
ताजा 7163
वर@@ 7163
तें 7162
सब्जी 7160
बनती 7159
निशान 7156
विश्लेषण 7156
हुसैन 7152
झूठ 7151
dozen 7149
agarwal 7148
खतरनाक 7148
ber@@ 7146
korean 7146
ys 7144
bowlers 7143
tiwari 7143
रेडियो 7143
wa 7140
ren@@ 7139
इंजीनियर 7139
tal@@ 7132
पोस्टमार्टम 7132
उठाए 7129
rajesh 7128
dress 7127
ayodhya 7126
pair 7125
हवाले 7125
बदमाशों 7124
alert 7122
allies 7121
बारी 7121
resulted 7119
बं@@ 7119
रह@@ 7119
शुद्ध 7118
संस्थाओं 7114
visa 7113
advice 7109
intervention 7109
mayor 7109
requires 7108
bi 7104
formal 7104
kapil 7103
agree 7099
irrigation 7098
आरोपों 7096
वान 7093
maintaining 7092
abhishek 7091
brazil 7091
floods 7091
विपक्षी 7090
निर्मित 7089
प्रतिबंध 7087
ष 7087
unfortunately 7085
fellow 7083
maybe 7083
du 7079
testing 7079
ity 7078
आश्चर्य 7078
दिक्कत 7077
शास्त्री 7077
bl@@ 7075
maha@@ 7075
मनीष 7074
welcomed 7073
शख्स 7073
suggests 7072
ठोस 7071
targets 7070
बस्ती 7070
unity 7069
व्यस्त 7069
ंड@@ 7067
गर 7064
लीग 7063
collaboration 7061
10.@@ 7056
इंस्पेक्टर 7054
कार्यरत 7052
वर्णन 7052
representative 7051
pulled 7049
कक्ष 7048
नेट 7048
रफ्तार 7046
relatives 7045
sheet 7045
flying 7043
ac 7040
prison 7040
लगाना 7040
chancellor 7039
शी@@ 7038
बैग 7037
बहाने 7036
,2010 7032
diwali 7032
yo@@ 7032
ray 7031
डाली 7031
सौ@@ 7031
रै@@ 7029
drawn 7028
छु@@ 7025
मकसद 7025
अति 7023
बैठकर 7021
रावत 7021
बढ़ोतरी 7018
उन्होने 7016
soil 7015
continuing 7013
मांगों 7010
secular 7009
सों 7009
चेतना 7008
amitabh 7005
episode 7005
उ 7001
900 6999
बढ़ता 6995
दोस्ती 6994
background 6992
sciences 6992
असल 6992
एं@@ 6992
ताओं 6991
analyst 6990
storm 6989
जीते 6988
settled 6987
मेट्रो 6987
olympics 6986
strikes 6983
खाता 6981
memorial 6980
shape 6980
yogi 6980
कंट्रोल 6978
easier 6976
कार्य@@ 6975
expensive 6974
लि 6974
श्रद्धालुओं 6974
actual 6971
stakeholders 6971
I 6969
सौंपा 6969
E@@ 6966
bills 6966
michael 6966
सदी 6963
marked 6960
ज्योति 6960
जोड़ने 6959
proof 6953
वादा 6953
colours 6952
सोचने 6951
11.@@ 6949
quarters 6948
गौतम 6947
clothes 6945
ty 6944
परिस्थितियों 6944
गाना 6943
आमिर 6941
comfortable 6940
ठ 6940
पर्@@ 6940
availability 6939
चीजों 6939
broken 6937
साधना 6936
बू@@ 6935
चीजें 6931
प्रकाशन 6929
roll 6927
महोत्सव 6923
aside 6922
import 6920
टॉप 6920
लोन 6919
आरंभ 6918
समर्थकों 6918
chairperson 6917
फ्@@ 6917
सुशील 6917
cu@@ 6916
spectrum 6916
performances 6914
रोका 6914
establish 6912
urdu 6911
mandatory 6908
गिरी 6908
रिसर्च 6906
dmk 6903
मानो 6902
संपादक 6902
azad 6901
सेन 6901
manish 6900
shortage 6898
ajit 6895
चांदी 6894
province 6892
rec@@ 6892
forget 6891
फैशन 6891
deadline 6890
lay 6890
motion 6889
साहू 6888
अनुरोध 6886
संबंधों 6886
we@@ 6885
cycle 6883
son@@ 6883
please 6881
tr@@ 6880
chose 6879
अपेक्षा 6878
जितने 6878
missed 6877
खंड 6877
स्मार्ट 6877
tions 6876
experienced 6875
letters 6875
फ्री 6875
bur@@ 6873
winners 6871
निधन 6871
मुखिया 6868
for@@ 6867
fadnavis 6866
ही@@ 6865
जयंती 6863
ढेर 6861
कार्@@ 6860
कौ@@ 6859
साफ़ 6859
occurred 6858
सिद्धांत 6858
faster 6856
जुर्माना 6856
माध्यमिक 6854
किरण 6851
rajnath 6850
kamal 6849
dy 6847
languages 6847
eligible 6845
बुद्धि 6841
audit 6840
african 6839
तरफ़ 6837
संदिग्ध 6836
सुपर 6836
हैदराबाद 6835
conducting 6834
jio 6833
गोयल 6829
forests 6826
loc 6826
आएंगे 6825
mc@@ 6824
ड़े 6824
भाषाओं 6823
literature 6822
अंग 6822
closely 6821
बॉक्स 6821
procedure 6820
अवगत 6820
मैचों 6820
bas@@ 6818
screening 6817
अपहरण 6815
धर्म@@ 6815
लग@@ 6815
वसूली 6814
likes 6813
जू@@ 6812
बहु@@ 6811
brief 6810
गुजर 6810
06@@ 6809
exposure 6809
duties 6807
tmc 6807
प्रतिमा 6803
आडवाणी 6802
स्नान 6800
unlikely 6799
char@@ 6798
reducing 6798
I@@ 6797
stayed 6797
कन्या 6796
repeated 6793
uri 6793
अभिनय 6793
ंट 6792
कटौती 6792
belonging 6790
संस्थानों 6790
साजिश 6790
सिलसिला 6790
dealing 6789
फी@@ 6789
far@@ 6788
गाय 6788
धारण 6788
सौंप 6783
ach@@ 6781
challenged 6777
familiar 6776
श्रृंखला 6776
रोजाना 6775
her@@ 6774
गुस्सा 6774
ca 6773
पार्टियों 6770
closer 6768
opposite 6768
पोल 6768
कृपया 6767
देवता 6765
burning 6764
”@@ 6763
cited 6762
script 6762
hundred 6759
अप 6759
अभिव्यक्ति 6755
scoring 6754
सीख 6753
म् 6751
chosen 6750
पेयजल 6750
resource 6749
document 6746
cancelled 6744
mat@@ 6743
hits 6742
rock 6741
dominated 6738
garbage 6735
खुल 6735
पांडेय 6733
व्यापारियों 6731
ट्रैक 6729
ali@@ 6728
burden 6728
regularly 6728
अहसास 6727
sts 6725
mixed 6724
policemen 6723
ab 6721
varun 6721
plane 6720
शा 6720
समर्थक 6720
plot 6719
पूर्वक 6719
ब्@@ 6719
12.@@ 6717
ga 6713
गरीबों 6713
पूछे 6713
worker 6712
worldwide 6710
एकड़ 6710
जरिये 6709
प्रियंका 6709
advisory 6708
combined 6707
पाप 6706
बैठी 6705
आतंकियों 6704
coffee 6703
rank 6701
यूरोप 6701
इंडस्ट्री 6700
older 6699
van@@ 6699
एसएसपी 6698
अदा 6697
कैद 6697
05@@ 6696
लू 6695
hill 6693
ग्राहक 6692
ख्याल 6691
सेवन 6690
generally 6686
shetty 6684
wild 6684
राशन 6684
historical 6683
pitch 6683
संग 6683
han@@ 6682
स्थायी 6681
काफ़ी 6680
निकली 6680
बद@@ 6680
समर्पित 6679
खतरे 6678
escape 6677
attract 6676
voted 6676
अजीब 6675
खासकर 6673
स्वीकृति 6673
af@@ 6672
हैः 6671
amritsar 6670
findings 6670
दायरे 6670
रेप 6669
commander 6668
ata 6666
fa@@ 6666
telling 6666
बगैर 6666
हॉस्पिटल 6666
ek 6665
ent 6665
खनन 6664
शर्त 6664
जोड़ी 6658
हट 6655
प्राप्ति 6654
bags 6652
चलेगा 6651
counsel 6650
glass 6648
possession 6648
जर्मनी 6648
ride 6646
fi 6642
falls 6641
affordable 6640
obviously 6640
ste@@ 6638
smartphones 6635
कुर्सी 6634
जाएंगी 6633
केंद्रों 6632
कामयाब 6630
दुर्गा 6630
jnu 6629
anger 6625
framework 6625
धी 6625
sending 6622
1990 6621
hasn 6619
um 6618
उत्@@ 6613
पक्षों 6612
चै@@ 6611
materials 6610
1996 6609
वाणी 6608
regulation 6606
बेच 6605
treat 6604
अतिक्रमण 6603
backward 6600
वर्षा 6600
explain 6599
कैसी 6598
allocation 6596
highlighted 6596
trailer 6596
ऊ 6596
bhavan 6595
integrated 6595
whenever 6595
उत्तरी 6594
ye@@ 6593
outcome 6592
आईपीएल 6592
संदेह 6592
जाल 6588
replaced 6587
काव्य 6586
ग्वालियर 6586
पड़ोसी 6585
भेंट 6585
val@@ 6584
vital 6584
wind 6583
realised 6579
रियों 6579
lakhs 6576
़@@ 6575
ंगे 6570
उत्पादों 6570
staged 6569
ठेकेदार 6566
पान 6566
योगी 6566
colleagues 6565
finds 6564
भेजी 6564
9,@@ 6562
sees 6562
कल@@ 6561
40@@ 6559
george 6555
करा@@ 6555
विष्णु 6555
O@@ 6553
बालक 6550
यकीन 6550
sixth 6549
मांगा 6549
species 6548
यूँ 6547
lowest 6545
nomination 6544
airtel 6543
इकाई 6543
retirement 6540
corridor 6539
reform 6539
आपदा 6539
सूरत 6539
israeli 6538
james 6538
पारा 6538
स्टैंड 6538
sangh 6537
खुली 6535
आस्था 6533
वैश्विक 6530
nar@@ 6529
cyber 6528
gathered 6528
आधी 6528
नल 6528
keeps 6526
नतीजा 6526
cricketer 6523
ness 6523
प्रस्तावित 6522
कम@@ 6521
दरवाजे 6520
prince 6519
एरिया 6519
जग@@ 6519
350 6518
applied 6518
्य@@ 6515
revised 6514
साधन 6513
totally 6512
stable 6509
mag@@ 6508
reaction 6508
समापन 6508
anna 6506
anonymity 6506
rating 6506
interim 6501
अनशन 6500
3,000 6499
सांस 6498
मृत 6496
faculty 6495
kings 6495
mood 6495
thi 6495
समीप 6495
resistance 6494
उपभोक्ताओं 6494
recognition 6492
tic 6491
1984 6485
microsoft 6485
crops 6484
raw 6483
कोटा 6478
combination 6476
देह 6476
प्रसार 6472
खेला 6471
धु@@ 6471
consecutive 6470
मजा 6470
आमतौर 6469
नः 6469
नीतियों 6469
aged 6462
मल 6460
afghan 6459
नरेश 6459
buyers 6457
preparing 6457
रुक 6457
tam@@ 6456
cow 6455
बांग्लादेश 6452
पहाड़ 6451
dutt 6450
constituted 6446
hosts 6445
महेंद्र 6445
talked 6444
format 6441
विवरण 6441
hitting 6440
output 6440
pc 6438
aj@@ 6437
select 6434
rivals 6432
किस्म 6432
मर@@ 6432
distributed 6431
explains 6429
peak 6428
threats 6428
पैदल 6428
रात्रि 6428
sahib 6427
जंग 6427
लिखना 6427
enhance 6426
forecast 6425
माया 6421
pull 6420
कहें 6420
सरस्वती 6419
37@@ 6416
beach 6415
thank 6415
andaman 6414
आर्@@ 6414
बहादुर 6414
ludhiana 6412
शाहरुख 6412
tied 6411
va@@ 6411
sat 6410
excited 6404
khanna 6404
kim 6401
scope 6401
can@@ 6397
advani 6395
ranveer 6393
nc 6392
लियों 6392
स्लाइड्स 6391
walking 6390
aadmi 6388
moral 6387
चपेट 6386
वो@@ 6386
cells 6383
अत्यंत 6381
साझा 6381
ु@@ 6380
masjid 6379
punishment 6379
इंजन 6379
नजदीक 6379
rounds 6378
वैसा 6374
विराट 6372
prayers 6371
सबूत 6369
सॉफ्टवेयर 6369
turkey 6368
कोतवाली 6368
मुखर्जी 6368
causes 6365
गुप्त 6363
स्क्रीन 6363
घो@@ 6358
वास 6357
bjd 6355
celebration 6354
pieces 6354
कंपनियां 6353
mw 6349
20,000 6348
chi@@ 6348
मेरठ 6346
var@@ 6345
पहुंचकर 6345
ats 6344
desire 6344
blame 6339
magazine 6339
ौ@@ 6338
controlled 6337
entering 6336
guests 6334
बर 6330
L@@ 6329
जोड़ा 6329
struggling 6326
गै@@ 6325
advisor 6324
solid 6324
चुने 6324
ladakh 6323
gr@@ 6321
स्वा@@ 6321
opener 6320
priced 6320
दों 6320
F@@ 6319
चर 6319
everybody 6318
रोगी 6318
tendulkar 6317
satellite 6316
ministerial 6314
blamed 6313
fruit 6313
आपसी 6313
दि 6313
lights 6311
contribute 6310
महल 6309
लीटर 6308
साइंस 6308
divided 6306
भक्तों 6305
supplies 6304
कराना 6303
नक्सलियों 6302
facilitate 6301
violations 6301
जूनियर 6301
डाक्टर 6301
mehbooba 6300
exposed 6298
देहरादून 6297
suddenly 6296
मानता 6295
टर@@ 6293
privacy 6291
queen 6290
अपराधियों 6290
widely 6289
कुलपति 6289
contemporary 6287
innocent 6287
par 6287
सब@@ 6287
बिहारी 6286
त्याग 6284
अक्षय 6283
प्राथमिकता 6282
हम@@ 6282
उन्हे 6279
super@@ 6278
डीएसपी 6278
rjd 6276
visits 6276
आकर्षित 6276
ज़रूरत 6276
नीरज 6276
विमर्श 6275
लड़का 6273
ै@@ 6272
03@@ 6271
advertising 6271
गहरा 6271
लने 6271
circle 6270
आन्दोलन 6270
generated 6269
जताया 6269
myanmar 6268
क्ष@@ 6268
meaning 6267
argued 6266
mer@@ 6266
az@@ 6265
अभिनेत्री 6265
गी@@ 6265
कर्नाटक 6264
types 6261
मोटर 6261
घंटों 6259
मैनेजमेंट 6257
heavily 6256
pl@@ 6255
शास्त्र 6255
mandate 6254
wonder 6254
ipc 6253
graduate 6252
000 6251
धाम 6247
experiences 6246
suffer 6242
alongside 6241
sc@@ 6241
प्रिंसिपल 6240
बोझ 6239
bal 6238
bear 6238
जागरूकता 6238
realise 6237
क्रिया 6235
भरपूर 6235
तट 6234
hurriyat 6233
extreme 6232
investigations 6229
राय@@ 6229
san 6228
माला 6228
bhat 6227
आपत्ति 6227
earn 6226
टिक 6226
रहकर 6225
judgment 6224
चक्र 6223
compliance 6221
behalf 6219
protesting 6217
mayawati 6216
फाइल 6215
saffron 6214
चूत 6214
pink 6212
slowdown 6212
लुधियाना 6212
A 6210
ah@@ 6209
blocks 6209
rana 6208
अल्@@ 6208
walked 6207
नंद 6207
silence 6205
operate 6201
determined 6200
मुझ 6200
तेरा 6199
भावनाओं 6199
वैज्ञानिकों 6199
fundamental 6198
hate 6197
limits 6197
bowler 6196
मीणा 6195
usa 6194
अपराधी 6192
मूल्यांकन 6192
shahid 6190
acres 6189
विस्फोट 6189
ni 6188
pride 6188
questioning 6188
engineers 6183
stretch 6183
targeting 6182
इंतजाम 6182
ambani 6179
रिश्ता 6179
rooms 6178
ट्@@ 6178
नि 6178
shrine 6176
उर्दू 6176
एफ@@ 6175
बीबीसी 6174
ley 6172
secured 6171
pacific 6170
tested 6170
failing 6169
baba 6168
अनाज 6167
सतीश 6165
मार्@@ 6162
काटने 6161
ator 6160
batsmen 6159
ss 6159
04@@ 6158
लौ@@ 6157
10,@@ 6156
विशेषज्ञों 6155
explore 6153
aditya 6152
outstanding 6151
सुनते 6151
11,@@ 6149
गिरने 6147
सेकंड 6146
broad 6144
निपटने 6144
1993 6140
बताए 6139
मरम्मत 6139
garden 6137
invested 6137
joy 6137
fees 6136
विहार 6136
रंग@@ 6135
खोला 6131
पैमाने 6131
enterprises 6130
सेवाएं 6130
आं@@ 6129
hari 6128
rehabilitation 6128
दोनो 6128
participating 6127
settlement 6121
ब्राह्मण 6120
डिप्टी 6119
भट्ट 6119
ij 6118
moments 6116
clashes 6114
monitor 6113
suggestions 6111
सेंट्रल 6110
metres 6107
रिजर्व 6106
हरि@@ 6106
गिरोह 6103
उठाकर 6102
arora 6099
exclusive 6099
औ@@ 6099
ड़ा@@ 6098
मुख 6097
ठंड 6094
अस्पतालों 6093
रुचि 6092
benchmark 6090
remote 6090
मेंट 6089
शुरूआत 6087
ancient 6086
les 6085
meal 6082
निरंतर 6082
रावण 6082
पहाड़ी 6081
metal 6079
constant 6077
ranjan 6076
resulting 6076
vegetables 6076
बिन 6075
संतुलित 6074
ler 6073
negotiations 6072
truly 6070
फायर 6070
दरवाजा 6069
professionals 6068
missile 6067
voter 6065
stuck 6064
aur 6063
raipur 6063
गर्व 6063
dev@@ 6062
legislators 6061
बोलते 6061
भे@@ 6059
wi@@ 6058
appearance 6056
argument 6056
gautam 6056
italy 6055
requirement 6055
discovered 6054
गोद 6054
सोचते 6052
डीजल 6051
भेद 6048
window 6047
जन्मदिन 6047
उम्मीदवारों 6045
कांग्रेसी 6045
राजू 6044
links 6042
smooth 6042
अनुरूप 6042
:49 6041
ising 6041
ker 6041
जेब 6041
aggressive 6039
sed 6039
न्यायिक 6039
ya@@ 6038
savings 6037
stones 6037
चिकित्सक 6037
text 6035
civilians 6033
सिंचाई 6032
developments 6031
volume 6031
divisional 6030
journal 6030
कपिल 6030
ghosh 6029
rupees 6029
diplomatic 6028
undertaken 6027
सोसायटी 6026
ganga 6023
सीजन 6023
legislation 6021
1991 6020
केरल 6020
लघु 6020
dog 6019
ster 6017
civilian 6015
स्ट@@ 6014
handling 6013
repeatedly 6013
मित्रों 6013
worried 6009
deposits 6005
trinamool 6002
destination 5999
shukla 5999
mir 5998
processing 5998
इत्यादि 5996
गिरा 5996
pora 5995
आकर्षण 5995
:47 5994
expenses 5994
withdraw 5994
saving 5993
छाया 5992
कोने 5990
संहिता 5990
withdrawal 5988
त्रिपाठी 5984
दादा 5984
साक्षात्कार 5984
update 5983
flipkart 5980
origin 5980
quota 5979
tor@@ 5978
sat@@ 5977
व्यावसायिक 5976
चेन्नई 5975
मील 5974
developers 5972
mosque 5971
1992 5968
interestingly 5967
kashmiris 5967
resolved 5967
shock 5966
ations 5963
माफी 5962
गीतों 5961
naga 5959
frame 5958
introduce 5958
investing 5958
जोखिम 5958
लाए 5958
los 5957
holiday 5956
मेहता 5956
institutional 5955
कम्पनी 5955
consequences 5953
mun@@ 5953
staying 5953
पाठकों 5953
कीमतों 5951
पूछ 5950
लाश 5950
crew 5946
diabetes 5946
ऐ 5946
announce 5945
pattern 5943
चौथे 5942
sanctioned 5941
मिलेंगे 5941
शरण 5939
temporary 5938
किन 5938
चे 5937
एकमात्र 5935
vulnerable 5932
बनाता 5932
संवेदनशील 5930
stability 5927
minds 5926
पहुंचाया 5925
बैठने 5925
pool 5923
launching 5922
अकादमी 5922
represented 5921
household 5920
फू@@ 5920
impressive 5918
गो 5918
hub 5917
warm 5917
ec@@ 5916
मय 5916
jam@@ 5915
बचे 5915
cs 5914
transparency 5913
odd 5912
dated 5911
cool 5910
गवाह 5910
amazing 5909
लेन 5908
aspect 5907
हुईं 5906
वरना 5904
1st 5903
ati 5903
kun@@ 5902
गणित 5902
generate 5899
शरद 5899
dig 5898
चढ़ 5898
जीवित 5898
tension 5897
मारी 5897
beneficiaries 5894
americans 5893
coastal 5893
proposals 5893
अधिकारों 5892
लड़ 5892
हॉल 5892
लोकपाल 5891
संयोजक 5891
dogs 5889
शिक्षण 5889
ीय 5889
johnson 5888
इस@@ 5888
telugu 5887
ff 5886
replace 5886
बाज़ार 5886
resort 5884
बिल्डिंग 5884
बुनियादी 5884
मनाने 5884
रत 5884
producers 5883
अखिल 5881
goyal 5880
devotees 5879
din 5879
स्वाभाविक 5879
perspective 5878
medicines 5876
deposit 5875
सार्थक 5875
लय 5874
जिंदा 5873
est 5870
भूत 5870
ists 5869
पाएंगे 5869
punjabi 5868
,2011 5866
dam 5865
madrid 5865
shopping 5864
christian 5863
जाँच 5863
contesting 5862
रखती 5860
bigg 5859
fill 5859
entrance 5858
भजन 5858
hoping 5857
मतदाताओं 5857
आशीष 5854
existence 5853
2nd 5852
tensions 5851
तियों 5851
kick 5850
तारीफ 5850
आलेख 5849
धा 5848
ू@@ 5848
gurgaon 5847
routine 5847
wala 5847
शताब्दी 5846
उतनी 5844
meat 5843
cook 5842
अमृतसर 5842
राज्यसभा 5841
:34 5839
infosys 5839
बरसात 5839
innovative 5837
परिचित 5837
बढ़िया 5837
anywhere 5836
ranked 5836
ज़ा@@ 5834
रनों 5834
ग्रस्त 5832
ies 5831
सिपाही 5831
consideration 5830
ment 5830
इंकार 5828
पत्रों 5828
खबरें 5827
ताल 5827
एक@@ 5826
pioneer 5825
bay 5824
चाह 5824
टीमों 5824
ट्रस्ट 5824
पौधे 5823
नाक 5822
कोरिया 5821
खेले 5820
बदमाश 5820
wherein 5819
economics 5818
capable 5816
अन्तिम 5816
वत 5816
franchise 5815
vigilance 5815
reveals 5814
triggered 5814
mil@@ 5813
नाबालिग 5813
worry 5811
vast 5808
1997 5807
au@@ 5807
cctv 5803
chand 5803
bronze 5801
representation 5801
:57 5800
subsequently 5799
मेन 5799
सरदार 5799
chouhan 5796
motors 5796
क्रेडिट 5796
दृष्टिकोण 5794
बल@@ 5794
contributed 5792
W@@ 5789
impossible 5789
notably 5789
प्राण 5788
भाभी 5788
native 5787
dimapur 5786
जगदीश 5785
ang 5784
डीएम 5782
कागज 5780
सीसीटीवी 5780
owing 5779
कने 5779
हकीकत 5778
raped 5777
डु@@ 5777
नरेन्द्र 5777
aamir 5775
स्रोत 5775
spoken 5774
पढ़े 5773
हिस्सों 5773
bright 5772
तत्वों 5772
:51 5770
ola 5770
si 5770
greatest 5769
powered 5768
कोहली 5768
प्राचार्य 5768
लैंड 5768
expressing 5767
सर्व@@ 5767
चाहि 5766
भागीदारी 5765
vo@@ 5764
interaction 5762
arrival 5761
communications 5759
usual 5758
तीस 5758
पीड़िता 5757
fly 5756
yojana 5756
सचमुच 5756
साइ@@ 5755
ath@@ 5754
hrs 5754
ten@@ 5754
aiadmk 5753
ट्वीट 5753
maruti 5752
merely 5752
unknown 5749
alcohol 5748
petroleum 5748
cr@@ 5745
आलोक 5745
10th 5744
critics 5744
टाइम्स 5744
दीपावली 5743
देनी 5741
ngo 5740
alleging 5739
खरीदी 5739
देखभाल 5738
35@@ 5737
thousand 5737
witnesses 5737
ट्विटर 5737
छोड़ा 5736
कार्यकारी 5735
sufficient 5734
शीर्षक 5734
reporter 5733
sitharaman 5733
हमसे 5730
scenes 5727
फ्रांस 5727
iranian 5726
taught 5726
गोल्ड 5725
visible 5724
अहमदाबाद 5722
secretariat 5721
writers 5721
करेंगी 5721
manufacturers 5719
भर@@ 5719
कोड 5717
वंचित 5717
convention 5716
fail 5716
guide 5716
शुक्ला 5716
जाएँ 5714
attached 5711
जनपद 5709
engagement 5708
खेतों 5707
:41 5706
beaten 5706
मंदिरों 5706
associate 5704
भैया 5704
:31 5702
crossed 5702
excise 5702
:38 5700
seed 5700
बल्लेबाज 5700
शाही 5700
narayan 5693
ंद@@ 5693
सें@@ 5693
घूम 5692
gun@@ 5691
:43 5690
rescued 5690
coordination 5688
manipur 5688
प्रवीण 5687
youtube 5686
गं@@ 5684
lie 5683
subjects 5682
mainstream 5679
इंटरव्यू 5679
ऋषि 5679
lending 5678
:42 5677
danger 5677
charging 5676
wise 5675
spain 5674
छो@@ 5674
टर्स 5674
एसी 5673
:36 5672
wishes 5672
बुजुर्ग 5671
फ़ि@@ 5670
शुभारंभ 5668
ping 5667
अल@@ 5667
institutes 5666
कैलाश 5666
momentum 5665
निर्यात 5665
desai 5664
suspect 5664
आँखें 5662
sentence 5661
ter@@ 5660
बनते 5660
settle 5658
सुनी 5658
पिटाई 5657
दर्जा 5656
chair 5652
सरकारों 5652
absolutely 5649
correct 5649
किराया 5649
फेंक 5649
सहारे 5649
बेस्ट 5647
स्नातक 5647
expects 5646
समझना 5646
california 5645
mac@@ 5644
cloud 5643
unfortunate 5642
ज़िन्दगी 5642
त्वचा 5641
अभियुक्त 5636
उड़ान 5635
कवर 5635
hum@@ 5634
वेस्ट 5633
हरिद्वार 5632
followers 5628
split 5628
pen@@ 5627
कोयला 5627
surprised 5626
स्टील 5626
fallen 5623
फॉर्म 5623
unprecedented 5622
धर 5621
हॉ@@ 5621
sum 5618
शनि 5618
लेगा 5617
appreciated 5616
उजागर 5616
dgp 5615
triple 5615
एजेंसियों 5614
beating 5610
भूषण 5609
ham@@ 5608
बाजी 5608
चलना 5607
manchester 5606
बिग 5605
यूरोपीय 5605
प्राधिकरण 5604
kat@@ 5603
स्वभाव 5603
ages 5602
md 5602
deeply 5601
intense 5601
36@@ 5600
by@@ 5600
dates 5600
wouldn 5600
entrepreneurs 5599
gan@@ 5599
judiciary 5599
खिताब 5599
fears 5598
towns 5598
मुआवजा 5598
amongst 5597
angry 5597
tion 5596
instructions 5595
ly@@ 5595
personally 5594
lone 5592
indore 5591
हराया 5591
हीरो 5591
adityanath 5590
फैल 5590
jag@@ 5587
buzz 5586
waters 5586
क्र@@ 5586
soul 5585
accidents 5584
classic 5584
dreams 5583
stronger 5582
tragedy 5581
:46 5580
bike 5580
पकड़ने 5577
सीईओ 5576
अधिग्रहण 5575
ze 5574
gift 5573
rani 5573
कोट 5573
टेंडर 5573
हरे 5573
relatively 5572
अभियंता 5572
uber 5570
पीछा 5570
अधिवक्ता 5569
belt 5568
कमाल 5568
खबरों 5568
नवा@@ 5567
जानना 5563
लिखकर 5563
solve 5562
rajan 5560
कुत्ते 5559
ट्रे@@ 5559
डेटा 5559
जमाने 5557
लाकर 5557
highlights 5556
padukone 5556
blocked 5554
जुट 5554
बंदी 5554
विभागीय 5553
कृपा 5551
grade 5550
res@@ 5550
dha@@ 5549
legacy 5549
प्रारंभिक 5549
:32 5548
parrikar 5548
भ्रष्ट 5548
narrative 5547
श्रद्धा 5547
बुद्ध 5546
प्रि@@ 5545
01@@ 5543
वनडे 5543
birds 5542
उपायुक्त 5540
mega 5539
कला@@ 5539
copy 5538
जिलाध्यक्ष 5538
cooperative 5536
रोशन 5535
बॉ@@ 5534
वानी 5533
गला 5532
sandeep 5531
wood 5531
presentation 5529
उन् 5529
ini 5528
टॉ@@ 5528
dalits 5525
कन्@@ 5525
नर@@ 5525
destroyed 5524
यमुना 5524
वाकई 5524
दशा 5523
clients 5522
vis 5522
घा@@ 5520
tt@@ 5517
:54 5516
clearance 5516
reserved 5515
cement 5514
पांडे 5513
ambitious 5512
hosted 5512
ईमेल 5511
विनय 5511
सैनी 5511
wards 5510
rakesh 5509
गुरू 5508
lalu 5507
आशीर्वाद 5507
आह्वान 5507
harsh 5506
पोस्टर 5504
batch 5503
jai 5503
happiness 5500
judgement 5500
personality 5500
अा@@ 5497
bottom 5496
अफगानिस्तान 5490
अवतार 5490
टल 5490
:53 5489
farming 5489
वॉ@@ 5489
उठता 5488
ऑफ़ 5488
फिट 5488
structures 5486
आलम 5486
boat 5484
lands 5484
recalled 5484
ze@@ 5484
विपणन 5484
लव 5483
ensured 5482
नव 5482
मांगने 5482
admit 5481
situations 5481
mob 5480
passion 5480
गार्ड 5480
lee 5479
rapid 5479
जुटे 5479
ked 5478
subsidy 5478
अर्चना 5478
xiaomi 5477
पचास 5476
दरबार 5473
मच 5473
पुत्री 5471
tra@@ 5470
जॉन 5469
:48 5468
sporting 5468
अनुसूचित 5468
ash 5467
malaysia 5467
कांड 5466
sk@@ 5465
सलाहकार 5465
cl@@ 5463
अद्भुत 5462
aren 5461
नक्सली 5461
जला 5460
gm 5458
youngsters 5458
dna 5457
fernandes 5456
mail 5456
घुस 5456
दारों 5456
bhai 5455
tive 5455
contacted 5452
engage 5452
eve 5452
tackle 5452
मंजिल 5452
tracks 5450
अब्दुल 5450
ful 5449
कम्प्यूटर 5449
डालकर 5449
लक्षण 5449
airways 5447
prosecution 5447
घी 5447
aw@@ 5446
speaks 5444
दिलीप 5444
दर्शक 5443
अंकित 5442
crash 5441
root 5441
ताला 5441
बहू 5441
रिश्तों 5441
:04 5440
fo@@ 5440
ut 5438
थोड़े 5438
recognised 5437
chemical 5435
उपयोगी 5434
हीन 5434
गन 5433
transaction 5432
childhood 5431
coverage 5431
sw@@ 5431
इन्होंने 5431
revolution 5428
बनेगा 5427
:56 5426
ath 5424
sidhu 5424
मद्देनजर 5424
घायलों 5422
बो 5422
bsf 5420
abad 5417
asi 5415
cho@@ 5414
यूपीए 5414
relating 5413
बह 5413
मौजूदगी 5412
pant 5409
complained 5408
lift 5408
yan 5407
reporting 5406
धि@@ 5406
मासूम 5405
1947 5404
:44 5404
print 5404
ख़ुद 5404
चीज़ 5404
:59 5403
politically 5403
चन्द्र 5402
ford 5401
अंडर 5401
इक 5401
निंग 5401
नियों 5400
ग्रीन 5399
मानें 5399
collect 5397
cum 5397
spiritual 5395
thrown 5395
हादसा 5394
listen 5393
झील 5393
drawing 5392
holders 5392
arab 5390
properly 5390
जड़ 5389
ब्लाग 5387
jump 5384
killings 5384
formula 5383
popularity 5381
अमल 5381
akhtar 5380
boundary 5380
gopal 5380
ocean 5380
sweet 5380
nu@@ 5375
mine 5374
ट्रेनों 5374
सर्वोच्च 5373
ससुराल 5373
इनसे 5372
लकड़ी 5372
सिख 5372
सास 5371
bloomberg 5370
cur@@ 5370
litre 5370
पुणे 5370
गाली 5369
fate 5368
आरती 5368
expression 5367
तोड़ने 5366
:39 5364
indicated 5364
टु@@ 5364
fighter 5363
stepped 5363
:33 5362
गंदगी 5362
कारोबारी 5358
रूपए 5358
networks 5355
सिं@@ 5355
98@@ 5353
condemned 5353
rallies 5353
sharad 5353
अति@@ 5353
attending 5352
ourselves 5351
कामना 5351
ambedkar 5350
committees 5350
अधि@@ 5349
कबीर 5348
pushing 5347
आकर्षक 5347
:02 5346
efficient 5346
:58 5344
अंतरिक्ष 5343
व्@@ 5343
पूछने 5341
रिश्वत 5341
wan 5339
constantly 5338
ओपन 5338
पीड़ा 5338
वृक्ष 5338
highways 5336
चाल 5336
डाक 5336
ari@@ 5335
कुलदीप 5331
चैनलों 5330
ics 5329
ंडी 5329
हार्दिक 5328
relationships 5327
श्रेष्ठ 5326
बाधा 5325
जिन्दगी 5322
notices 5321
125 5320
tune 5320
ob@@ 5318
तलाक 5318
ultimately 5316
founded 5315
स्वच्छ 5315
parent 5314
mrs 5312
shots 5312
पंजाबी 5309
बाजारों 5309
presently 5305
excellent 5304
एगा 5303
convicted 5301
पैरों 5300
ble 5299
sm@@ 5299
abu 5298
malhotra 5298
आमंत्रित 5298
अर@@ 5296
mukesh 5295
केंद्रित 5295
entirely 5294
पड़ताल 5293
बहरहाल 5293
स्वाद 5292
ranbir 5291
spinner 5291
tribute 5290
योग्यता 5290
4,000 5288
वाराणसी 5287
व्यास 5287
ओम 5285
लौटने 5285
अपमान 5284
genuine 5283
mur@@ 5282
थो@@ 5282
revenues 5281
12th 5280
she@@ 5280
italian 5279
अमीर 5279
यत 5279
com@@ 5278
heading 5278
आंख 5278
ज़रूर 5278
ष्@@ 5278
drink 5277
households 5277
दिखने 5277
meets 5276
आंकड़ों 5276
approximately 5275
studying 5275
जोरदार 5275
primarily 5274
launches 5273
नमक 5272
पाली 5272
भारतीयों 5272
:55 5271
fat 5271
pursue 5269
hanging 5268
micro 5268
counting 5267
:37 5265
encouraged 5265
ses 5265
डाले 5265
पढ़ते 5264
numerous 5263
throw 5263
suspension 5262
पट्टी 5262
भव्य 5262
मस्तिष्क 5261
1995 5259
pr@@ 5259
ज़रूरी 5259
achievements 5258
ग़ज़ल 5257
निकाले 5257
स्टोर 5257
trans@@ 5256
bin 5255
लिन 5255
घटनाएं 5254
लंबा 5254
harmony 5253
rashid 5252
fs 5251
functions 5251
gi 5251
कृष्णा 5251
त्र@@ 5251
निर्मल 5251
झु@@ 5249
bhushan 5248
criminals 5247
गम 5247
फ्लैट 5246
statue 5245
count 5244
enjoyed 5244
medals 5244
सोचता 5244
नकली 5242
लॉन्च 5242
fruits 5241
locked 5241
ण्ड 5240
महतो 5240
:07 5239
licence 5239
vinod 5239
naveen 5237
profits 5237
ईमानदारी 5237
inspiration 5236
shed 5236
ben@@ 5235
फूलों 5235
ce 5234
allotted 5233
underway 5233
belief 5232
click 5232
पाकर 5232
वस्तुओं 5232
बढ़ाया 5231
der@@ 5230
आंकड़े 5230
गुरु@@ 5227
थि@@ 5227
बरकरार 5227
ars 5226
thereby 5224
सांसदों 5224
achievement 5223
memorandum 5223
threatening 5223
ras@@ 5222
लापता 5222
depending 5221
mt 5221
mp@@ 5220
procurement 5218
symbol 5218
cc 5217
णा@@ 5217
लिहाजा 5216
cooking 5214
बोध 5214
sanitation 5213
रेड 5213
उठे 5212
त्मक 5212
2018,@@ 5211
38@@ 5211
mahesh 5211
puts 5211
hal 5209
inputs 5209
सवा 5209
sudden 5208
discrimination 5206
एहसास 5206
छेड़छाड़ 5206
ard 5205
:01 5204
organizations 5204
refugees 5204
possibly 5203
pricing 5202
rumours 5202
max 5201
principle 5200
preliminary 5199
reviewed 5198
प्रत्याशियों 5198
merger 5197
निम्न 5197
gen@@ 5196
johar 5196
offence 5196
मानसिकता 5196
अजमेर 5195
managers 5194
resigned 5194
gra@@ 5193
shelter 5193
अपडेट 5193
शरीफ 5193
slightly 5192
tier 5192
आओ 5192
tight 5191
writes 5191
akali 5190
files 5190
humans 5189
ish@@ 5187
principles 5187
iconic 5185
ंडा 5185
सदस्यता 5184
bagged 5183
neighbours 5182
दहेज 5182
गड़बड़ी 5181
chris 5180
पॉ@@ 5180
वल 5180
31@@ 5177
:09 5177
airports 5177
कामकाज 5177
रंजन 5177
ghulam 5175
दिलचस्प 5173
वि 5173
:08 5172
artificial 5172
बारह 5172
paddy 5171
किराए 5170
जिसमे 5170
ns 5169
क्यूँ 5169
बढ़त 5168
dr@@ 5167
एक्@@ 5167
जिया 5167
बिस्तर 5166
02@@ 5165
constable 5165
ada 5164
photographs 5164
बताना 5162
agents 5161
mani 5160
हाथी 5160
christmas 5159
शुक्ल 5159
strengthening 5157
साउथ 5157
160 5156
त्व 5154
न्यू@@ 5154
brexit 5152
हितों 5152
toilets 5149
सीखने 5149
collective 5148
rti 5147
सुरेंद्र 5147
स्टर 5147
coronavirus 5145
मारकर 5145
सेंट 5145
brilliant 5143
saved 5143
कोर 5143
निधि 5143
method 5142
क्राइम 5142
किताबें 5141
साक्षी 5141
vacant 5140
मलिक 5140
कट@@ 5139
spreading 5137
exciting 5136
टेड 5136
फूड 5135
clinton 5134
taste 5133
कॉम 5132
राग 5132
रोचक 5131
वासियों 5131
transportation 5130
आईटी 5130
लाल@@ 5129
chi 5128
shareholders 5128
गौ@@ 5128
हज़ार 5127
1980 5126
पड़ते 5125
आर्य 5124
reveal 5122
बीमारियों 5119
टेबल 5118
dinner 5117
dual 5117
टीचर 5117
जनसंख्या 5116
responding 5115
नाते 5115
हजारे 5115
afford 5114
पंचायतों 5114
economies 5113
आयकर 5113
centuries 5110
backdrop 5109
map 5109
दिखता 5109
oath 5108
जानती 5108
ips 5107
oneplus 5107
34@@ 5106
nitin 5104
producing 5102
foods 5100
detention 5096
1994 5095
examinations 5095
अनुराग 5094
mini 5092
नहर 5091
वाने 5091
palace 5090
alias 5089
rashtriya 5089
ढा@@ 5089
खेलते 5088
hills 5087
all@@ 5086
indonesia 5086
shortly 5086
सेवक 5086
introduction 5085
combat 5083
फायरिंग 5083
सिफारिश 5083
विक्रम 5082
thoughts 5081
ललित 5081
सभ्यता 5081
1989 5079
आफ 5079
pad@@ 5078
represent 5078
efficiency 5077
lic 5077
restaurants 5077
classical 5075
consensus 5075
nifty 5075
उपरोक्त 5075
ठा@@ 5075
भू 5075
pura 5073
watched 5073
तुझे 5073
नागपुर 5073
liquidity 5072
घटनास्थल 5072
अन्तर्गत 5071
कर्ता 5071
हॉकी 5071
outlook 5069
सिरे 5068
rio 5067
पेशकश 5067
शौचालय 5067
वन@@ 5066
ब्रांड 5063
:06 5061
कालोनी 5061
वेद 5060
rear 5058
मनोहर 5058
यज्ञ 5058
accordingly 5055
mines 5055
बीत 5055
studio 5053
मांगे 5053
रोज़ 5053
चाचा 5052
फोर्स 5052
रूट 5052
रेत 5051
tw@@ 5050
आवंटन 5050
मछली 5048
responded 5047
execution 5046
kinds 5046
gallery 5045
,2016,@@ 5044
प्रशंसा 5044
मसले 5044
2019,0@@ 5043
fort 5042
अन्@@ 5042
कमर 5042
सर्वेक्षण 5042
वर्षो 5040
dinesh 5039
pop 5037
starring 5033
सेहत 5031
:03 5029
routes 5029
ह्@@ 5028
शिवराज 5027
occasions 5026
hdfc 5025
ideology 5022
mand@@ 5022
बाल@@ 5022
shan@@ 5021
पूंजी 5020
U@@ 5019
ary 5019
silent 5019
विश्व@@ 5019
criticised 5018
ideal 5017
स्वीकृत 5017
boards 5016
gs 5016
ira 5015
tariffs 5014
fix 5013
ranging 5013
शै@@ 5013
exist 5012
tokyo 5011
:40 5009
raids 5009
follows 5008
jadhav 5008
qualified 5008
अंश 5007
fifa 5006
मौन 5006
asserted 5005
jay@@ 5005
restricted 5005
adi 5004
inclusion 5004
ंद 5004
fortnight 5003
oc@@ 5003
pose 5003
प्रतिनिधित्व 5003
110 5002
चालकों 5002
जों 5002
https 5001
दादी 5001
लन 5001
लम्बी 5001
ित 5001
arrive 5000
अन्यथा 5000
yellow 4999
मास 4999
conclusion 4998
tariff 4997
अकेला 4997
छ 4997
नाराजगी 4995
नू 4995
kareena 4994
ंस@@ 4994
कस्बे 4992
cong 4990
शिखर 4990
protected 4989
आईं 4989
गहरे 4989
प्रयासों 4989
रथ 4989
im 4988
ज़ि@@ 4988
दुश्मन 4988
फुट 4988
elite 4987
सौंपी 4987
फैला 4986
dan@@ 4985
garh 4985
पश्चात 4984
rivers 4983
ऐलान 4983
:35 4982
intention 4982
kin 4982
ade 4978
2018,0@@ 4977
covering 4976
सन्@@ 4976
मजाक 4972
सीधी 4972
borders 4969
depression 4969
प्रांत 4969
हैंः 4969
tend 4966
wal@@ 4966
जाट 4966
removal 4965
स्कीम 4964
परियोजनाओं 4963
मायने 4963
लड़कों 4963
seeds 4961
contested 4959
J@@ 4958
dues 4958
गों 4958
विचारधारा 4956
हरीश 4956
gulf 4955
भूकंप 4955
शिशु 4955
हमलों 4954
कथन 4953
लक्ष्मण 4953
bose 4952
ignored 4952
bandra 4951
isro 4951
slowly 4951
ads 4950
affair 4950
कैमरा 4950
barcelona 4949
starrer 4949
ro 4948
हस्तक्षेप 4948
999 4946
electronics 4946
मनो@@ 4946
implementing 4945
समस्याएं 4945
recover 4943
singing 4943
concrete 4941
upset 4941
curb 4940
पारंपरिक 4939
don@@ 4938
शुरुआती 4938
adopt 4937
एक्स 4937
globe 4934
गर्@@ 4934
पंप 4934
मामूली 4934
स्कूली 4934
:52 4933
elsewhere 4932
दुखी 4932
guards 4931
जनों 4931
परम 4931
ंत 4930
अवकाश 4930
मर्@@ 4930
chef 4929
ज़मीन 4929
बन्द 4929
प्रसारण 4928
रिजल्ट 4928
सुर 4928
packed 4927
लंड 4927
वायु 4926
castes 4925
स्वच्छता 4925
1971 4924
stick 4924
earliest 4923
रजिस्ट्रेशन 4923
साहस 4923
lots 4921
var 4921
बना@@ 4921
लेगी 4921
varanasi 4920
आयात 4920
कनाडा 4920
appearing 4919
warner 4919
कविताओं 4919
मानकर 4918
stream 4917
अपर 4917
दुबे 4917
dollars 4916
highlight 4916
कलम 4916
campaigning 4915
embassy 4915
ओलंपिक 4915
विकिपीडिया 4913
संपूर्ण 4913
108 4912
डाटा 4912
angeles 4911
corrupt 4911
manifesto 4911
purposes 4911
चार्ज 4911
chaudhary 4910
understood 4909
भोजपुरी 4909
pet 4908
northeast 4907
मोह@@ 4907
communist 4904
ty@@ 4904
चौराहे 4904
back@@ 4902
collapse 4902
अध्यापक 4902
1,0@@ 4901
nominated 4901
दुकानें 4899
प्रमोद 4899
tender 4898
lunch 4897
mexico 4897
sentiments 4895
संरचना 4895
pun@@ 4894
tank 4894
entities 4892
gurugram 4892
kitchen 4891
bengali 4890
बेटियों 4890
सर्जरी 4889
guarantee 4887
ol 4887
volunteers 4886
मिनी 4886
इंच 4883
sai 4882
:05 4881
ye 4880
तहसीलदार 4879
ब्लड 4879
बर्बाद 4878
ठाकरे 4875
attacking 4874
fy 4874
46@@ 4873
spaces 4873
closing 4872
encouraging 4872
12,@@ 4871
guidance 4870
preparation 4870
निंदा 4870
सार 4870
aiims 4869
expecting 4869
isis 4868
nawaz 4866
theory 4866
walls 4866
equipped 4865
महावीर 4865
हाईवे 4863
रमन 4861
स्थलों 4861
sh 4860
एक्स@@ 4860
साइड 4859
रख@@ 4857
magic 4856
घड़ी 4856
हैरान 4856
तले 4855
imagine 4854
bil@@ 4853
organic 4853
सक@@ 4853
methods 4852
tur@@ 4852
डिजिटल 4852
दीक्षित 4851
घंटा 4850
डिया 4850
cbse 4849
mah@@ 4849
sl@@ 4849
ously 4848
correspondent 4847
pages 4847
ण्@@ 4847
puja 4846
तल 4846
मुहम्मद 4846
stages 4844
लड़कियां 4844
nam@@ 4842
सूचित 4841
टेक 4840
defending 4839
teach 4839
कार्यकारिणी 4839
परमात्मा 4839
लगा@@ 4839
आंखें 4838
दीपिका 4838
substantial 4836
कैप्टन 4836
चालान 4834
सीरिया 4834
barely 4833
cadre 4833
नीय 4830
ब्रांच 4830
हथियारों 4829
frequent 4828
sentiment 4828
नोएडा 4828
नारेबाजी 4827
musical 4826
ser@@ 4826
हवाला 4826
mistake 4825
करी 4824
परे 4823
राजेन्द्र 4823
signal 4822
sq 4822
cattle 4821
celebrating 4820
कठोर 4819
130 4818
sonam 4818
धारी 4818
lahore 4815
अम@@ 4815
पहलू 4815
हू 4815
ordinary 4814
chapter 4813
thomas 4809
चिंतन 4809
तलवार 4809
हमे 4809
गर्ग 4808
तृतीय 4807
surely 4806
tobacco 4806
अवार्ड 4803
…… 4803
representing 4802
snow 4802
जदयू 4802
celebrities 4801
उपयुक्त 4801
samples 4800
sand 4800
गाड़ियों 4798
नियंत्रित 4798
jawaharlal 4797
jha 4797
एफआईआर 4797
प्रतिनिधियों 4796
library 4795
masses 4795
चोरों 4794
झटका 4793
kargil 4791
अंकों 4791
रण@@ 4791
लिहाज 4791
प्रतिष्ठित 4789
सुख@@ 4789
स्टूडेंट 4789
बजाए 4788
hy@@ 4787
icici 4787
tripura 4787
इशारा 4787
portal 4786
फॉर 4785
आधिकारिक 4784
footage 4783
जिलाधिकारी 4783
ky 4782
ड्स 4782
lenders 4781
unveiled 4781
fled 4780
200@@ 4777
अयोध्या 4777
folk 4776
membership 4776
आप@@ 4775
पारिवारिक 4775
nice 4774
touched 4772
bars 4771
guns 4770
47@@ 4768
जुलूस 4768
obvious 4765
मंजूर 4765
dhar@@ 4764
रिश्तेदार 4764
प्रदर्शनी 4763
मुहिम 4763
ery 4760
occupied 4760
mc 4758
बालों 4758
श्रद्धांजलि 4758
daughters 4756
superstar 4755
राजद 4755
हिंदुस्तान 4755
गहराई 4753
180 4752
lane 4752
भार 4752
मस्ती 4752
hearts 4751
बेकार 4751
दिखे 4750
अखबारों 4749
अनुकूल 4749
आखिरकार 4749
मेडल 4749
चोपड़ा 4745
audio 4744
comeback 4744
huawei 4744
ry 4744
bowl 4743
compete 4743
lucky 4743
दवाओं 4743
पर्यटकों 4743
tools 4742
शतक 4742
atal 4741
maoists 4740
स्व 4740
डोर 4739
भोग 4739
increases 4737
prefer 4735
poster 4734
संसाधनों 4734
retain 4733
capt 4732
ssp 4731
ham 4730
आंतरिक 4730
क्रि@@ 4729
महाविद्यालय 4727
बह@@ 4726
ale 4725
netflix 4725
उपाध्याय 4725
iaf 4723
फंसे 4723
मजदूरी 4723
designs 4722
ज्@@ 4722
amounts 4721
blasts 4721
gadkari 4721
कते 4720
bullet 4719
इमारत 4719
3.5 4717
repair 4716
accusing 4714
devendra 4714
शून्य 4714
customs 4712
नारे 4711
ie 4710
relative 4710
bhagat 4708
जीएसटी 4708
drew 4707
39@@ 4706
significance 4706
sushma 4706
tool 4706
भ्रम 4706
दलितों 4704
crossing 4701
narrow 4701
आपराधिक 4701
तुलसी 4701
championships 4700
integrity 4700
ख़त्म 4700
चर्च 4700
iqbal 4699
आहार 4698
प्रसन्न 4698
एक्शन 4697
गोवा 4697
badly 4696
progressive 4696
इजाजत 4696
closure 4694
संभावित 4694
ग्लोबल 4693
prestigious 4692
redmi 4692
vendors 4692
आत्म 4691
wheat 4690
weekly 4689
thailand 4687
नदियों 4687
drought 4686
इंटर 4686
सीन 4686
segments 4684
धन@@ 4684
riding 4682
प्रत्यक्ष 4682
seconds 4681
उत्तम 4681
डो 4681
बहुमत 4681
businessman 4680
आँख 4680
वाना 4679
tel 4678
passes 4677
unemployment 4676
ves 4676
प्रवाह 4676
contain 4675
मिस 4675
आत्म@@ 4673
symptoms 4672
्या@@ 4672
attractive 4671
ist@@ 4671
बॉस 4669
perception 4668
प्याज 4668
आंसू 4667
सुमन 4667
painting 4666
chand@@ 4665
secretaries 4665
labourers 4664
बल्लेबाजी 4664
gowda 4663
processes 4663
ranks 4663
thane 4663
कमान 4663
श्रद्धालु 4663
mulayam 4662
टाइ@@ 4662
पिताजी 4662
commuters 4661
क्विंटल 4661
चंद्र@@ 4658
बालिका 4658
बुला 4657
applicable 4656
सौदा 4656
पशुओं 4655
बां@@ 4655
मूल्यों 4655
sen@@ 4654
साक्ष्य 4654
ip@@ 4652
एकल 4652
मन्दिर 4652
contracts 4651
भौतिक 4651
रेंज 4650
sunny 4648
ators 4647
pandit 4646
कड़े 4646
डोमेन 4646
पते 4645
declaration 4643
evident 4643
vin@@ 4643
दायित्व 4643
newspapers 4642
हरकत 4641
कैश 4638
captured 4637
दुकानदार 4637
नैतिक 4637
surveillance 4636
काम@@ 4636
anybody 4635
क्यू@@ 4635
uncertainty 4634
^ 4632
anantnag 4632
seventh 4632
दावे 4632
बकाया 4632
bro@@ 4631
गुलाम 4631
जानें 4631
परा@@ 4631
den@@ 4630
surrounding 4630
menace 4629
बलों 4629
डू@@ 4628
पंजीकरण 4628
din@@ 4627
lan@@ 4626
ऊंचाई 4626
hd 4625
धूल 4624
बूथ 4624
updates 4623
raid 4622
अत्यधिक 4622
ठा 4622
निर्देशन 4622
मप्र 4622
rush 4620
promoted 4619
पुनर्@@ 4619
सकेगी 4617
memories 4616
arrangement 4614
vishal 4614
निलंबित 4614
फैक्ट्री 4614
jumped 4612
mul@@ 4612
वाजपेयी 4612
शों 4612
chicken 4611
जवानी 4611
uae 4610
जबरदस्त 4610
prospects 4609
connections 4607
जहर 4607
ट्रा@@ 4607
मत@@ 4607
सबकी 4607
republican 4606
miles 4605
boundaries 4604
panchayats 4604
ansari 4603
tweets 4603
जादू 4603
निराश 4603
carrier 4602
estimate 4602
fastest 4602
feed 4602
समझता 4601
खींच 4600
maoist 4598
रता 4598
बैंड 4597
ब्रा@@ 4597
band@@ 4596
मासिक 4596
ग्राउंड 4595
सुर@@ 4595
…@@ 4595
men@@ 4594
खिड़की 4594
गुर@@ 4594
तकरीबन 4594
bra@@ 4593
hoped 4593
गायक 4592
महापौर 4591
vikram 4589
पाइप 4589
टू@@ 4587
ग्रा@@ 4586
इनको 4585
,2017,@@ 4584
contrast 4584
flagship 4582
maiden 4581
ration 4581
V@@ 4580
rajendra 4580
पैकेज 4580
officially 4579
प्रशांत 4579
neck 4576
उठाना 4576
कार्यशाला 4576
बैनर 4576
ऑन 4575
मज़ा 4575
ven@@ 4574
मम्मी 4573
commonwealth 4572
आसाराम 4572
फेल 4572
kingdom 4571
तमिलनाडु 4571
सबका 4571
45@@ 4569
roshan 4568
नतीजे 4568
टेनिस 4566
डिंग 4566
हिट 4566
भाग्य 4565
कृत 4564
ong 4563
ranking 4563
रत्न 4563
ashwin 4562
promising 4562
sch@@ 4562
पहने 4562
acted 4561
chaired 4561
ite 4561
stance 4561
displayed 4560
ज़िंदगी 4560
फ़ोन 4560
bag@@ 4559
lab 4559
ical 4558
restore 4558
fold 4556
:45 4555
अधीन 4555
दीदी 4555
blow 4554
executives 4553
marathi 4553
सीता 4553
agent 4552
robert 4552
उठाते 4552
पट@@ 4552
एंगे 4551
शौक 4550
30,000 4549
migrants 4549
बसें 4549
issuing 4547
किताबों 4547
वाया 4547
offences 4546
गोरखपुर 4546
dhan@@ 4544
projected 4543
transmission 4543
पाये 4543
13,@@ 4542
yield 4542
भागने 4542
महामंत्री 4542
courage 4541
merit 4540
sin@@ 4540
घूमने 4540
रहो 4540
ors 4539
पागल 4538
जरुरत 4537
प्रतिष्ठा 4537
comparison 4536
ama 4535
ders 4535
jointly 4535
et@@ 4534
taj 4534
sho@@ 4532
subsequent 4532
dal@@ 4530
rebel 4530
आतंकवादियों 4529
प्लास्टिक 4529
लेखकों 4529
vodafone 4528
देन 4528
wonderful 4527
ब्र@@ 4527
landing 4526
ws 4525
cha 4524
देशभर 4524
listing 4523
jee 4522
swami 4522
सर्दी 4522
मन्@@ 4521
scandal 4520
arguments 4519
onto 4518
survive 4518
चिकित्सकों 4518
सुषमा 4517
15,@@ 4516
भा 4516
bowled 4514
fame 4513
ao 4512
coaching 4512
fare 4511
असम 4511
पोषण 4511
सबक 4511
शान 4510
chin@@ 4509
ingly 4509
planet 4509
बड़@@ 4509
स्पोर्ट्स 4509
dia 4508
inspection 4507
फुटबॉल 4506
जीना 4505
डाॅ 4505
universal 4504
empowerment 4503
predicted 4503
रिंग 4503
गरम 4502
स्टॉक 4501
carbon 4500
financing 4500
कचरा 4500
दर्जनों 4500
checking 4498
14,@@ 4497
fdi 4497
बताती 4497
uk@@ 4496
ज्ञात 4496
रोहतक 4496
honest 4495
organising 4494
उपकरणों 4494
ज़रा 4494
फर@@ 4494
बीकानेर 4494
pointing 4493
que 4493
fer@@ 4492
procedures 4492
आतंक 4491
दया 4491
reputation 4490
पद्धति 4489
सांख्यिकीय 4488
७@@ 4488
deadly 4485
moderate 4485
मानवीय 4485
48@@ 4484
अड्डे 4484
पालिका 4484
वासी 4484
sagar 4483
आलू 4483
vis@@ 4481
परमेश्वर 4481
दिलाया 4480
नाले 4480
शोक 4480
तम 4479
56@@ 4478
of@@ 4478
widespread 4478
धोखा 4478
लना 4477
masters 4476
thi@@ 4476
मना@@ 4476
रोष 4476
विद्वान 4476
emotions 4474
अंग्रेजों 4474
singles 4473
tag 4473
यल 4472
nse 4471
विविध 4469
kangana 4468
अश्लील 4468
sight 4466
बुरे 4466
व्य@@ 4466
सालाना 4466
chase 4465
noticed 4465
preferred 4465
प्ले@@ 4465
रुपया 4464
पढ़कर 4463
पर्वत 4462
load 4461
virtually 4461
रहित 4461
ganesh 4459
कमीशन 4459
प्स 4459
pri@@ 4457
संध्या 4457
acquire 4454
opens 4454
poet 4454
निभा 4454
salt 4453
बेशक 4453
मचा 4453
मानसून 4453
इंस्टीट्यूट 4452
athletes 4451
doors 4448
landed 4448
पुर@@ 4448
bel@@ 4447
ev@@ 4447
प्रचलित 4447
सोचना 4447
syrian 4445
रेस 4445
coaches 4443
moscow 4443
हू@@ 4442
ceasefire 4440
immigration 4439
reiterated 4439
अनुदान 4437
उद्@@ 4437
११ 4437
featuring 4436
बढ़े 4436
census 4435
obtained 4434
windows 4434
खुफिया 4434
चमक 4434
कीजिए 4433
ज़ी 4433
16:@@ 4432
lal@@ 4432
raman 4432
एडमिशन 4432
नॉ@@ 4430
वाटर 4430
सम्पूर्ण 4430
sindhu 4428
steve 4428
मुम्बई 4428
revive 4427
सोनू 4427
ट्रैक्टर 4426
nair 4425
pratap 4425
tries 4425
नशा 4424
सपनों 4424
dust 4422
publish 4422
13:@@ 4421
डॉ@@ 4421
दुर्@@ 4421
समीर 4421
स्वर्ग 4421
ipo 4420
detail 4419
mak@@ 4419
ben 4418
dressed 4418
लकर 4418
grievances 4417
hindutva 4417
peter 4416
८@@ 4416
cal@@ 4415
babu 4414
जिनसे 4414
ताऊ 4414
फी 4414
kannada 4413
अक्तूबर 4413
ok 4412
लेवल 4412
height 4411
romantic 4411
गुलाब 4411
articles 4410
certificates 4409
educated 4408
jurisdiction 4408
श्र@@ 4408
देखिये 4406
सृष्टि 4406
complainant 4405
बाज 4405
avail 4403
बापू 4403
imprisonment 4402
usage 4402
ख़ा@@ 4402
खां 4402
पड़ेगी 4402
बॉडी 4402
guwahati 4401
भाइयों 4401
प्रतीत 4400
मोटी 4400
expanding 4399
hostel 4399
स्त@@ 4399
announcing 4398
penal 4398
diversity 4397
nirmala 4397
स्पीड 4397
्य 4397
ख़िलाफ़ 4394
affidavit 4392
nasa 4392
souza 4391
zed 4391
कुशल 4391
bird 4390
madras 4390
nokia 4390
opponents 4390
sponsored 4390
हाइ@@ 4390
,2018,0@@ 4389
13.@@ 4388
petitioner 4387
ters 4387
wars 4386
कड़ा 4386
nod 4385
geelani 4384
लते 4384
everyday 4382
jamia 4382
pregnant 4382
ora 4381
शुक्रिया 4381
sikhs 4380
ध्वनि 4380
parishad 4378
ships 4378
डूब 4377
अल्पसंख्यक 4376
forthcoming 4375
ag 4374
investigate 4374
shoes 4374
ck 4373
इटली 4373
ख़ास 4370
bor@@ 4369
सृजन 4368
statistics 4367
गारंटी 4366
सिलसिले 4366
दक्षिणी 4364
ped 4362
rolled 4362
घट 4362
kuldeep 4361
गुस्से 4361
ऊंची 4360
टीमें 4360
,2015,@@ 4358
क्रोध 4358
बगल 4358
बर्फ 4358
diverse 4355
robust 4355
seminar 4355
लौटा 4353
रोगियों 4352
lifted 4351
reserves 4351
अना@@ 4351
संतान 4349
accepting 4348
सनी 4348
emerge 4347
काउंसिल 4347
बढ़ाकर 4347
5000 4346
defined 4346
fa 4346
फंस 4346
पढ़ी 4345
श्रीराम 4345
screens 4344
shirt 4343
justices 4342
saif 4342
speculation 4342
जख्मी 4342
continuous 4339
covers 4339
ज़ा 4339
fin@@ 4338
insisted 4338
pertaining 4337
जोड़े 4336
conservative 4335
मजबूती 4335
exchanges 4332
आनन्द 4332
वती 4332
harm 4331
sony 4331
duration 4330
sentenced 4330
शिफ्ट 4330
kiran 4329
अतीत 4329
दुकानदारों 4328
व्यंग्य 4328
नाकाम 4327
legislature 4326
suitable 4326
my@@ 4325
मल@@ 4325
circular 4324
del@@ 4324
क़ 4324
तु 4324
forcing 4323
2022 4322
illegally 4321
laundering 4321
studied 4321
ying 4319
pon@@ 4318
नू@@ 4318
स्थिर 4318
calcutta 4317
urgent 4317
लीला 4317
calm 4316
putin 4316
za 4316
contrary 4315
मदन 4315
इंतज़ार 4314
३@@ 4313
preparations 4312
उपर 4312
पूनम 4312
सचिवालय 4311
उपलब्धि 4309
कष्ट 4309
panic 4308
इसने 4308
jadeja 4307
रियल 4307
16.@@ 4306
passport 4306
dignity 4304
अकाउंट 4304
वश 4304
ownership 4303
equality 4302
बता@@ 4302
techniques 4301
वं@@ 4301
3rd 4299
dur@@ 4299
इकट्ठा 4299
140 4298
pwd 4298
consent 4297
भंग 4297
रण 4297
हेड 4297
dramatic 4296
जहाज 4296
ब्लाक 4294
E 4293
कामों 4293
जबलपुर 4293
fails 4292
ethnic 4291
ग्रे@@ 4290
मिलन 4290
temperatures 4288
determine 4286
depends 4285
excess 4285
उमर 4285
मजबूरी 4285
स्टी@@ 4285
bri@@ 4284
intended 4284
सब्सिडी 4284
branches 4283
iii 4283
जुड़ 4282
देश@@ 4280
देशी 4280
associates 4279
choices 4279
cotton 4279
discipline 4279
humanity 4279
हिन्दुस्तान 4279
25,000 4278
renowned 4278
dancing 4277
temples 4277
चाँद 4277
सिया 4277
arunachal 4276
wages 4276
असफल 4276
छू 4276
shifting 4275
tips 4275
बनर्जी 4275
generations 4274
raju 4274
transparent 4274
comfort 4273
चलाई 4273
डेरा 4273
माल@@ 4273
राजपूत 4272
rent 4270
०@@ 4269
स्थगित 4267
adults 4266
आचरण 4266
salaries 4265
14.@@ 4264
shi 4264
गुड़गांव 4264
संतुष्ट 4264
न्यूज़ 4263
बंधक 4263
५@@ 4263
wil@@ 4262
उड़ 4262
trials 4261
बताता 4261
मोहल्ले 4261
शर्म 4261
focusing 4260
capture 4259
immense 4258
नगरी 4257
मनी 4257
adviser 4255
capabilities 4255
instances 4255
scientist 4255
17.@@ 4254
bearing 4251
clock 4251
outfits 4251
featured 4250
slated 4250
आंध्र 4250
achieving 4249
विदेशों 4248
breach 4247
आध्यात्मिक 4247
हुयी 4247
कमा@@ 4246
निवेशकों 4246
fishermen 4245
suzuki 4245
बदलते 4245
साई 4245
gradually 4244
trapped 4244
किस्मत 4244
indigenous 4242
portion 4242
कार्यो 4242
15:@@ 4240
450 4240
ज्योतिष 4240
friendship 4239
jk 4239
उदय 4239
राधा 4239
सराहना 4239
सिगरेट 4239
lawmakers 4238
खुदा 4238
खन्ना 4237
martin 4236
पं 4236
रजत 4236
ea@@ 4235
मथुरा 4233
व्यय 4233
सहकारी 4233
overnight 4232
शासकीय 4232
declare 4230
lessons 4230
देवताओं 4230
परम्परा 4230
travelled 4229
switch 4227
तंग 4227
,0@@ 4226
तीर्थ 4226
त्र 4225
९@@ 4225
काशी 4224
पंच@@ 4224
तुमसे 4222
circuit 4221
courtesy 4221
sil@@ 4221
ग़@@ 4221
जुटी 4221
thereafter 4220
depend 4219
divide 4219
झलक 4219
defend 4218
बाँ@@ 4218
guy 4217
साहित्यिक 4217
enhanced 4215
euro 4215
fu@@ 4215
scrutiny 4215
spots 4213
wan@@ 4213
attempted 4212
रसोई 4212
aspirations 4211
श्रीकृष्ण 4210
intellectual 4209
गण 4209
दरों 4209
दीन 4209
margins 4208
ब्लैक 4208
disposal 4207
तर्ज 4207
वचन 4206
converted 4205
fighters 4205
ग्रेड 4205
द्वीप 4205
प्रसंग 4204
ality 4203
स्नेह 4203
mouth 4202
belong 4201
od@@ 4201
अम्@@ 4201
मण्डल 4201
राजनाथ 4201
माई 4200
छीन 4199
गेम 4198
पढने 4198
cleanliness 4197
weapon 4197
यद्यपि 4197
audiences 4196
ganguly 4196
everywhere 4195
legendary 4195
कः 4195
destruction 4194
intent 4194
जिसको 4193
प्रवृत्ति 4193
S 4191
mall 4189
inclusive 4188
zing 4187
ईसाई 4187
काश 4187
mills 4185
दिखाते 4185
संतुलन 4183
dam@@ 4182
examine 4182
ff@@ 4182
movements 4182
ंदा 4181
जानिए 4180
jayalalithaa 4179
transition 4179
uniform 4179
nationalist 4178
petitions 4178
virtual 4177
consultant 4176
para 4176
आदित्य 4176
बडी 4176
प्रोत्साहित 4175
allahabad 4174
delivering 4174
खाई 4174
hand@@ 4173
yan@@ 4173
rajput 4172
उठी 4172
अंदाजा 4171
functional 4170
अस@@ 4170
क्षमा 4170
थे@@ 4170
societies 4169
ंब@@ 4169
2/@@ 4168
कृति 4168
सितारों 4168
instructed 4165
hrithik 4164
williams 4164
58@@ 4163
बन@@ 4163
हेल्थ 4163
किसे 4162
releasing 4161
stolen 4160
aka 4159
machinery 4158
आदिवासियों 4158
celebrates 4157
नितिन 4157
कैरियर 4155
डिपार्टमेंट 4155
सीडी 4155
ance 4154
छापेमारी 4154
धू@@ 4154
मिलियन 4154
sara 4153
दारी 4153
developmental 4152
mothers 4152
poetry 4152
reflect 4152
जायजा 4152
clarified 4150
midnight 4150
निरस्त 4150
विरासत 4150
ंक@@ 4149
पॉलिसी 4149
युवराज 4149
अजीत 4148
conscious 4147
चर्चित 4147
कामयाबी 4146
उत्कृष्ट 4145
नकारात्मक 4145
हटाया 4145
philosophy 4144
shar@@ 4144
employed 4143
indi@@ 4143
cre@@ 4141
air@@ 4140
kas@@ 4140
posting 4140
showcase 4139
wore 4138
शिवसेना 4138
होश 4138
हल्की 4137
ports 4136
ved 4136
मोह 4136
conviction 4135
hunger 4135
legend 4135
लंबित 4135
संवत 4135
katrina 4133
टुकड़े 4133
लाइव 4133
द्विवेदी 4131
1.2 4130
बचत 4128
ically 4127
spell 4127
wine 4127
गुट 4127
ड़िया 4127
तलाशी 4127
पुलिसकर्मियों 4127
हीं 4126
consistent 4125
संभाल 4125
sr@@ 4123
timely 4123
57@@ 4122
aa 4122
profession 4122
करूंगा 4122
चरणों 4122
ss@@ 4121
मीरा 4121
economist 4120
visual 4120
निराशा 4120
मंग@@ 4120
annually 4119
outbreak 4119
ताज 4119
confusion 4118
irani 4118
joseph 4118
धो@@ 4118
cas@@ 4117
pandya 4117
दुआ 4117
निभाई 4117
prevailing 4116
sar 4116
shocked 4116
बों 4116
मंदी 4116
bhawan 4115
knowing 4115
अगुवाई 4115
अभ्यर्थियों 4115
extensive 4113
अंग्रेज़ी 4113
लियां 4112
tripathi 4111
twin 4111
आचार 4111
चिंतित 4111
४@@ 4111
तूफान 4110
चेन 4109
लहर 4109
akbar 4108
dairy 4108
अटल 4108
शैक्षणिक 4107
स्टाइल 4106
recording 4105
पायलट 4105
6,000 4104
ably 4103
dependent 4103
रंगों 4103
फ्लू 4102
हंस 4102
normally 4101
rahman 4101
smile 4101
streaming 4101
15,000 4100
inform 4100
सिलेंडर 4099
impressed 4098
योजनाएं 4098
लाइ@@ 4098
consultation 4097
विद्यालयों 4097
sy@@ 4096
amendments 4095
rapidly 4095
किसने 4095
सुधीर 4095
voices 4093
zones 4093
अंसारी 4093
प्रिंट 4093
समझे 4093
represents 4091
tom 4089
grave 4088
उच्चारण 4088
भेदभाव 4088
मध्यम 4088
anushka 4087
गर्भवती 4087
राखी 4087
घास 4086
liberal 4085
titles 4085
chauhan 4084
grants 4084
ver 4084
टेलीविजन 4084
तस्वीरों 4084
तैयारियों 4082
editorial 4081
mel@@ 4081
हानि 4081
17:@@ 4080
ila 4080
irregularities 4080
सीओ 4080
answers 4079
द्र 4079
choudhary 4077
18:@@ 4076
booth 4076
inner 4076
subhash 4076
न्द्र 4076
chamber 4075
रोगों 4072
लौटे 4072
19,@@ 4070
ashes 4070
brown 4070
defense 4070
गुहार 4070
chan@@ 4069
micro@@ 4069
ravindra 4068
backing 4067
birla 4067
praise 4067
गुर्जर 4067
सुधारने 4067
bold 4066
eid 4066
अमन 4066
बायो@@ 4065
lankan 4064
बरी 4064
pil 4061
sid@@ 4061
useful 4061
चाकू 4061
transformation 4060
speakers 4059
टाउन 4059
डेंगू 4059
elderly 4057
ड़ों 4057
निश्चय 4057
determination 4056
cap@@ 4055
cleaning 4055
notified 4055
pol@@ 4055
spin 4055
den 4054
निर्धारण 4054
infection 4053
uncle 4053
ख़बर 4053
pas@@ 4052
specifically 4052
survival 4052
दंड 4051
criteria 4050
overcome 4050
निकालकर 4050
प्रतीक्षा 4050
parade 4049
कस 4049
डों 4049
accountability 4048
जानवरों 4048
बरस 4048
ashish 4047
restored 4047
roots 4047
दीं 4047
पीसी 4047
वितरित 4047
assess 4045
cop 4044
15.@@ 4042
mein 4042
वों 4042
awaited 4041
kashyap 4041
revival 4041
भारद्वाज 4041
पूर्ति 4040
entity 4039
खरीदारी 4039
verification 4038
तरीकों 4038
सदैव 4038
साम@@ 4038
सुनीता 4038
architecture 4037
min 4037
त्योहार 4037
19.@@ 4036
बिंदु 4036
लोकप्रियता 4036
लक 4035
IST 4034
आैर 4034
जबरन 4034
पौ@@ 4034
आज़ादी 4033
चयनित 4032
लः 4032
डेटाः 4031
सर्च 4031
gal@@ 4030
व्याख्या 4030
समझाने 4030
download 4029
jeet 4029
nagpur 4029
stunning 4029
चाहा 4029
नामों 4029
bab@@ 4028
tone 4028
कुं@@ 4028
र्ट 4028
unusual 4027
expanded 4026
physically 4026
आईएएस 4026
मधुर 4026
सख्ती 4026
excellence 4025
hain 4022
slammed 4021
rafale 4020
कन 4019
पुलिसकर्मी 4018
सेल्सियस 4018
egypt 4017
simultaneously 4015
gam@@ 4014
steady 4013
बौद्ध 4013
आकलन 4012
frequently 4011
replied 4011
अत 4010
मुख@@ 4010
टिव 4009
honoured 4008
neighbourhood 4008
किशोरी 4008
वली 4008
dies 4006
उन्@@ 4006
operator 4005
कच्चे 4005
एकजुट 4004
ning 4003
जूते 4003
नकल 4003
रहस्य 4003
शिरकत 4003
हाय 4003
livelihood 4002
पासपोर्ट 4002
लेनी 4002
doubles 4001
prescribed 4000
senate 4000
toilet 4000
remarkable 3998
रोडवेज 3998
clubs 3997
lovers 3996
tis 3996
आंकड़ा 3996
poonch 3995
renewable 3995
पहुंचते 3995
chit 3994
irrespective 3994
ट्र@@ 3994
bak@@ 3992
pure 3992
bajaj 3991
smoke 3991
tap 3991
लीजिए 3991
walks 3989
एजेंट 3989
रामलीला 3988
यम 3986
रियां 3986
wage 3985
बहनों 3984
शील 3984
आक्रोश 3983
span 3982
mann 3980
shutdown 3980
पौधों 3980
शेखर 3980
accounting 3979
वाय@@ 3979
६@@ 3979
इमरान 3977
मजिस्ट्रेट 3976
वीरवार 3976
convinced 3975
ecosystem 3975
चुपचाप 3975
अनदेखी 3974
valid 3973
पार्@@ 3973
disputes 3972
मीना 3971
prisoners 3970
बैंकिंग 3970
साहित्यकार 3970
टोल 3969
हॉस्टल 3969
1500 3968
inaugural 3968
चांद 3968
suspects 3967
कर्तव्य 3967
श्रीनगर 3967
सवारी 3967
gates 3966
चौथी 3966
म्स 3966
सांप्रदायिक 3966
dilip 3965
opposing 3965
potentially 3965
timing 3965
मंत्रिमंडल 3965
जश्न 3964
ड्रेस 3964
dish 3963
sardar 3963
एमपी 3963
कोष 3963
लैब 3963
अगला 3962
धरने 3962
भ्रमण 3962
counterpart 3960
waiver 3959
गैंग 3959
burn 3958
एससी 3958
dh 3957
anurag 3956
holdings 3956
एंट्री 3956
पलट 3956
cat 3955
distress 3955
eco 3955
liverpool 3955
onwards 3955
विभाजन 3955
सटीक 3955
राष्ट्र@@ 3954
depth 3953
enterprise 3953
प्रायः 3953
examined 3952
margao 3952
pawan 3952
तीं 3951
fiction 3950
कहानियों 3950
वाइ@@ 3950
allocated 3949
ngos 3948
संगत 3948
campaigns 3947
controls 3947
चक 3946
त्री 3946
connecting 3944
tremendous 3944
emphasis 3943
invite 3943
कपड़ा 3943
keeper 3941
yu@@ 3941
borne 3940
aman 3939
sealed 3939
swiss 3939
टरों 3939
patiala 3937
successive 3937
खरीदा 3937
पेड़ों 3937
succeed 3935
opt 3934
अत्याचार 3934
चाहें 3934
तथाकथित 3934
लुक 3933
anda 3932
sidelines 3932
tip 3931
कॉपी 3931
संक्रमण 3931
rolling 3930
undergoing 3930
mary 3929
खाद 3929
नर्स 3929
मालिकों 3929
feedback 3928
बंधन 3928
हिल 3928
33@@ 3927
stroke 3927
websites 3926
अंधेरे 3926
महादेव 3925
अनंत 3924
cab 3923
ey 3922
namely 3922
उपयोगकर्ता 3922
kalyan 3920
विंग 3920
शिकायतें 3919
crown 3918
opted 3918
calendar 3916
ordinance 3916
शुभकामनाएं 3916
nav@@ 3915
चैन 3915
disclosed 3914
mallya 3914
motorcycle 3914
उत्तराखण्ड 3914
गहलोत 3914
illness 3912
kupwara 3911
र्ड 3911
5g 3910
practical 3910
गेंदबाज 3910
पुरूष 3909
baramulla 3908
strategies 3908
तुम्हे 3908
धी@@ 3908
dengue 3907
ultra 3907
tall 3905
अकाली 3905
रणबीर 3905
designated 3904
mit@@ 3904
quiet 3904
talented 3903
agra 3902
आर्मी 3902
घोटाला 3902
लगीं 3902
व्या@@ 3902
bat@@ 3901
surprising 3901
गुणों 3901
भागों 3901
वैकल्पिक 3901
pp@@ 3899
purchased 3898
corporations 3897
इस्लामी 3897
साधु 3896
actively 3895
उद्योगों 3895
जानवर 3895
publicly 3894
sion 3894
चिट्ठी 3894
देखती 3894
नीलामी 3894
operated 3892
1,500 3891
nayak 3891
disappointed 3890
palestinian 3890
पासवान 3890
chemicals 3889
ईं 3887
नम्बर 3887
craft 3886
lock 3886
गिनती 3886
barack 3884
flowers 3884
रिया@@ 3884
mountain 3883
naval 3883
enjoying 3882
फ़्@@ 3882
ann@@ 3881
देख@@ 3881
badminton 3880
imported 3880
थक 3880
ned 3879
चुन 3879
टिया 3879
nationals 3878
प्रमोशन 3878
album 3877
जेटली 3877
दिग्विजय 3877
पाएगा 3877
लोकतांत्रिक 3877
lease 3876
लेखा 3876
शू@@ 3876
सम्पर्क 3876
agar 3875
वंश 3875
empty 3874
बताओ 3874
पक्षी 3873
प्रोत्साहन 3873
एजुकेशन 3872
18.@@ 3870
durga 3870
asha 3869
vivek 3869
जटिल 3869
territories 3868
कमाने 3868
instruments 3866
ratings 3866
समझाया 3866
kishore 3865
चैंपियनशिप 3865
extraordinary 3864
pipeline 3864
recall 3864
गाइड 3864
मोटरसाइकिल 3863
literary 3862
राजे 3862
noise 3861
unions 3861
hiv 3860
ब्रेक 3860
मुझको 3860
ियों 3860
executed 3859
typically 3859
vihar 3859
आर्ट 3859
iz@@ 3858
उपहार 3858
धक्का 3858
बची 3858
releases 3857
kochi 3856
खाया 3856
तं@@ 3856
शुक्र 3856
demonstration 3855
requesting 3855
pursuing 3854
धीमी 3854
posed 3852
shekhar 3852
blind 3851
kur@@ 3851
मात 3850
पद@@ 3849
op 3848
ब्लॉगर 3848
झगड़ा 3847
passage 3846
reviews 3846
shopian 3845
टाइप 3845
फसलों 3844
बडे 3844
posters 3843
sto@@ 3843
win@@ 3843
लती 3843
festivals 3842
qatar 3842
cl 3841
tracking 3841
ace 3840
conventional 3840
withdrawn 3840
lets 3839
owns 3839
करीबी 3839
sab@@ 3838
ventures 3838
एसएमएस 3838
संयोग 3838
कश्यप 3837
हास्य 3837
bandh 3836
protecting 3836
धारणा 3835
assurance 3834
लं@@ 3834
instant 3833
ठहराया 3833
पैसों 3833
enemy 3832
locality 3832
apparent 3831
gill 3831
paintings 3831
reverse 3831
spring 3831
cheaper 3830
vc 3830
बैक 3829
ces 3828
rajouri 3828
कृ@@ 3828
mandir 3827
ny 3827
tally 3827
चलाते 3826
गल 3825
झू@@ 3825
हसन 3825
signature 3824
बाधित 3824
हमको 3824
cricketers 3823
ganj 3822
कारक 3822
पसंदीदा 3822
bbc 3821
emissions 3821
rid 3821
निकलते 3821
त्रा@@ 3820
cheap 3819
extending 3819
federer 3819
ईमानदार 3819
कुल@@ 3819
7.5 3817
tro@@ 3817
गार्डन 3817
stuff 3816
universe 3816
फिल्मी 3816
बिक 3816
agreements 3815
rama 3815
thinks 3815
खोजने 3815
वीरेंद्र 3815
menu 3814
shastri 3814
theft 3813
uddhav 3813
कराते 3813
दबा 3812
लेटर 3812
49@@ 3811
eminent 3811
involves 3811
kin@@ 3811
बसे 3811
iya 3810
precious 3810
ber 3809
collapsed 3809
ner 3809
surgical 3809
करीना 3809
बुकिंग 3809
16,@@ 3807
चलकर 3805
oriented 3804
unidentified 3804
दिवाली 3804
लीक 3804
essentially 3803
installation 3803
lists 3803
commit 3802
trucks 3802
dealt 3801
राउंड 3801
acid 3800
mb@@ 3800
naturally 3799
नकदी 3799
गू@@ 3798
ire 3797
sisters 3797
impose 3795
कपड़ों 3795
jk@@ 3794
kilometres 3794
अरोड़ा 3794
सील 3794
hole 3793
bho@@ 3792
valuable 3792
arrests 3791
dating 3791
rebels 3791
signing 3791
लोकल 3791
जालंधर 3790
hectares 3789
incentives 3789
shoulder 3789
नेगी 3788
रने 3788
wi 3787
प्रॉपर्टी 3787
aya 3786
pack 3786
tdp 3786
prosperity 3785
tak@@ 3785
adverse 3784
belongs 3784
em 3784
recommendation 3784
अग्नि 3784
शक्तिशाली 3783
tale 3782
elder 3781
endra 3781
ओमप्रकाश 3781
भांति 3781
dozens 3780
fl@@ 3780
unrest 3780
productivity 3779
tower 3779
एंबुलेंस 3779
कहेंगे 3779
repeat 3778
डब्ल्यू 3778
पदार्थों 3778
निम्नलिखित 3777
एड@@ 3776
funded 3775
head@@ 3775
string 3775
संयंत्र 3775
18,@@ 3774
autonomy 3774
earning 3774
isi 3774
lam@@ 3774
photograph 3774
श्रेय 3774
द्र@@ 3773
सिस 3773
हंसी 3773
hol@@ 3772
collections 3771
uncategorized 3771
आय@@ 3770
कॉन्@@ 3769
माइ@@ 3769
isation 3768
कोल 3768
जर्मन 3767
एकत्र 3765
ठप 3765
संस्थापक 3765
attorney 3764
nationalism 3764
motivated 3763
roof 3763
tt 3763
फील्ड 3763
experiment 3762
hidden 3762
फर 3762
बोतल 3761
स्टा@@ 3761
evil 3760
झटके 3760
ess 3759
बंसल 3758
वर्क 3758
hardik 3757
ib 3754
बार@@ 3754
सड़कें 3754
40,000 3753
भीषण 3753
लड़@@ 3752
सू 3752
एकत्रित 3751
काउंटर 3751
ट्रांसफर 3751
97@@ 3749
nobel 3747
4.5 3746
महंगा 3746
पह@@ 3745
pharma 3744
भै@@ 3744
col@@ 3743
काे 3743
केट 3743
144 3742
pregnancy 3741
राजी 3741
differently 3740
threw 3740
अभिभावकों 3740
creates 3738
पवार 3738
sti@@ 3737
कर्म@@ 3737
subsidiary 3736
resign 3735
खुलकर 3735
ग्रंथ 3735
मानवाधिकार 3735
tiny 3734
praised 3733
zi@@ 3733
डबल 3733
2017,0@@ 3732
bureaucrats 3731
reads 3731
अध्याय 3731
कमरा 3731
outlets 3729
चों 3729
मिर्च 3729
मॉ@@ 3729
end@@ 3728
nick 3728
बाबत 3728
शाहिद 3728
समूहों 3728
तैयारियां 3727
originally 3726
basu 3725
fielded 3725
guys 3725
exact 3724
बनाम 3724
legislator 3723
D 3722
foreigners 3722
festive 3721
परवाह 3721
helicopter 3720
thanked 3720
पेशेवर 3719
सेमीफाइनल 3719
militancy 3718
ot@@ 3718
shimla 3718
लालच 3718
ens 3717
ena 3716
gb 3715
multi@@ 3715
nutrition 3715
चिदंबरम 3715
पटरी 3715
बदली 3715
mela 3714
ments 3713
demise 3712
rankings 3712
स्त्रियों 3712
interior 3711
providers 3711
गणना 3710
breaks 3709
dil@@ 3709
आरएसएस 3709
फाउंडेशन 3709
रतन 3709
रिक 3709
क्षतिग्रस्त 3708
celebrity 3707
clinical 3707
ड्@@ 3707
रिलायंस 3707
अमृत 3706
एशियाई 3706
बहाल 3706
वस्त्र 3706
वायरस 3706
importantly 3705
sacred 3705
आवंटित 3704
hassan 3703
mistakes 3703
sensor 3703
उठने 3703
कूद 3703
↑ 3703
burnt 3702
credibility 3702
hailed 3701
slam 3701
दीजिए 3701
ब्रि@@ 3701
लीजिये 3701
गाया 3700
तेंदुलकर 3700
जितेंद्र 3699
तस्करी 3699
तहरीर 3699
diamond 3698
lesson 3698
1985 3697
consulting 3696
नम 3696
विवादों 3696
toward 3695
परिस्थिति 3695
des 3693
marine 3693
sahu 3693
specially 3693
शाला 3693
pradeep 3691
कू 3691
feelings 3690
ges 3690
shocking 3690
तालिबान 3690
ongc 3689
jit 3687
प्ला@@ 3687
करवाए 3686
मांस 3686
requests 3684
अर्थ@@ 3684
उज्जैन 3684
मानस 3684
som@@ 3683
leh 3682
supports 3682
ऑल 3682
absolute 3681
expertise 3681
हर्@@ 3681
boeing 3680
grey 3680
thin 3680
अर्पित 3680
bon@@ 3679
उतरने 3679
laboratory 3678
बटन 3678
forgotten 3677
वायरल 3676
सस्ते 3676
abandoned 3675
गोलियां 3674
दंगों 3674
पढ़ना 3674
मैसेज 3674
accordance 3673
bihari 3673
flows 3673
निकाय 3673
महाभारत 3673
मानवता 3673
blog 3672
bumrah 3671
completing 3671
traditions 3671
मार्गदर्शन 3671
स्वराज 3671
reflected 3670
दिलचस्पी 3670
sarkar 3669
प्रेम@@ 3669
विरूद्ध 3669
श्वर 3669
ong@@ 3668
वाक्य 3668
elephant 3667
taxi 3667
आला 3667
socio 3666
मित्तल 3666
उत्पीड़न 3665
1/@@ 3664
बुखार 3664
,2019,1@@ 3663
appointments 3663
samaj 3663
carpet 3662
ion 3662
bhi 3661
laying 3661
organise 3661
wider 3661
अर्थात् 3661
भाव@@ 3661
क्रिकेटर 3660
रपुर 3660
associations 3659
openly 3659
urge 3659
डेविड 3659
रिमांड 3659
clarity 3658
introducing 3658
vas@@ 3658
surge 3657
हरि 3657
affecting 3656
तथ्यों 3656
एके 3655
क़ा@@ 3655
दुर्ग 3655
C 3654
अंततः 3654
striking 3653
खासी 3653
रोने 3653
reacting 3652
हालाँकि 3652
गहन 3651
स्लाइड 3651
17,@@ 3650
२@@ 3650
ching 3649
readers 3649
enquiry 3648
कोमल 3648
ल्ला 3648
dip 3647
दिनभर 3647
speeches 3646
tin@@ 3646
फॉ@@ 3646
hrd 3645
विवादित 3645
aishwarya 3644
forever 3644
kumaraswamy 3644
pankaj 3644
posing 3644
एगी 3644
acharya 3643
iyer 3643
twenty 3643
सोलन 3643
ence 3642
इनाम 3642
पाण्डेय 3642
न्यूयॉर्क 3641
सर्व 3641
haridwar 3640
tonne 3640
ऑफर 3640
identification 3639
नमस्कार 3639
पर्दे 3639
14:@@ 3638
establishments 3638
अंकुश 3638
नाव 3638
टें 3637
मामा 3637
marg 3636
reasonable 3636
hooda 3635
लम्बे 3635
satish 3634
यंत्र 3634
kala 3632
तोड़कर 3632
वकीलों 3632
सशक्त 3632
गोविंद 3631
दशकों 3631
resume 3630
ट्री 3630
मुठभेड़ 3630
tes 3629
sexually 3628
प्रभात 3628
hired 3627
kum@@ 3627
plenty 3627
picking 3626
integration 3624
खोले 3624
निष्कर्ष 3624
1988 3623
domain 3623
acknowledged 3622
mahal 3622
mandi 3622
prompted 3622
डाय@@ 3622
sidharth 3621
मुंडा 3621
2020,0@@ 3619
demolition 3619
आगमन 3619
सूखे 3619
1977 3618
accord 3618
pooja 3618
smoking 3618
sri@@ 3618
आईएएनएस 3618
gaming 3617
enabled 3616
येगा 3616
शोभा 3615
ष्ट 3615
ger@@ 3614
उड़ा 3614
1986 3612
indigo 3612
ज् 3612
तब्दील 3612
admissions 3611
जू 3611
स्वप्न 3611
mohanty 3610
ठी 3610
माफ 3610
यता 3610
लीन 3610
सौंदर्य 3610
20.@@ 3609
spanish 3609
ंच@@ 3609
जान@@ 3609
डायरी 3609
पहन 3609
incidentally 3608
compromise 3607
उपेक्षा 3607
discovery 3606
erstwhile 3606
lpg 3606
maulana 3606
वृ@@ 3606
शेख 3606
amidst 3605
futures 3605
hopeful 3605
incredible 3605
sting 3605
स्ट्रीट 3605
fr@@ 3604
initiate 3604
फुटेज 3604
ल्ड 3604
भागवत 3603
ॉ@@ 3603
hasan 3602
riders 3602
बद्ध 3602
पर्यटक 3601
viewers 3600
तारा 3600
पन@@ 3600
संभवतः 3600
landscape 3599
shouldn 3599
wireless 3599
खेली 3599
तियां 3599
conversations 3598
pin@@ 3597
करे@@ 3597
दिला 3597
chat 3596
tribals 3596
harish 3593
soldier 3593
उतरे 3593
तिलक 3593
तैनाती 3593
phenomenon 3592
trail 3592
khar@@ 3591
treasury 3591
्रा@@ 3591
forming 3590
nabbed 3590
kovind 3589
umar 3589
हुड्डा 3589
por@@ 3588
छिपा 3587
तिमाही 3587
वैसी 3587
साड़ी 3587
जातियों 3586
mindset 3585
raina 3585
थोडा 3585
राजन 3585
,2018,@@ 3584
शिक्षित 3584
ima 3583
oldest 3582
बनाती 3582
मोटे 3582
सीबीआइ 3582
scared 3581
ants 3580
promoters 3580
रेफर 3580
canadian 3579
पूर्णिमा 3579
हल्का 3579
alized 3578
responsibilities 3578
santosh 3578
खाकर 3578
लाते 3578
1983 3577
migration 3577
waves 3577
जनक 3577
मराठी 3577
शीला 3577
knock 3576
tu 3576
नैनीताल 3576
1987 3575
raises 3575
reaches 3575
गायत्री 3575
appoint 3574
चतुर्वेदी 3574
फैमिली 3574
considerable 3573
inmates 3573
ढ़@@ 3573
हत्याकांड 3573
jas@@ 3572
kha 3572
अकबर 3572
रिक्त 3572
colonies 3570
ेगा 3570
allegation 3569
terming 3569
alam 3568
bribe 3567
डालते 3567
documentary 3565
सच्चे 3565
कदर 3562
जनहित 3562
सियासी 3562
logistics 3561
pt 3560
ंः 3560
atrocities 3558
convert 3558
loves 3558
इजाफा 3558
कती 3558
प्राणी 3558
दूंगा 3556
boxing 3555
mus@@ 3555
commodity 3554
fixing 3554
mer 3554
tor 3554
जवाहर 3554
ब्रिज 3554
मां@@ 3554
drives 3553
आईजी 3553
ट्रायल 3553
दाता 3553
स्वार्थ 3553
पड़ोस 3552
os@@ 3551
sec 3550
thriller 3550
हेमंत 3549
talaq 3548
dil 3547
जनजाति 3546
साईं 3546
जोड़कर 3545
देवेंद्र 3545
मिठाई 3545
mittal 3543
भावों 3543
पीटा 3542
organisers 3541
घातक 3541
जुटा 3541
,2019,0@@ 3540
carefully 3539
इराक 3539
शिया 3539
bis@@ 3537
चंदन 3537
श् 3537
designers 3536
turnout 3536
hunt 3535
prabhu 3534
घटनाक्रम 3534
sail 3533
assaulted 3532
procession 3532
गर्भ 3532
sheer 3531
therapy 3531
पैनल 3531
sel@@ 3530
bhar@@ 3529
commodities 3529
रूप@@ 3528
ष् 3528
shiv@@ 3526
आपत्तिजनक 3526
mou 3525
ura 3525
कांस्टेबल 3525
सांप 3525
anxiety 3524
hr 3524
सीसी 3524
peoples 3523
किशन 3523
घू@@ 3523
nicobar 3522
सीने 3522
chemistry 3521
पांव 3521
शेयरों 3521
टिप्पणियाँ 3520
marathon 3519
ultimate 3519
कवियों 3519
तू@@ 3519
वोटिंग 3519
हिसार 3519
equities 3518
gad@@ 3518
goan 3518
अनुबंध 3518
ml 3517
बदनाम 3517
sanction 3516
vel@@ 3516
violated 3516
components 3515
miscreants 3515
sole 3515
ट्रि@@ 3514
पुस्तकों 3513
बहिष्कार 3513
सं 3513
interrogation 3512
luck 3512
रचनाओं 3512
सबकुछ 3512
स्टोरी@@ 3512
हं@@ 3512
joe 3511
ministries 3511
pen 3511
750 3510
pranab 3510
शायर 3510
chaos 3509
difficulties 3509
gear 3509
nadal 3509
bio@@ 3508
icon 3508
indicate 3508
prayer 3508
situated 3508
देसी 3508
canal 3507
लोहे 3507
gang@@ 3506
sydney 3505
मुनि 3505
shadow 3504
किले 3504
शासक 3504
शशि 3503
स्टोरी 3503
somebody 3502
आरके 3502
बुराई 3502
बर्दाश्त 3501
मेहमान 3501
harry 3500
ठे 3500
तादाद 3500
मरे 3500
सच्चा 3500
liked 3499
दिखती 3499
lighting 3498
impression 3497
क्त 3497
99@@ 3496
amended 3496
क़ानून 3496
प्रथा 3496
satisfied 3495
dra@@ 3494
sanjeev 3494
वेल 3493
tributes 3492
restoration 3491
ukraine 3491
यर@@ 3491
adult 3490
निभाने 3490
बस्तर 3490
राजमार्ग 3489
वरुण 3488
वैदिक 3488
ullah 3487
गयीं 3487
नकद 3487
उतारा 3485
तलब 3485
appa 3484
disputed 3484
shipping 3484
प् 3484
reflects 3483
replacement 3483
खी@@ 3483
हारी 3483
checked 3482
survived 3482
ker@@ 3481
scholarship 3481
economically 3480
१० 3480
equivalent 3479
swing 3479
weaker 3479
तरा@@ 3479
कम्@@ 3478
बर्तन 3478
हाई@@ 3478
ंच 3477
वीजा 3477
murdered 3476
prem 3476
तौ@@ 3476
क्रमशः 3475
रामायण 3475
स्पर्धा 3475
20,@@ 3474
ering 3474
valued 3474
ंद्र 3474
उमेश 3474
gogoi 3472
फायदे 3472
honda 3471
jun@@ 3471
¨@@ 3471
वर्गों 3471
fre@@ 3470
राना 3470
स्त 3470
eshwar 3469
jay 3469
जिद 3469
नाग@@ 3468
सेशन 3468
षा 3467
eng@@ 3466
examples 3466
processor 3466
sample 3466
धातु 3466
ane 3465
उन्नत 3465
पीड़ितों 3465
मानती 3465
roughly 3464
sions 3464
wounded 3464
रं@@ 3464
hide 3463
रिहा 3463
सिंग 3463
kathua 3462
somewhere 3462
wed 3462
construct 3460
fishing 3460
शैक्षिक 3460
attendance 3459
cuttack 3459
formally 3459
boycott 3458
cable 3458
उदास 3458
जंगलों 3458
adventure 3456
ios 3456
विद्या@@ 3456
bedi 3455
पुराण 3455
हराकर 3455
kab@@ 3454
पार्षदों 3454
यादा 3454
पुण्य 3453
बेंच 3453
imd 3452
dutta 3451
fewer 3451
destinations 3450
shell 3450
trick 3450
अनुपात 3449
लम 3449
सेंसेक्स 3449
4th 3448
पंजीकृत 3448
साइबर 3448
सामुदायिक 3448
sounds 3447
bol@@ 3446
ghaziabad 3446
panda 3446
partition 3446
earthquake 3445
hopefully 3445
mirwaiz 3445
theatres 3445
nan@@ 3444
valuation 3444
कालीन 3444
माफिया 3443
ine@@ 3442
पृष्ठभूमि 3442
मसीह 3442
star@@ 3441
undertake 3441
सूक्ष्म 3440
दर्@@ 3439
धर्मशाला 3439
19:@@ 3438
fleet 3438
jalandhar 3438
ken@@ 3438
गर्दन 3438
unbeaten 3436
attracted 3435
departure 3435
error 3435
loud 3435
chelsea 3434
lesser 3434
sukhbir 3434
golf 3433
lion 3433
client 3432
pr 3432
concert 3431
विशेषता 3431
सलाम 3431
signals 3430
माओवादी 3430
परिभाषा 3429
assist 3428
ent@@ 3428
remark 3428
चर@@ 3428
dominant 3427
ril 3427
दिखाकर 3427
धूम 3427
बीसीसीआई 3427
,2019,@@ 3426
सः 3426
abbas 3425
attributed 3425
holder 3425
indicates 3424
मणि 3424
चारा 3422
रखेंगे 3422
isolated 3420
nt 3420
दौ@@ 3420
भ 3420
जायें 3419
जेपी 3419
टेक्नोलॉजी 3419
entitled 3418
छाप 3418
जरुर 3418
पुजारी 3418
सूबे 3418
spotlight 3417
topic 3417
bai 3416
bearers 3416
kapur 3416
soviet 3416
आइए 3416
क्रो@@ 3416
बेल 3416
bids 3415
urging 3415
veer 3415
न्यायमूर्ति 3415
फ़रवरी 3415
निक@@ 3414
सम्पन्न 3414
201@@ 3413
patterns 3413
shinde 3413
क्रे@@ 3413
चूक 3413
adjoining 3411
यश 3411
acre 3410
publicity 3410
kohima 3409
oscar 3409
shu@@ 3409
उच्चतम 3409
गडकरी 3409
गेंदबाजी 3409
हल्के 3409
fest 3408
nominations 3408
solidarity 3408
1975 3407
21,@@ 3407
rocket 3407
गृहमंत्री 3407
listening 3406
ऑर्डर 3406
मुस्कान 3406
सर्टिफिकेट 3406
broader 3405
delays 3405
अग@@ 3405
रूसी 3405
booths 3404
दिग्गज 3404
पर्स 3404
भरोसे 3404
cheating 3403
siddaramaiah 3403
सदियों 3403
stranded 3402
hor@@ 3401
निरीक्षक 3401
लोड 3401
बनेगी 3400
इंचार्ज 3399
धोखाधड़ी 3399
लानी 3399
divorce 3398
बताकर 3398
ori 3397
pcc 3396
qureshi 3396
अन्याय 3395
चैंपियन 3395
धनराशि 3395
आवासीय 3394
हिमालय 3394
imf 3393
mandal 3393
तृणमूल 3392
सीए 3392
component 3391
bridges 3390
cry 3390
reward 3390
1:@@ 3389
mangalore 3388
ours 3388
खुलने 3388
पीट 3388
prashant 3387
remembered 3387
sheets 3386
क्टर 3386
मौलिक 3386
संगम 3386
सदस्यीय 3386
नेवाले 3385
,2017,0@@ 3384
accommodation 3384
dear 3383
doubts 3383
versus 3383
शिष्य 3383
साइन 3383
mohali 3382
za@@ 3382
कवायद 3382
ख़ुशी 3382
रः 3382
undertaking 3381
बिगड़ 3381
constitute 3380
contributions 3380
element 3380
व्याप्त 3380
kabir 3379
खेड़ा 3379
नता 3379
influential 3378
आक्रमण 3378
पूल 3378
गाते 3377
मिल@@ 3377
विश्वविद्यालयों 3377
jo 3376
दिखाए 3376
ingredients 3375
stra@@ 3375
vidya 3375
स्मार्टफोन 3375
input 3374
mat 3374
अड्डा 3374
दुल्हन 3374
लाठी 3374
rarely 3373
strange 3373
2021 3372
nc@@ 3372
technique 3372
winds 3372
कारगर 3372
सहन 3372
melbourne 3371
t20i 3370
tigers 3369
फर्म 3369
यादों 3369
दुसरे 3368
सद@@ 3368
au 3367
scholars 3367
चम@@ 3367
ड़ने 3367
appeals 3365
learned 3365
liberation 3365
stringent 3365
टूटी 3365
मिश्रण 3365
यथार्थ 3365
consuming 3364
pad 3364
प्रसारित 3364
recognise 3363
default 3362
mahajan 3362
सस्ता 3362
risen 3361
तकलीफ 3361
सतह 3361
78@@ 3360
cyclone 3360
dishes 3360
kanpur 3360
उद्यान 3360
पार@@ 3360
भरत 3360
parks 3359
balanced 3358
exception 3358
violating 3358
टरी 3358
ब्रह्म 3358
2016,0@@ 3357
dying 3357
dynamic 3357
सावधानी 3356
deo 3355
telephone 3354
dealers 3353
tors 3353
उत्साहित 3353
lin@@ 3352
mate 3352
sushil 3352
डिमांड 3352
पंक्ति 3352
सुनाया 3352
ठेका 3351
डालर 3351
तेलंगाना 3351
लॉ 3351
conveyed 3350
longest 3350
प्राथमिकी 3348
सुखद 3347
slogan 3344
upgrade 3344
वैन 3343
azhar 3342
जिम 3342
णों 3342
डीह 3340
अनुशासन 3339
एड 3339
मनरेगा 3339
implications 3338
unfair 3338
रिक्शा 3338
cream 3337
बीती 3337
deployment 3336
suv 3336
ee 3335
karachi 3334
क्वार्टर 3334
नारा 3334
सती 3334
congratulated 3333
destroy 3333
छापा 3333
establishing 3332
prone 3332
सर्जन 3332
capability 3331
mizoram 3331
कंधे 3331
definition 3330
tin 3330
जूझ 3330
टेशन 3330
नाइट 3330
निर्देशित 3330
पहनने 3330
meters 3329
चढ़ा 3329
परामर्श 3329
रते 3329
लेख@@ 3328
सौर 3328
स्थितियों 3328
adoption 3327
dor@@ 3327
सीखा 3327
mid@@ 3324
commentary 3323
प्रभावशाली 3323
भगवान् 3323
ashram 3322
describing 3322
funeral 3322
inder 3322
escaped 3321
nabi 3321
pak@@ 3321
ंदर 3321
dd@@ 3320
पहलुओं 3320
विगत 3320
grab 3319
hem@@ 3318
उसमे 3317
लैपटॉप 3317
decent 3316
filling 3315
ignore 3315
सौरभ 3315
12वीं 3314
object 3314
टैक्सी 3314
दुरुस्त 3314
घोर 3313
धमाके 3313
1990s 3312
couples 3312
आइ 3312
paramilitary 3311
निर्देशों 3311
bio 3310
turkish 3310
उमा 3310
घेरे 3310
computers 3309
discussing 3309
लिक 3309
chest 3308
कॉफी 3308
separatist 3307
सफ़र 3307
ncr 3306
treaty 3306
एनडीए 3306
छात्राएं 3306
detected 3305
क्षति 3305
रिटर्न 3305
volumes 3304
ईद 3304
क्ट 3304
नपुर 3304
लैस 3304
105 3303
फूट 3303
बवाल 3303
bone 3302
partly 3302
rishi 3302
कोचिंग 3302
टूटने 3302
niti 3301
refers 3301
एएसआई 3300
परिवेश 3300
upto 3299
बॉल 3299
halt 3298
मुसीबत 3296
appreciation 3294
kho@@ 3294
observers 3294
separately 3294
गणतंत्र 3294
दर्शाता 3293
दुर्भाग्य 3293
ines 3292
inf@@ 3292
morcha 3292
structural 3292
samiti 3291
इंटर@@ 3291
djokovic 3289
टियों 3289
पिया 3289
छानबीन 3288
beef 3287
contractor 3287
kid 3287
ध्@@ 3287
नोटबंदी 3287
प्रेमिका 3287
2.0 3286
afraid 3286
equ@@ 3286
horse 3286
tehran 3286
yal 3286
काओं 3286
जीप 3286
लॉजी 3286
cag 3285
chavan 3285
lad@@ 3285
बनारस 3285
मार्क 3285
हिस्सेदारी 3285
घि@@ 3284
glory 3283
नींव 3283
न्त 3283
एक्ट्रेस 3281
बीवी 3281
सोसाइटी 3281
sept 3280
सत्य@@ 3280
assigned 3279
आत्मविश्वास 3279
निय@@ 3279
dera 3278
rahane 3278
reg@@ 3278
tim 3278
vietnam 3278
फोरम 3278
श्रमिकों 3278
messi 3277
qualify 3277
rounder 3277
मिसाल 3277
20th 3276
ches 3276
hiring 3276
jyoti 3276
serial 3276
पन्ने 3275
musharraf 3274
तान 3274
परिवर्तित 3274
mars 3273
nationwide 3273
shroff 3273
ud 3273
ससुर 3273
radical 3272
रॉ@@ 3272
ेगी 3272
oppose 3271
engaging 3270
governing 3270
व्यावहारिक 3270
brigade 3269
collecting 3269
निकलता 3269
रवि@@ 3269
lender 3268
slip 3268
ग़लत 3268
dot 3267
propaganda 3267
py@@ 3267
वादियों 3267
meals 3266
offensive 3266
दस्तावेजों 3266
षा@@ 3266
bo 3265
silk 3265
shiva 3264
suggesting 3264
इज्जत 3264
तरक्की 3264
तिया 3264
शिकायतों 3264
66@@ 3263
ऊपरी 3263
explosion 3262
vibrant 3262
invitation 3261
bulk 3260
argentina 3259
deciding 3258
कतई 3258
वगैरह 3258
typical 3257
meghalaya 3256
सेवा@@ 3256
स्टि@@ 3256
personalities 3255
competitions 3253
grid 3253
hs 3253
रवैया 3253
fray 3252
planes 3252
surprisingly 3252
गुल 3252
फ्लाइट 3252
21st 3251
choosing 3251
oh 3251
utility 3251
खुदाई 3251
गुरुद्वारा 3251
चित्रों 3251
डेस्क 3251
0,@@ 3250
aids 3249
metre 3249
तोमर 3249
महंत 3249
trs 3247
प्लेट 3246
deny 3245
आदरणीय 3245
casual 3244
dol@@ 3244
fault 3244
highlighting 3244
kir@@ 3244
जापानी 3244
सेठ 3244
explanation 3242
gaon 3242
kaif 3242
थानों 3242
sacrifice 3241
variant 3241
करों 3241
सिद्धार्थ 3241
dawn 3240
leg@@ 3240
strictly 3240
मस्त 3240
7th 3238
convince 3238
स्मारक 3238
applicants 3237
hon@@ 3237
morgan 3237
सरकारें 3237
misuse 3236
terminal 3236
विफल 3236
दुबई 3235
समर्पण 3235
स्पर्श 3235
5th 3234
उठाई 3234
क्रिसमस 3234
12:@@ 3233
kal 3233
तन@@ 3233
alise 3232
banner 3232
immigrants 3231
kad@@ 3230
removing 3230
एडवोकेट 3230
अनूप 3229
मोहित 3229
110@@ 3228
convicts 3228
न्यूजीलैंड 3228
पहुँचा 3228
nanda 3227
registrar 3227
सम्मिलित 3227
realme 3226
sharply 3226
काल@@ 3226
ब् 3226
planted 3225
romance 3225
ख़ान 3225
ग्र@@ 3225
arsenal 3223
barrel 3223
shivaji 3223
सम 3223
autonomous 3222
deeper 3222
जग 3222
न्ट 3222
hu 3221
ireland 3221
फ्रे@@ 3220
समन्वय 3220
laden 3219
sit@@ 3219
6:@@ 3218
str@@ 3218
supplied 3218
अपनाया 3218
फुल 3218
बुलाकर 3218
succeeded 3216
सस्ती 3215
नक्षत्र 3214
alok 3213
bansal 3213
headlines 3213
कांत 3213
मतभेद 3213
20:@@ 3212
explaining 3212
ण्ड@@ 3212
माओवादियों 3212
समुद्री 3212
consistently 3211
elaborate 3211
red@@ 3211
प्रतिबंधित 3211
फोटोज 3211
लगाये 3211
सता 3210
comprises 3209
औपचारिक 3209
ज्ञान@@ 3209
ठंडा 3209
पंद्रह 3209
हेक्टेयर 3209
dcp 3208
निवारण 3208
जीतकर 3207
डीजीपी 3207
मंथन 3207
लाई@@ 3207
कहानियां 3206
bhaskar 3205
gaining 3205
preserve 3205
rajeev 3205
reception 3205
suggestion 3205
अपनाने 3205
menon 3204
trai 3204
slipped 3203
somehow 3203
ठगी 3203
यूथ 3203
nominee 3202
डू 3202
23.@@ 3201
bidding 3201
tara 3201
कैंपस 3201
भंडार 3201
factories 3200
फैलाने 3200
मद 3200
thick 3199
wished 3199
पुख्ता 3199
sisodia 3198
महोदय 3198
fy@@ 3197
pact 3197
समृद्ध 3197
बाला 3196
exemption 3195
निचले 3195
प्लस 3195
ल्ली 3195
ny@@ 3194
पिंग 3194
23,@@ 3193
throwing 3193
डील 3192
सज़ा 3192
jat 3191
mess 3190
mill 3190
अध्यापकों 3190
माननीय 3190
surat 3189
investigated 3188
shakti 3188
srivastava 3188
पकड़कर 3188
booking 3187
lieutenant 3187
technological 3187
क्योकि 3187
धुन 3187
सुन@@ 3186
55@@ 3185
hin@@ 3185
jal 3185
zo@@ 3185
sy 3184
कम्युनिस्ट 3184
bir@@ 3183
फेस्टिवल 3183
allah 3182
bun@@ 3182
kes@@ 3182
dab@@ 3181
ind 3181
intensity 3181
oli 3181
reservations 3181
एम्स 3181
रान 3181
kon@@ 3180
pilots 3180
जातीय 3180
प्रिया 3180
25,@@ 3179
bsnl 3179
yamuna 3179
सेक्रेटरी 3179
acute 3178
sn@@ 3178
worship 3178
dy@@ 3177
hun@@ 3177
नानी 3177
lifetime 3176
shami 3176
दहशत 3176
1982 3175
flu 3175
चना 3175
चुप्पी 3175
म्यूजिक 3175
gay 3174
hen@@ 3174
mobility 3174
reminded 3174
सऊदी 3174
poses 3173
sam 3173
कराकर 3173
बसंत 3173
र्थ 3173
finalised 3172
rat@@ 3172
trace 3172
जम 3172
parameters 3171
amar 3170
linking 3170
अंतर्@@ 3170
brutal 3169
ched 3169
ile 3169
neighbour 3169
switzerland 3169
दुर्लभ 3169
evaluation 3168
fore@@ 3168
प्यास 3167
landmark 3166
mantri 3166
observe 3166
आरक्षित 3166
genre 3165
माली 3165
instrument 3164
skilled 3164
trigger 3164
अर्जित 3164
औरतों 3164
नाबाद 3164
पानीपत 3164
woes 3163
बहाना 3163
jawans 3162
सक्सेना 3162
,2019,12@@ 3161
pdt 3161
मेजर 3161
मोती 3161
सावन 3161
developer 3160
exists 3160
idol 3160
relation 3160
tears 3160
वाई@@ 3160
informal 3159
बीर 3159
retailers 3158
wh@@ 3158
मंशा 3158
मोर्चे 3158
jitendra 3157
lat@@ 3157
बराबरी 3157
रहमान 3157
ology 3156
कलाम 3156
चलेगी 3156
combine 3155
चलें 3155
रित 3155
bb@@ 3154
निहित 3154
हॉट 3154
angle 3153
hosting 3153
literally 3153
mitra 3153
भयानक 3153
हार्ट 3153
careful 3152
curfew 3152
पक@@ 3152
रिश्तेदारों 3152
protein 3151
निर्दलीय 3151
लगेगी 3151
exploring 3150
mba 3150
deb@@ 3149
parallel 3149
struggled 3149
गेम्स 3149
रिपोर्टर 3149
ris@@ 3148
shanghai 3148
अलर्ट 3148
पों 3148
authors 3147
carries 3147
recommend 3147
selfie 3147
वसुंधरा 3147
casting 3146
filmmakers 3146
plain 3146
चलाए 3146
सिंगापुर 3146
हिंसक 3146
pic@@ 3145
submission 3145
फा 3145
att@@ 3144
entrepreneurship 3144
fla@@ 3144
नैतिकता 3144
श्रमिक 3144
स्पेन 3144
argue 3143
ate@@ 3143
bhu@@ 3143
brave 3143
rolls 3143
होंने 3143
beer 3142
consolidated 3142
purchases 3142
अकेली 3142
उतने 3142
बुलाई 3142
drinks 3141
चिन्ह 3141
atm 3140
तेज़ 3140
महीना 3140
kap@@ 3139
po 3139
अवधारणा 3139
टना 3139
cam@@ 3138
eighth 3138
pathak 3138
टाल 3138
22,@@ 3137
व्यवसायी 3137
vidhan 3136
bhatia 3135
desired 3135
ily 3135
अपराह्न 3135
shaw 3134
कर्नल 3134
झो@@ 3134
पुरस्कृत 3134
प्रतिभागियों 3134
मुजफ्फरनगर 3134
fantastic 3133
queries 3133
नेवाला 3133
बेहोश 3133
quantum 3132
एक्टर 3132
माँग 3132
flash 3131
su 3131
कुत्तों 3131
hum 3130
अंबाला 3130
मूड 3130
javed 3129
मॉल 3129
briefing 3127
framed 3127
अनुभूति 3127
पक्का 3127
fires 3126
saina 3126
sher@@ 3126
रें 3126
mo 3125
martyrs 3124
og@@ 3124
permitted 3124
101 3123
basically 3123
इमरजेंसी 3123
ऑफिसर 3123
desperate 3122
मांझी 3122
25.@@ 3121
enthusiasm 3121
integral 3121
मधु 3121
bc 3120
दुबारा 3120
नं 3120
सेस 3120
ori@@ 3119
अला@@ 3119
कैदियों 3119
bitter 3118
phases 3118
shy 3118
चलन 3118
sick 3117
taxation 3117
vegetable 3117
पीजी 3117
नाना 3116
निगाह 3116
मोहल्ला 3116
स्टेशनों 3116
sing@@ 3115
किराये 3115
ड़ियों 3115
प्रशिक्षित 3115
मानों 3115
acceptable 3114
button 3114
sr 3114
erupted 3113
gardens 3113
stray 3113
vacation 3113
स्ता@@ 3113
automatic 3112
ites 3112
सीरियल 3112
,2019,12:@@ 3111
11th 3111
3/@@ 3111
प्रश्नों 3111
वाणिज्य 3111
treating 3110
कारोबारियों 3110
गलियों 3110
टने 3110
्यु@@ 3110
26,@@ 3109
rang@@ 3109
may@@ 3108
अग्रणी 3108
इरादा 3108
महानगर 3108
स्पे@@ 3108
mentally 3107
aj 3106
chatterjee 3106
generating 3106
ger 3106
involve 3106
दै@@ 3106
objections 3105
पड़@@ 3105
circles 3104
economists 3104
surrender 3104
हार्@@ 3104
fun@@ 3102
jal@@ 3102
गिर@@ 3102
मुकदमे 3102
contractors 3101
आईडी 3101
सेमिनार 3101
clause 3100
stir 3100
अभियोजन 3100
संग्रहालय 3099
स्पेस 3099
lg 3098
कोशिकाओं 3098
hel@@ 3097
meaningful 3097
sand@@ 3097
underground 3097
apology 3096
severely 3096
witnessing 3096
अर्जी 3096
ड्राइव 3096
respected 3095
गेंदों 3095
रासायनिक 3095
bazaar 3094
colleague 3094
mata 3094
pays 3094
satisfaction 3094
confirm 3093
जात 3093
1.3 3092
printed 3092
swift 3092
दोषियों 3092
मिस्र 3092
लाता 3092
3000 3091
isha 3091
डिपो 3091
24,@@ 3090
allotment 3090
apartment 3090
ओडिशा 3090
निया@@ 3090
नेहा 3090
मौलाना 3090
वोटर 3090
ंसी 3089
व्यर्थ 3088
सच्ची 3088
democrats 3087
एक्सचेंज 3087
वादे 3087
boats 3086
conclave 3086
fabric 3086
indication 3086
डन 3086
निदेशालय 3086
anymore 3085
das@@ 3085
negligence 3085
specialist 3085
नर्@@ 3085
मिक 3085
ged 3084
funny 3083
vil@@ 3083
तक@@ 3083
breast 3082
subsidies 3082
मस@@ 3082
रूपी 3082
flats 3081
saeed 3081
wisdom 3081
दांव 3081
fr 3080
furniture 3080
नेताजी 3080
न्द 3080
प्री 3080
ents 3079
झूठे 3079
दिल@@ 3079
पहुँचने 3079
प्र 3079
प्रेमचंद 3078
are@@ 3077
column 3077
gha@@ 3077
gro@@ 3077
देखरेख 3077
प्रारम्भ 3077
agrawal 3076
aicc 3076
contestants 3076
install 3076
kabul 3076
कन@@ 3076
दीजिये 3076
स्पॉट 3076
containing 3075
गोदाम 3075
shaikh 3074
उठकर 3074
हि 3074
ging 3073
ग्यारह 3073
grace 3072
एसके 3072
ट्रो@@ 3072
kailash 3071
एन्@@ 3071
त्वरित 3071
महिमा 3071
सुसाइड 3071
lit@@ 3070
vinay 3070
केबल 3070
निकासी 3070
बोलना 3070
सर्किट 3070
fifty 3069
horror 3069
logical 3069
sol@@ 3069
स्वाइन 3069
hailing 3068
presenting 3068
बहा@@ 3068
runner 3067
turnover 3067
जताते 3067
rated 3066
कृष्ण@@ 3065
लत 3065
automobile 3064
tan 3064
चादर 3064
दलाल 3064
पप्पू 3064
legs 3063
beneficial 3062
sawant 3062
प्रीति 3062
conversion 3061
grass 3061
land@@ 3061
mom 3061
आयुर्वेद 3061
इम्@@ 3061
मद@@ 3061
यादें 3061
सावधान 3061
berg 3060
investigators 3060
sari 3060
समानता 3060
108@@ 3059
forth 3059
viewed 3059
अंबेडकर 3059
seasons 3058
wherever 3058
खपत 3058
दिव्य 3058
spite 3057
दिलाई 3056
94@@ 3055
jamshedpur 3055
जिम्मा 3055
ब्रे@@ 3055
24.@@ 3054
sarpanch 3054
घ 3054
औषधि 3053
अन्तर 3052
डै@@ 3052
प्रीत 3052
27,@@ 3051
yed 3051
गेस्ट 3051
बदन 3051
राई 3051
रैंकिंग 3051
complicated 3050
serves 3050
एमडी 3050
शर्ट 3050
3d 3048
ami 3048
ind@@ 3048
necessarily 3048
बू 3048
संभालने 3048
ik@@ 3046
समग्र 3046
सलीम 3046
दीवारों 3045
dan 3044
tively 3044
zz@@ 3044
भावी 3044
महंगी 3044
लगेंगे 3044
59@@ 3043
babri 3043
photography 3043
slum 3043
एमएस 3043
चरम 3043
nim@@ 3042
permit 3042
राजनेता 3042
nat@@ 3041
objectives 3041
workforce 3041
सन@@ 3041
anga 3040
तल@@ 3040
interference 3039
mg 3039
उपा@@ 3039
खातों 3039
culprits 3038
आजम 3038
बदौलत 3038
vhp 3037
ghat 3036
संवैधानिक 3036
supremo 3035
प्रदर्शनकारियों 3035
pat 3034
amma 3033
observation 3033
आरम्भ 3033
जमा@@ 3033
महानिदेशक 3033
adani 3032
annum 3032
appreciate 3032
defeating 3032
trap 3032
करवाना 3032
tribes 3031
क्ष 3031
टैग 3031
फोकस 3031
रजिस्टर 3031
संगठित 3031
संभाग 3031
स्थ@@ 3031
हलचल 3031
2019,@@ 3030
wheeler 3030
कार्तिक 3030
निशाने 3030
बादशाह 3030
dad 3029
ंका 3029
डाइ@@ 3029
प्रणाम 3029
ula 3028
टाइगर 3028
प्यारे 3028
बरसों 3028
साम्राज्य 3028
commissioners 3027
consumed 3027
dancer 3027
oo 3027
माथुर 3027
खेलना 3026
ब्लू 3026
biopic 3025
defended 3025
sor@@ 3025
पुस्तकें 3025
स्टेज 3024
स्मरण 3024
accessible 3022
azam 3022
cy@@ 3022
arranged 3021
fle@@ 3021
sad@@ 3021
surplus 3021
swamy 3021
centers 3020
कैदी 3020
ths 3019
शन@@ 3019
bankers 3018
qualification 3018
मुखी 3018
bin@@ 3017
youngest 3017
मेट 3017
6.5 3016
odis 3016
tre@@ 3016
inauguration 3015
ith 3015
कण 3015
कीं 3015
5.5 3014
counterparts 3014
marry 3014
tri 3014
नाग 3014
संरक्षक 3014
automatically 3013
जरुरी 3013
नन 3013
बचाओ 3013
mahendra 3012
खी 3012
continuously 3011
mirza 3011
mughal 3011
od 3011
summoned 3011
bush 3010
nahi 3010
गोस्वामी 3010
1950 3009
gau@@ 3009
pocket 3009
लिटी 3009
पीएस 3008
athi 3007
एमबीए 3007
समृद्धि 3007
 3006
भौ@@ 3006
मिया 3006
priorities 3005
मि 3005
सीवरेज 3005
intensive 3004
kul@@ 3004
ग्रहों 3004
मार@@ 3004
crackdown 3003
घेर 3003
पलायन 3003
convened 3002
इमाम 3002
तमिल 3002
alised 3001
coupled 3001
noting 3001
इलेक्ट्रॉनिक 3000
क्रा@@ 3000
ताः 3000
परंपरागत 3000
ik 2999
दांत 2999
पाल@@ 2999
मार्केटिंग 2999
crashed 2998
fever 2998
rajinikanth 2998
घोड़े 2998
directing 2997
एंटी 2997
मनु 2997
हिदायत 2997
chocolate 2996
perceived 2996
spare 2996
bottles 2995
recalls 2995
नौकर 2995
प्यारी 2995
फैली 2995
dg@@ 2994
hur@@ 2994
पल@@ 2994
2,500 2993
cake 2993
ngt 2993
handled 2992
nas@@ 2992
हर्ष 2992
१९@@ 2992
तोड़ा 2991
दयाल 2991
प्वाइंट 2991
advertisement 2990
knee 2990
obc 2990
शत 2990
assumed 2989
io 2989
marking 2989
sis 2989
sk 2989
subscribers 2989
एसडीओ 2989
नर्मदा 2989
रामपुर 2989
engines 2988
बडा 2988
belonged 2987
forensic 2987
logic 2987
shivraj 2987
ज़ोर 2987
डेट 2987
सल 2987
charan 2986
indirect 2986
separatists 2986
transfers 2986
चाहत 2986
ku 2985
उतारने 2985
पायी 2985
शान्ति 2985
cle@@ 2984
fairly 2984
kumari 2984
ronaldo 2984
ट्रेड 2984
परेशानियों 2984
log 2983
किसके 2983
झेल 2983
रम 2983
eggs 2982
hatred 2982
taylor 2982
गाव 2982
चम्मच 2980
चलाना 2980
प्लानिंग 2980
licences 2979
honor 2978
influenced 2978
manual 2978
piyush 2978
tb 2978
केदारनाथ 2978
360 2977
dun@@ 2977
label 2977
देखेंगे 2976
voluntary 2975
backs 2974
fil@@ 2974
minus 2974
0,000 2973
छठ 2973
पहेली 2973
snowfall 2972
colonial 2971
dhan 2971
loaded 2971
quoting 2971
फ़े@@ 2971
gym 2970
knight 2970
shaped 2970
प्रगतिशील 2970
विदाई 2970
saint 2969
न्द@@ 2969
barring 2968
cuisine 2968
doubled 2968
gy@@ 2968
जॉब 2968
67@@ 2967
जवा@@ 2967
निष्पक्ष 2967
बचाया 2967
मकानों 2967
अक्षर 2966
क्शन 2966
loose 2965
rely 2965
कमजोरी 2965
68@@ 2964
enormous 2964
journalism 2964
our@@ 2964
pilgrimage 2964
परीक्षाओं 2964
सूद 2964
21:@@ 2963
meteorological 2963
त्रा 2963
प्ले 2963
वेट 2963
litigation 2962
sho 2962
तियाँ 2962
vers 2961
दाखिला 2961
धंधा 2961
firmly 2960
hyundai 2960
somewhat 2960
कार्यालयों 2960
qaeda 2959
traditionally 2959
tic@@ 2958
राख 2958
cargo 2957
ranaut 2957
साकार 2957
imagination 2956
liquid 2956
oral 2956
org 2956
tolerance 2956
ंगा@@ 2956
ऑस्ट्रेलियाई 2956
cro@@ 2955
tly 2955
अपलोड 2955
काटकर 2955
छे@@ 2955
जेट 2955
discount 2954
डॉट 2954
पटियाला 2954
abhiyan 2953
जलवायु 2953
दाना 2953
शाह@@ 2953
हान 2953
pacer 2952
dividend 2951
नग@@ 2950
पत्रिकाओं 2950
वु@@ 2950
query 2949
टः 2949
सॉ@@ 2949
traded 2948
खासतौर 2948
affects 2947
muscle 2947
अध@@ 2947
आईआईटी 2947
जरूरतों 2947
commitments 2946
leela 2946
objects 2946
khan@@ 2945
माइकल 2945
chargesheet 2944
hospitality 2944
आमदनी 2944
००० 2944
hang 2943
गरिमा 2943
4g 2942
इस्@@ 2942
खिला@@ 2942
दंगे 2942
पक्षियों 2942
साई@@ 2942
jack 2941
misra 2941
तै@@ 2941
बढ़ाई 2941
chasing 2940
compound 2940
interact 2940
जानकार 2940
भाग@@ 2939
ceiling 2938
fulfil 2938
pl 2938
गान 2937
बेड 2937
acceptance 2936
arm@@ 2936
gather 2936
occur 2936
wells 2936
दसवीं 2936
हावी 2936
arena 2935
bombs 2935
pledge 2935
provider 2935
pt@@ 2935
publication 2935
मसलन 2935
मुर्@@ 2935
विजयी 2935
वास्तविकता 2934
kaushal 2933
metropolitan 2933
kms 2932
छाती 2932
यीशु 2932
शत्रु 2932
हन 2932
Y@@ 2931
elevated 2931
शहीदों 2931
cc@@ 2930
colourful 2930
iim 2930
probing 2930
कुंडली 2930
पिछड़े 2930
सत@@ 2930
black@@ 2929
drone 2929
substance 2929
एसएचओ 2929
til@@ 2928
wari 2928
खे 2928
ट्रै@@ 2928
मूवी 2927
pil@@ 2925
इलाका 2925
फौज 2925
ther@@ 2923
vacancies 2923
गर्ल्स 2923
checks 2922
ek@@ 2922
जाय@@ 2922
19th 2921
guided 2921
shashi 2920
ख्@@ 2920
पट 2920
richard 2919
uni@@ 2919
आस्ट्रेलिया 2919
सभागार 2919
hat@@ 2918
डेवलपमेंट 2918
humour 2917
overwhelming 2917
revision 2917
ट्टी 2917
deprived 2916
maharaj 2916
प्रमाणित 2916
120@@ 2915
ntpc 2915
rifles 2915
striker 2915
trafficking 2915
आव@@ 2915
बनाएं 2915
मधु@@ 2915
evms 2914
jam 2914
ree 2914
smriti 2914
ौर 2914
,2019,11@@ 2913
horticulture 2913
jp 2913
lifting 2913
renewed 2913
लाहौर 2913
फ़िल्मों 2911
षी 2911
finger 2910
lar@@ 2910
sparked 2910
tenders 2910
1979 2909
ंगे@@ 2909
छी@@ 2909
दु 2909
पढ़िए 2909
हैं@@ 2909
लोकायुक्त 2907
8,000 2906
aide 2906
entrepreneur 2906
अग्रिम 2906
पढ@@ 2906
रचनात्मक 2906
समा 2906
padma 2905
प्रयुक्त 2905
tru@@ 2904
outskirts 2903
sovereign 2903
उन@@ 2903
शक्तियों 2903
लाये 2902
cows 2901
इवेंट 2901
commissioned 2900
exercises 2900
royals 2900
त्तर 2900
पोर्टल 2900
मिसाइल 2900
bankruptcy 2899
coordinator 2899
mike 2899
fir@@ 2898
replying 2898
संग्राम 2897
thermal 2896
गायन 2896
crunch 2895
gaza 2895
punished 2894
आरएस 2894
विवश 2894
aspirants 2893
नवाज 2893
मीर 2893
म्प@@ 2893
copies 2892
supervision 2892
विशेषकर 2892
administered 2891
consultancy 2891
dean 2891
eligibility 2891
fro@@ 2891
maritime 2891
tho@@ 2891
नौजवान 2891
ure 2890
गवर्नर 2890
निदान 2890
वार्@@ 2890
competing 2889
presidents 2889
psychological 2889
कीजिये 2889
थानाध्यक्ष 2889
निजात 2889
marvel 2888
sanskrit 2888
interviews 2887
tcs 2887
चन्द्र@@ 2887
त्ता 2887
excessive 2886
tia 2886
मर्जी 2886
obtain 2885
girlfriend 2884
postponed 2884
squ@@ 2884
ंट@@ 2884
छोर 2884
2:@@ 2883
respondents 2883
tactics 2883
इन्कार 2883
debris 2882
खातिर 2882
102 2881
anti@@ 2881
mount 2881
एड्स 2881
संवेदना 2881
fm 2880
gesture 2880
sorry 2880
apur 2879
gul@@ 2879
suspicion 2879
ंके 2879
आन 2879
विराम 2879
eri 2878
nor@@ 2878
speci@@ 2878
paise 2877
wr@@ 2877
कुत्ता 2877
flags 2876
टर्@@ 2876
बौद्धिक 2876
भाटिया 2876
विद्रोह 2876
solo 2875
granting 2874
undergo 2874
buried 2873
lions 2873
कार्बन 2873
नफरत 2873
juvenile 2872
जिनको 2872
रूपों 2872
कूड़ा 2871
जला@@ 2871
businessmen 2870
ving 2870
जंगली 2870
रौ@@ 2870
textile 2869
अख्तर 2869
कलेक्शन 2869
ach 2868
sikkim 2868
tion@@ 2868
जीआरपी 2868
नाइ@@ 2868
िया 2868
60@@ 2867
enhancing 2867
udhampur 2867
टोली 2867
controlling 2866
eliminate 2866
francisco 2866
चित 2866
टता 2866
दुरुपयोग 2866
मुल्क 2866
रियो 2866
साहेब 2866
liability 2865
cji 2864
ंकी 2864
गें 2864
तुर्की 2864
प्रयत्न 2864
1962 2863
awaiting 2863
gov 2863
खर@@ 2863
तिब्बत 2863
फरीदाबाद 2863
सिद्धू 2863
item 2861
हौ@@ 2861
license 2860
असंभव 2860
अभय 2859
काया 2859
बन्@@ 2859
प्रवासी 2858
भ्रूण 2857
अविनाश 2856
sustain 2855
चने 2855
जुटाने 2855
fal@@ 2854
फर्स्ट 2854
बढ़ेगी 2853
सिखाया 2853
170 2852
dd 2852
declining 2852
prevented 2852
humanitarian 2851
1980s 2850
nic 2850
jaya 2849
maj@@ 2849
अंतर@@ 2849
राज्य@@ 2849
chartered 2848
pockets 2848
रणवीर 2848
neha 2847
निर्दोष 2847
cci 2846
deliveries 2846
dp 2846
dressing 2846
कर्ताओं 2846
बाघ 2846
coconut 2845
goel 2845
kartik 2845
ओपी 2845
himalayan 2844
lecture 2844
mystery 2844
towers 2844
हैरानी 2844
आहत 2843
एसटी 2843
रसायन 2843
खासा 2842
पतन 2842
ayushmann 2840
एलान 2840
lers 2839
proportion 2839
tel@@ 2839
वेश 2839
44@@ 2838
fied 2837
इच्छुक 2837
्यू@@ 2837
axis 2836
committing 2836
stays 2836
अंचल 2836
अर 2836
सैंपल 2836
amarnath 2835
hit@@ 2835
जता 2835
सेवानिवृत्त 2835
admits 2834
commenting 2834
garg 2834
jinping 2834
warming 2834
पुस्तिका 2834
अहंकार 2833
कतार 2833
पेन 2833
राज्यमंत्री 2833
has@@ 2832
kya 2832
wheelers 2832
कहो 2832
cater 2831
enabling 2831
ladies 2831
opponent 2831
बिल्ली 2831
खुशबू 2830
christians 2829
divisions 2829
सैर 2829
aan 2828
incumbent 2828
nit@@ 2828
क्रांतिकारी 2828
रहेंगी 2828
राठौड़ 2828
dly 2827
,2019,2@@ 2826
objection 2826
paired 2826
stopping 2826
राइ@@ 2826
रेड्डी 2826
सीमेंट 2826
hire 2825
zee 2825
कमरों 2825
शूट 2825
broadcast 2824
insurgency 2824
जावेद 2824
रल 2824
aria 2823
retained 2823
सिम 2823
shilpa 2822
studios 2822
आदर 2822
डाक्टरों 2821
directive 2820
धमाल 2820
मशक्कत 2820
deshmukh 2819
imposing 2819
networking 2818
अधिसूचना 2818
ईंधन 2818
ऊंचे 2818
करो@@ 2818
डिवीजन 2818
abvp 2817
kunal 2817
lalit 2817
तरुण 2817
भरकर 2817
gol@@ 2816
kri@@ 2816
pixel 2816
racket 2816
आइटम 2816
संतों 2816
स्थाई 2816
missiles 2815
पाटिल 2815
comic 2814
crowds 2814
indulging 2814
mic@@ 2814
केन्द्रों 2814
outs 2813
वर्ण 2813
सपोर्ट 2813
scholar 2812
तारों 2812
नर्सिंग 2812
विक 2812
स्प@@ 2812
,000 2811
P 2811
shraddha 2811
gaurav 2810
टकर 2810
मजेदार 2810
महासभा 2810
विदा 2810
1981 2809
evolved 2809
pnb 2809
pu 2809
clearing 2808
manufacturer 2808
पार्टनर 2808
PM@@ 2807
habits 2807
cb@@ 2805
heroes 2805
आसन 2805
ज़माने 2805
लाती 2805
powder 2804
bhutan 2803
startup 2803
अन्त 2803
अवॉर्ड 2803
इंग्लिश 2803
टूर 2803
माथे 2803
शर्तों 2803
aayog 2802
किला 2802
प्रॉ@@ 2802
महाजन 2802
माकपा 2802
contains 2801
flagged 2801
iv 2801
phd 2801
protested 2801
गुजरने 2801
तिल 2801
पीते 2801
रोते 2801
समकालीन 2801
15th 2800
26/11 2800
emphasised 2800
quantity 2800
मनमानी 2800
हाजिर 2800
22.@@ 2799
contained 2799
kol@@ 2799
गढ़@@ 2799
नमन 2799
leaked 2798
wrestling 2798
टते 2798
advertisements 2797
plantation 2797
tagore 2797
wimbledon 2797
जानकर 2797
चालीस 2796
मोर 2796
casualties 2795
ming 2795
अंबानी 2795
fulfilled 2794
trio 2794
लिखता 2794
सेज 2794
briefed 2793
झंडा 2793
bul@@ 2792
yeddyurappa 2792
समितियों 2792
programs 2791
एक्सपर्ट 2791
कश्मीरी 2791
गाजियाबाद 2791
dri@@ 2790
बाते 2790
grief 2789
publishing 2789
मर्यादा 2789
budgam 2788
kisan 2788
उपरांत 2788
fraternity 2787
ideological 2787
kl 2787
tional 2787
अमरनाथ 2787
कमला 2787
new@@ 2786
sultan 2786
खूबसूरती 2786
alization 2785
anticipated 2785
setback 2785
अनजान 2785
र्थ@@ 2785
explosive 2784
ep@@ 2783
थम 2783
लिख@@ 2783
15,2019 2782
counselling 2782
deserve 2782
sequel 2782
तुमको 2782
नियां 2782
बयानों 2782
elephants 2781
orange 2781
securing 2781
बलि 2781
संयम 2781
nic@@ 2780
regulators 2780
बेस 2780
alising 2779
denying 2779
dubbed 2779
ंज 2779
तीव्र 2779
प्रबल 2779
babies 2778
che 2778
होड़ 2778
तीर 2777
त्यागी 2777
sang@@ 2776
छावनी 2776
21.@@ 2775
nanak 2775
ati@@ 2774
शोभायात्रा 2774
decisive 2773
declaring 2773
नियत 2772
lasting 2771
stephen 2771
critically 2770
med@@ 2770
द्वि@@ 2770
नोटों 2770
बुलाने 2769
pump 2768
ric@@ 2768
branded 2767
chal@@ 2767
hardware 2767
कीर्तन 2767
न्या@@ 2767
साप्ताहिक 2767
nephew 2766
sleeping 2766
चाहेंगे 2766
धवन 2766
पेंटिंग 2766
लण्ड 2766
संक्षिप्त 2766
lit 2765
निःशुल्क 2765
निर्णायक 2765
वीरभद्र 2765
104 2764
attempting 2764
bash 2764
kher 2764
संज्ञान 2764
लियन 2763
flower 2762
गैंगरेप 2762
comply 2761
ig 2761
swar@@ 2761
चौथा 2761
डल 2761
निवेदन 2761
22:@@ 2760
impacted 2760
पहाड़ों 2760
bahadur 2759
सुराग 2759
nursing 2758
surrounded 2758
खै@@ 2758
ट्रांसपोर्ट 2758
व्यायाम 2758
19,2019 2757
अर्थशास्त्र 2757
एसएस 2757
कमलेश 2757
संशोधित 2757
alli 2756
beings 2756
expressway 2756
घटिया 2756
सियों 2756
हाइवे 2756
aiming 2755
ascertain 2755
deliberately 2755
neutral 2755
नगरपालिका 2755
विविधता 2755
crack 2754
tharoor 2754
धनबाद 2754
प्रेशर 2754
बोस 2754
वैध 2754
26.@@ 2753
aftermath 2753
operates 2753
नाला 2753
certification 2752
exclusively 2752
floated 2752
tically 2752
torture 2752
गण@@ 2752
धरा 2752
बौ@@ 2752
3:@@ 2751
E0 2751
indicating 2751
ms@@ 2751
अतुल 2751
अस्थायी 2751
पथराव 2751
stint 2750
top@@ 2750
उधार 2750
जमशेदपुर 2750
सज्जन 2750
aggarwal 2749
altogether 2749
blessings 2749
pp 2749
registering 2749
बीएस 2749
लिया@@ 2749
श्रवण 2749
28,@@ 2748
addresses 2748
chawla 2748
gambhir 2748
preventing 2748
जातक 2748
टैंक 2748
फ़ैसला 2748
guess 2747
see@@ 2747
solved 2747
पंच 2747
मायके 2747
kant 2746
cancellation 2745
cautious 2745
oned 2745
revolutionary 2745
चेतन 2745
प्रतिपक्ष 2745
बेन 2745
riot 2744
rohingya 2744
वोटों 2744
protestors 2743
tragic 2743
रूचि 2743
empire 2742
किलोग्राम 2742
पेरिस 2742
रती 2742
हॉलीवुड 2742
fares 2741
tap@@ 2741
vitamin 2741
wo@@ 2741
निकलकर 2741
amar@@ 2740
marginal 2740
operative 2740
vat 2740
laugh 2739
जायसवाल 2739
पराजित 2739
व्हाइट 2739
कवि@@ 2738
cousin 2737
dda 2737
nab@@ 2737
shah@@ 2737
shame 2737
travellers 2737
अभिभावक 2737
आएं 2737
ठे@@ 2737
संगीता 2737
ast 2736
conclude 2736
nil@@ 2736
vicky 2736
सम्राट 2736
trips 2734
uddin 2734
मंद 2734
रेटिंग 2734
pmo 2733
जित 2733
मृतका 2733
1978 2732
ans@@ 2732
gl@@ 2732
nab 2732
successor 2732
कीमतें 2732
milan 2731
raje 2731
twist 2731
रक्तदान 2731
cultivation 2730
lens 2730
प्रधानाचार्य 2730
dhaka 2729
ranji 2729
पेट्रोलियम 2729
bir 2728
identifying 2728
occupation 2728
proven 2728
lover 2727
तालमेल 2727
वापिस 2727
23,2019 2726
cadres 2726
nights 2726
noon 2726
sells 2726
sul@@ 2725
चेकिंग 2725
छुटकारा 2725
मोहब्बत 2725
bre@@ 2724
dropping 2724
maidan 2724
sher 2724
जोकि 2724
पत्ते 2724
empowered 2723
जीती 2723
पुतला 2723
बांटने 2723
gil@@ 2722
गर@@ 2722
बनेंगे 2722
रीति 2722
सब्जियों 2722
mercedes 2721
rath 2721
succumbed 2721
taiwan 2721
कविताएं 2721
चिह्न 2721
नवजात 2721
बदलना 2721
chess 2720
plight 2720
बराक 2720
शास्त्रीय 2720
affiliated 2719
lovely 2719
अभ्यर्थी 2719
मशीनों 2719
विश्राम 2719
broadcasting 2718
ere 2718
swachh 2718
wholesale 2718
बल्@@ 2718
स्पीकर 2718
7:@@ 2717
gg@@ 2717
महर्षि 2717
लोकार्पण 2717
atul 2716
patience 2716
शक्ल 2716
kh 2715
umesh 2715
धिकारी 2715
मेह@@ 2715
reader 2714
cpm 2713
dubey 2713
pand@@ 2712
pledged 2712
उपज 2712
difficulty 2711
reactions 2711
ster@@ 2711
झंडी 2711
पेड 2711
सर्वर 2711
jets 2710
kidney 2710
outrage 2710
yuvraj 2710
5/@@ 2709
joins 2709
विडियो 2709
हड़@@ 2709
habit 2708
sayeed 2708
अपितु 2708
दाग 2707
flu@@ 2706
inability 2706
आशय 2706
टूटे 2706
बताएं 2706
failures 2705
gor@@ 2705
kkr 2705
गतिविधि 2705
रायगढ़ 2705
साठ 2705
1972 2704
abraham 2704
av 2704
ढांचे 2704
बोल्ड 2704
cru@@ 2703
presents 2703
ugc 2703
unauthorised 2703
रद 2703
सना 2703
kari 2702
swept 2702
yash 2702
َ 2702
placement 2701
rises 2701
suspicious 2701
gh 2700
startups 2700
फ़ाइल 2700
वंदना 2700
12,2019 2699
kulgam 2699
sms 2699
काटा 2699
दूं 2699
daniel 2698
onion 2698
आँ@@ 2698
सिद्@@ 2698
bala 2697
raided 2697
accountable 2696
non@@ 2696
plots 2696
जैविक 2696
पटवारी 2696
परेड 2696
14th 2695
restructuring 2695
washed 2695
इश्क 2695
छः 2695
मुशर्रफ 2695
हंै 2695
tasks 2694
गोलीबारी 2694
हड्डी 2694
qualifying 2693
ंगें 2693
650 2692
infected 2692
khattar 2692
lauded 2692
shree 2692
करूँ 2692
ky@@ 2691
डियों 2691
सम्भव 2691
perfectly 2690
उग्र 2690
एयर@@ 2690
बंदर 2690
adopting 2689
कानों 2689
डाउन 2689
त्य 2689
वृद्ध 2689
advocates 2688
enjoys 2688
fran@@ 2688
imam 2688
pulling 2688
ramp 2688
ककर 2688
18,2019 2687
diagnosed 2687
outcomes 2687
strengthened 2687
लियाँ 2687
हारे 2687
अपराधों 2686
कार्टून 2686
ट्रॉफी 2686
30,2019 2685
epic 2685
lasted 2685
dirty 2684
nowhere 2684
क्लि@@ 2684
cruise 2683
इस्लामिक 2683
छुपा 2683
जोगी 2683
पाउडर 2683
पुष्प 2683
ambulance 2682
warrant 2682
कहानियाँ 2682
गुलाबी 2682
francis 2681
विजय@@ 2680
hybrid 2679
pelting 2679
spinners 2679
जिंग 2679
siddharth 2678
नजारा 2678
madan 2677
चुनौतियों 2677
नित 2677
24,2019 2676
sec@@ 2676
उड़ीसा 2676
बेदी 2676
avoided 2675
हल@@ 2675
dumping 2674
दिखाना 2673
नाश 2673
पेशे 2673
gwalior 2672
ऋ@@ 2672
धर@@ 2672
lo 2671
statutory 2671
zoo 2671
कलर 2671
indulge 2670
दूँ 2670
aligarh 2669
lanes 2669
wings 2669
दमन 2669
दिखा@@ 2669
हिन्दुओं 2669
dikshit 2668
liver 2668
अनुभवों 2668
मनाई 2668
pi 2667
गां@@ 2667
दही 2667
मधुमेह 2667
यादगार 2667
29,@@ 2666
anthony 2666
gri@@ 2666
nand@@ 2666
फैले 2666
aa@@ 2665
sake 2665
transform 2665
12,000 2664
artistes 2664
ida 2664
jar@@ 2664
mentor 2664
pm@@ 2664
gre@@ 2663
खण्ड 2663
१@@ 2663
maldives 2662
pg 2662
अनुपम 2662
इंद्र@@ 2662
केक 2662
नीलम 2662
बनवाने 2662
शे 2662
liberty 2661
आमने 2661
accommodate 2660
quarterly 2660
religions 2660
कांफ्रेंस 2660
तिक 2660
योगेश 2660
chha@@ 2659
ऊंचा 2659
घटित 2659
मकर 2659
विधवा 2659
harder 2658
kak@@ 2658
paswan 2658
sha 2658
workshops 2658
ड़कर 2658
दन 2658
prophet 2657
कुंभ 2657
जेम्स 2657
orissa 2656
10,2019 2655
goalkeeper 2655
intervene 2655
sic 2655
समाप्ति 2655
साझेदारी 2655
alternate 2654
announces 2654
belgium 2654
chronic 2654
जर@@ 2653
फेर 2653
tournaments 2652
बैटरी 2652
हैसियत 2652
electrical 2651
observing 2651
pramod 2651
stops 2651
suppliers 2651
महाराजा 2651
preventive 2650
brah@@ 2649
corps 2649
चमत्कार 2649
disciplinary 2648
plate 2648
पड़ाव 2648
11,2019 2647
25,2019 2647
concerning 2647
leather 2647
mountains 2647
versions 2647
याना 2647
सुनना 2647
infections 2646
चार@@ 2646
लगाम 2646
शर@@ 2646
suits 2645
पहुँचे 2645
ौ 2645
chart 2644
inviting 2644
soni 2644
कुंड 2644
careers 2643
excitement 2643
vit@@ 2643
मियां 2643
boxes 2642
handful 2642
अपनों 2642
अभिनव 2642
तबादला 2642
परिक्रमा 2642
elect 2641
possibilities 2641
बाथरूम 2641
14,2019 2640
atta 2640
refusing 2640
ठो@@ 2640
धैर्य 2640
पैरा@@ 2640
मध्य@@ 2640
1970 2639
bt 2639
pressed 2639
stepping 2639
unexpected 2639
varma 2639
कचरे 2639
प्रतिस्पर्धा 2639
बाड़ी 2638
ghar 2637
minded 2637
naresh 2637
कोर्@@ 2637
तेवर 2637
परिणामों 2637
बीए 2637
स्टूडियो 2637
सिद्धांतों 2636
accessories 2635
vic@@ 2635
खनिज 2635
बुलंद 2635
प्रतिनिधिमंडल 2634
बोनस 2634
administrator 2633
bias 2633
creativity 2633
stamp 2633
unemployed 2632
पहु@@ 2632
हमलावर 2632
115 2631
deemed 2631
maharaja 2631
priest 2631
फ़ा 2631
विधा 2631
cooked 2630
झांसी 2630
bang 2629
chit@@ 2629
disclosure 2629
खू@@ 2629
निशुल्क 2629
bullets 2628
itc 2628
felicitated 2627
gir@@ 2627
परस्पर 2627
हाउसिंग 2627
mujahideen 2626
rahim 2626
डालें 2626
contributing 2625
literacy 2625
hell 2624
bahujan 2623
वार@@ 2623
एएसपी 2621
दिखी 2621
बढ़ेगा 2621
रिटायर्ड 2621
गाड़ियां 2620
flowing 2619
hemant 2619
कल्@@ 2619
शं@@ 2619
fox 2618
pole 2618
धनी 2618
भोज 2618
वसूल 2618
विवेकानंद 2618
sanctuary 2617
जॉ@@ 2617
फलों 2617
वकालत 2617
drove 2616
loving 2616
manufactured 2616
react 2616
thai 2616
आॅ@@ 2616
गौरी 2616
जीन 2616
पाबंदी 2616
bid@@ 2615
bottle 2615
अतिथियों 2615
बान 2615
स्टै@@ 2615
breakthrough 2614
dixit 2614
gifts 2614
interacting 2614
गिरे 2614
13th 2613
ale@@ 2613
bunch 2613
उस@@ 2613
रिलीज़ 2613
buddhist 2612
graphic 2612
jungle 2612
saini 2612
showcased 2612
trauma 2612
visas 2612
wang 2612
coloured 2611
दामाद 2611
ध्वस्त 2611
प्रमाणपत्र 2611
ढ़ 2610
दलील 2610
़ 2610
builders 2609
paint 2609
yields 2609
खुदरा 2609
26,2019 2608
bread 2608
° 2608
गुफा 2608
सार@@ 2608
csr 2607
ling@@ 2606
slapped 2606
पार्ट 2606
पूछते 2606
assume 2605
corresponding 2605
tear 2605
अख़बार 2605
जुबान 2605
त्या@@ 2605
bhattacharya 2604
jaish 2604
letting 2604
reliable 2604
superior 2604
क्वालिटी 2604
borrowing 2603
breath 2603
javadekar 2603
monitored 2603
अनुभवी 2603
कुश्ती 2603
प्रेमियों 2603
शायरी 2603
शिलान्यास 2603
memorable 2602
migrant 2602
पढ़ाने 2602
लटका 2602
convenience 2601
displaced 2601
कानूनों 2601
kulkarni 2600
wel@@ 2600
wheel 2600
yo 2600
च्@@ 2600
demonstrated 2599
revenge 2599
stalin 2599
triumph 2599
आंगनबाड़ी 2599
एलि@@ 2599
ज्ञानी 2599
77@@ 2598
blessed 2598
charity 2598
गिफ्ट 2598
भावुक 2598
संबद्ध 2598
desh 2597
पडा 2597
16,2019 2595
essence 2595
meena 2595
mortem 2595
rough 2595
vir@@ 2595
yemen 2595
चिकित्सालय 2595
टूटा 2595
curriculum 2594
water@@ 2594
रॉय 2594
सूट 2594
killer 2593
नमूना 2593
आराधना 2592
पॉल 2592
ppp 2591
काला@@ 2591
पैलेस 2591
स्वी@@ 2591
21,2019 2590
27,2019 2590
credible 2590
play@@ 2590
soci@@ 2590
उभर 2590
फिक्सिंग 2590
साधक 2590
chip 2589
nak@@ 2589
stokes 2589
एम्@@ 2589
गॉ@@ 2589
,2019,10@@ 2588
breakfast 2588
disappointing 2588
enters 2588
nervous 2588
थीम 2588
वैचारिक 2588
है” 2588
amenities 2587
odds 2587
siddiqui 2587
घाटे 2587
29.@@ 2586
pped 2586
troubled 2586
चुनने 2586
मतों 2586
हिंद 2586
climbed 2585
prolonged 2585
specified 2585
आड़ 2585
dee@@ 2584
सल@@ 2584
jonas 2583
lakshmi 2583
रैंक 2583
केश 2582
ड़ी@@ 2582
लोहिया 2582
dhar 2581
slain 2581
आरसी 2581
deposited 2580
चंदा 2580
छोड़ी 2580
80@@ 2579
disappointment 2579
disorder 2579
kane 2579
searches 2579
ऊँ 2579
योग@@ 2579
cul@@ 2578
describe 2578
gan 2578
jury 2578
productive 2578
smuggling 2578
गोल@@ 2578
प्लेटफार्म 2578
बच्चो 2578
donation 2577
sas@@ 2577
घाटा 2577
झगड़े 2577
0:@@ 2576
meh@@ 2576
naxal 2576
realty 2576
stem 2576
अत्यन्त 2576
नुसार 2576
भयंकर 2576
मुहर 2576
रहे@@ 2576
gehlot 2575
neeraj 2575
partially 2575
toxic 2575
भुवनेश्वर 2575
diya 2574
picks 2574
swimming 2574
tak 2574
disability 2573
inspire 2573
mad 2573
mathematics 2573
चावला 2572
बेरोजगारी 2572
manufacture 2571
जलाने 2571
प्रवचन 2571
17,2019 2570
vadra 2570
weren 2570
ंडर 2570
consolidation 2569
sibal 2569
spectacular 2569
variants 2569
लीं 2569
सौभाग्य 2569
clip 2568
justified 2568
satya 2568
vijay@@ 2568
indices 2567
mercy 2567
अंग्रेज 2567
चिल्@@ 2567
पहलवान 2567
ब्रिगेड 2567
शिंदे 2567
सत्संग 2567
pleasure 2566
तोड़फोड़ 2566
नेत्र 2566
दखल 2565
समुचित 2565
holidays 2564
चार्य 2564
चौराहा 2564
distinct 2563
finishing 2563
ironically 2563
painted 2563
presided 2563
नागर 2563
पत@@ 2563
7,000 2562
sou@@ 2562
जानकारियां 2562
रोम 2562
tired 2561
topics 2561
क्रमांक 2561
toss 2560
workplace 2560
सीआरपीएफ 2560
30,@@ 2559
mangaluru 2559
meter 2559
कोषाध्यक्ष 2559
:0@@ 2558
cannes 2558
ninth 2558
ंडा@@ 2558
आक्रामक 2558
घोष 2558
तबाही 2558
सईद 2558
authorised 2557
nodal 2557
williamson 2557
उठते 2557
बज 2557
भागे 2557
easing 2556
graduates 2556
sethi 2556
वाड़ा 2556
contempt 2555
decides 2555
netanyahu 2555
obesity 2555
ssc 2555
zia 2555
उम@@ 2555
क्षा 2555
प्रहार 2555
रंगीन 2555
शर्@@ 2555
hails 2554
kath@@ 2554
mohapatra 2554
navi 2554
sixes 2554
लांच 2554
photographer 2553
sized 2553
sworn 2553
कान@@ 2553
घूमते 2553
नक्शा 2553
भागलपुर 2553
आवागमन 2552
पोर्@@ 2552
सुमित 2552
23:@@ 2551
alisation 2551
dem@@ 2551
keys 2551
mortality 2551
pay@@ 2551
wanting 2551
बिल्@@ 2551
ब्रह्म@@ 2551
लिपि 2551
burst 2550
नामी 2550
सेमेस्टर 2550
cluster 2549
loc@@ 2549
netherlands 2549
viable 2549
vish@@ 2549
रेस्टोरेंट 2549
flew 2548
shaheen 2548
कागजात 2548
disabled 2547
searching 2547
subjected 2547
जाए@@ 2547
पीस 2547
वार्डों 2547
caps 2546
goddess 2546
preference 2545
बरेली 2545
मुनाफा 2545
वालो 2545
स्क्रिप्ट 2545
cp 2544
indicators 2544
purchasing 2544
varsity 2544
ا@@ 2544
ढो@@ 2544
बलिदान 2544
मैडम 2544
manu 2543
qualcomm 2543
आसार 2543
ईरानी 2543
flyover 2542
holi 2542
पुनर्वास 2542
बँ@@ 2542
मेगावाट 2542
सितारे 2542
1.4 2541
ino 2541
िक 2541
confined 2540
disney 2540
dm 2540
kotak 2540
parked 2540
shikhar 2540
tering 2540
आशुतोष 2540
जस@@ 2540
drain 2539
priya 2539
नेस 2539
बोलता 2539
contention 2538
stakes 2538
अज@@ 2538
एकेडमी 2538
भवनों 2538
mam@@ 2537
टती 2537
रिहाई 2537
20,2019 2536
oxygen 2536
safeguard 2536
खरे 2536
घेराव 2536
मुकाम 2536
6th 2535
advances 2535
immune 2535
replacing 2535
निष्@@ 2535
पंजीयन 2535
वसंत 2535
सीपी 2534
devgn 2533
imperative 2533
periods 2533
लंबाई 2532
barriers 2531
चीख 2531
मर्डर 2531
विनाश 2531
18th 2530
leverage 2530
prosecutor 2530
मानकों 2530
हौसला 2530
tehsil 2529
विकलांग 2529
सनातन 2529
harmful 2528
pping 2528
मूलभूत 2528
arriving 2527
उन्नति 2527
बैच 2527
सहवाग 2527
draws 2526
कहावत 2526
दिखते 2526
फिटनेस 2526
chat@@ 2525
घुसपैठ 2525
iraqi 2524
provincial 2524
टावर 2524
बखूबी 2524
ब्लॉगिंग 2524
adam 2523
pharmaceutical 2523
सुपर@@ 2523
्यो@@ 2523
28,2019 2522
boom 2522
envoy 2522
rhetoric 2522
0.5 2521
texas 2521
कमा 2521
सक्रियता 2521
confessed 2520
yas 2520
उतरी 2520
नाली 2520
फ़ै@@ 2520
insolvency 2519
jails 2519
resumed 2519
survivors 2519
ंद्र@@ 2519
रेन 2519
सीमाओं 2519
referendum 2518
was@@ 2518
सुविधाएँ 2518
1960 2517
floating 2517
आश्वस्त 2517
ईस्ट 2517
कसर 2517
तत्वावधान 2517
tom@@ 2516
गड्ढे 2516
त्य@@ 2516
पाय@@ 2516
रंजीत 2516
टीआई 2515
नंदन 2515
स्टो@@ 2515
1967 2514
dragged 2514
gratitude 2514
remake 2514
rk 2514
जन्@@ 2514
discover 2513
incorporated 2513
kicked 2513
stall 2513
than@@ 2513
अहिंसा 2513
धो 2513
भेजकर 2513
22,2019 2512
helicopters 2512
निवासियों 2512
निशा 2512
रोना 2512
conferred 2511
dissent 2511
टकराव 2511
फेडरेशन 2511
विद्वानों 2511
साँस 2511
drops 2510
giants 2510
manages 2510
rac@@ 2510
sted 2510
ug@@ 2510
ज्यों 2510
directorial 2509
esh@@ 2509
merchant 2509
ung 2509
ut@@ 2509
é 2509
इयों 2509
प्लॉट 2509
बैठते 2509
सूचकांक 2509
स्तंभ 2509
bride 2508
researcher 2508
secularism 2507
vasco 2507
फल@@ 2507
भाषी 2507
सम्बन्धित 2507
laptop 2506
vegetarian 2506
कॉन्फ्रेंस 2506
नवीनतम 2506
2015,0@@ 2505
crazy 2505
hiding 2505
इन्सान 2505
कर्ण 2505
175 2504
topped 2504
unhappy 2504
अपार्टमेंट 2504
अवलोकन 2504
इकाइयों 2504
कंप@@ 2504
गर्मियों 2504
धाराओं 2504
पुरा@@ 2504
sim 2503
yen 2503
टेलीफोन 2503
तबीयत 2503
135 2502
ibrahim 2502
ela 2501
faction 2501
mafia 2501
पेमेंट 2501
सियासत 2501
auditorium 2500
कमांडर 2500
गल@@ 2500
internationally 2499
parkash 2499
resolutions 2499
इंजेक्शन 2499
कें 2499
गिल 2499
यस 2499
२० 2499
hr@@ 2498
safer 2498
खरी 2498
ल् 2498
deserves 2497
nevertheless 2497
pistol 2497
prohibition 2497
sridevi 2497
ंश 2497
गवाही 2497
मपुर 2497
hamilton 2496
printing 2496
seth 2496
wrapped 2496
अफसोस 2496
प्रसव 2496
फ्रंट 2496
1965 2495
architect 2495
tics 2495
एग्जाम 2495
एनजीओ 2495
त्यौहार 2495
speedy 2494
मर्द 2494
database 2493
जब@@ 2493
युवतियों 2493
वामपंथी 2493
flooded 2492
gn@@ 2492
zu@@ 2492
अफ@@ 2492
यि@@ 2492
सला@@ 2492
हीरा 2492
disruption 2491
je 2491
क्यूंकि 2491
bru@@ 2490
quest 2490
बेरोजगार 2490
electorate 2489
optimistic 2489
ंग्@@ 2489
इमेज 2489
उलट 2489
लौटते 2489
1,4@@ 2488
exploration 2488
legitimate 2488
जं@@ 2488
ठंडी 2488
लट@@ 2488
€ 2488
ammunition 2487
sellers 2487
sewage 2487
unnecessary 2487
कद 2487
पीएचडी 2487
पीना 2487
abused 2486
cia 2486
kriti 2486
territorial 2486
करूं 2486
झूठा 2486
ट्रांस@@ 2486
मेँ 2486
विष@@ 2486
सन्दर्भ 2486
barred 2485
evolution 2485
lokpal 2485
mishap 2485
observer 2485
गरी 2485
वेस्टइंडीज 2485
fingers 2484
len@@ 2484
malayalam 2484
milestone 2484
sopore 2484
approaching 2483
maria 2483
पिछड़ा 2483
ब्राजील 2483
मनी@@ 2483
प्रदेशाध्यक्ष 2482
सरसों 2482
1.6 2481
ईयर 2481
पार्टियां 2481
gauri 2480
philippines 2480
reluctant 2480
resorted 2480
shan 2480
निकलना 2480
लग्न 2480
2,0@@ 2479
allied 2479
ranjit 2479
tens 2479
thiruvananthapuram 2479
धूम्रपान 2479
arrives 2478
lip 2478
promoter 2478
अंदाज़ 2478
पार्वती 2478
लोकेशन 2478
megapixel 2477
motive 2477
प्रातः 2477
बंध@@ 2477
सिम@@ 2477
inadequate 2476
maps 2476
mol@@ 2476
sorts 2476
styles 2476
मोड 2476
षि@@ 2476
हरेक 2476
1200 2475
2030 2475
550 2475
आज@@ 2475
इकबाल 2475
निष्ठा 2475
बंदूक 2475
array 2474
defender 2474
interactive 2474
पीकर 2474
प्रयोगशाला 2474
संचालकों 2474
सिर@@ 2474
hygiene 2473
गैर@@ 2473
जेएनएन 2473
रजिस्ट्री 2473
loses 2472
वर्दी 2472
स्टिंग 2472
darshan 2471
परिदृश्य 2471
सीबीएसई 2471
paytm 2470
इसपर 2470
दीवाली 2470
denial 2469
kevin 2469
log@@ 2469
tum@@ 2469
कीमती 2469
खंडपीठ 2469
मक@@ 2469
nh 2468
quo 2468
transit 2468
william 2468
लीज 2468
सतत 2468
hp 2466
चित्रण 2466
झूठी 2466
युगल 2466
musicians 2465
giri 2464
vardhan 2464
जानकारों 2464
हैंड@@ 2464
bull 2463
बनें 2463
सबने 2463
समझकर 2463
heights 2462
jerusalem 2462
lined 2462
बेटों 2462
सतर्क 2462
17th 2461
sticks 2461
गृह@@ 2461
मिट 2461
haul 2459
कमेंट 2459
massacre 2458
prospect 2458
rehman 2458
प्रोटीन 2458
वट 2458
220 2457
centric 2457
tunnel 2457
vir 2457
गन्ना 2457
बाग@@ 2457
भ्र@@ 2457
genetic 2456
hazare 2456
sabarimala 2456
डीए 2456
alism 2455
feared 2455
khe@@ 2455
कड़@@ 2455
कोश 2455
बारात 2455
रजिस्ट्रार 2455
runners 2454
ट्यूब 2454
बहु 2454
बैन 2454
assuming 2453
az 2453
credited 2453
ich 2453
opinions 2453
खों 2453
गुमराह 2453
gmail 2452
meerut 2452
कारा 2452
soccer 2451
निर@@ 2451
यूज 2451
distant 2450
off@@ 2449
stu@@ 2449
wat@@ 2449
proceed 2448
promotions 2448
ंडे@@ 2448
करन 2448
कीय 2448
बादलों 2448
मजे 2448
panchkula 2447
88@@ 2446
addiction 2446
boo@@ 2446
vested 2446
खोलकर 2446
हिंदुओं 2446
112 2445
बहार 2445
बांट 2445
भड़क 2445
महंगे 2445
28.@@ 2444
उसपर 2444
पिछला 2444
संभावनाएं 2444
inspiring 2443
भई 2443
संयोजन 2443
bokaro 2442
मेजबान 2442
लात 2442
हाट 2442
anyway 2441
pumps 2441
reviewing 2441
vaccine 2441
आईसीसी 2441
प्रोफाइल 2441
लोहा 2441
ct 2440
pla@@ 2440
कटारिया 2440
ज्ञा@@ 2440
टैंकर 2440
प्रारूप 2440
दीक्षा 2439
५० 2439
bajwa 2438
clothing 2438
compulsory 2438
jmm 2438
रूबरू 2438
tibet 2437
ton@@ 2437
उत् 2437
सहयोगियों 2437
उठती 2436
जन्म@@ 2436
ताज़ा 2436
बीडीओ 2436
लह@@ 2436
सैफ 2436
स्था@@ 2436
gaya 2435
him@@ 2435
janhvi 2435
regarded 2435
उंगली 2435
गश्त 2435
ग्रेट 2435
संभावनाओं 2435
profitable 2434
तपुर 2434
निराकरण 2434
13,2019 2433
circulation 2433
disclose 2433
physics 2433
tim@@ 2433
29,2019 2432
clinic 2432
expose 2432
ju 2432
गार 2432
applying 2431
intelligent 2431
tribe 2431
अवसरों 2431
राठौर 2431
ल्ट 2431
2g 2430
modest 2430
snapdragon 2430
अधिकृत 2430
ड़ियां 2430
पक 2430
bonus 2429
buyer 2428
cla@@ 2428
seal 2428
आंधी 2428
competent 2427
nigam 2427
npas 2427
ises 2426
junction 2426
saxena 2426
ब्लास्ट 2426
रिटायर 2426
शॉपिंग 2426
सोचकर 2426
yeh 2425
उपवास 2425
स्टिक 2425
alarming 2424
del 2424
shades 2424
आफिस 2424
धारक 2424
mile 2423
raut 2423
भूपेंद्र 2423
मेंट्स 2423
सिक्योरिटी 2423
composition 2422
दावेदार 2422
prizes 2421
1974 2420
abe 2420
सेब 2420
हवन 2420
ीकरण 2420
३० 2420
servants 2419
sophisticated 2419
एल्@@ 2419
चंद्रशेखर 2419
छोड़ना 2419
लाइब्रेरी 2419
acquiring 2418
manpower 2418
चला@@ 2418
पीडि़त 2418
सोते 2418
avatar 2417
ax@@ 2417
slaughter 2417
weakness 2417
घात 2417
निशाः 2417
delegates 2416
jacket 2416
peers 2416
protocol 2416
yas@@ 2416
ओझा 2416
asif 2415
grams 2415
logy 2415
stomach 2415
ऐश्वर्या 2415
काटे 2415
प्रतिरोध 2415
सहाय 2415
हार@@ 2415
avengers 2414
misleading 2414
nose 2414
worthy 2414
ioc 2413
pit@@ 2413
tar 2413
tihar 2413
कारावास 2413
नाच 2413
बढ़ाना 2413
convener 2412
petitioners 2412
tanks 2412
आठवीं 2412
मसला 2412
ano 2411
discharge 2411
इस्पात 2411
चढ़कर 2411
सम्पत्ति 2411
colombo 2410
columns 2410
define 2410
masood 2410
rou@@ 2410
नसीब 2410
शोधकर्ताओं 2410
battles 2409
bureaucracy 2409
jailed 2409
racing 2409
sweden 2409
हरा@@ 2409
yar 2408
लगाव 2408
battling 2407
compare 2407
cy 2407
मिड 2407
60,000 2406
touching 2406
उत्तरप्रदेश 2406
दस्तक 2406
सटे 2406
accurate 2405
bans 2405
discourse 2405
withdrew 2405
कलश 2405
1976 2404
assassination 2404
slams 2404
माँ@@ 2404
dedication 2403
disturbed 2403
regards 2403
मूर्ख 2403
वीर@@ 2403
grateful 2402
intake 2402
strip 2402
जाएँगे 2402
सुखी 2402
neuro@@ 2400
सुकून 2400
cooperate 2399
privilege 2399
turmoil 2399
पदोन्नति 2399
प्रवास 2399
बीबी 2399
बुश 2399
शांतिपूर्ण 2399
1.8 2398
sonakshi 2398
पुरोहित 2398
मित 2398
सें 2398
2.2 2397
favourable 2397
rifle 2397
ऊना 2397
मतगणना 2397
chahal 2396
taxpayers 2396
थाली 2396
मेंबर 2396
:3@@ 2395
detection 2395
sum@@ 2395
wit@@ 2395
तार@@ 2395
प्रणब 2395
भीम 2395
महेन्द्र 2395
माइक्रो@@ 2395
राजनेताओं 2395
सुना@@ 2395
ह्रदय 2395
16th 2394
bali 2394
jones 2394
struggles 2394
गुण@@ 2394
धारकों 2394
पाएगी 2394
मोटा 2394
alarm 2393
clo@@ 2393
fibre 2393
पोर्ट 2393
फट 2393
ignoring 2392
iness 2392
अंतराल 2392
परिभाषित 2392
राजस्थानी 2392
लवा@@ 2392
विटामिन 2392
missions 2391
specifications 2391
dic@@ 2390
rickshaw 2390
volatility 2390
आंशिक 2390
दुनियाभर 2390
सुने 2390
deliberate 2389
dharmendra 2389
dig@@ 2389
retd 2389
scrap 2389
ज़ाहिर 2389
विख्यात 2389
1,7@@ 2388
disorders 2388
ized 2388
ख्वाब 2388
दूत 2388
वाइस 2388
स्तान 2388
enrolled 2387
lation 2387
screened 2387
sovereignty 2387
sters 2387
sung 2387
ugly 2387
नारियल 2387
स्ता 2387
ेंगे 2387
honey 2386
responses 2386
tc 2386
£ 2386
ङ@@ 2386
बाली 2386
redressal 2385
wipro 2385
उनपर 2385
उल्टा 2385
तारे 2385
नाम@@ 2385
लॉग 2385
वरदान 2385
disturbing 2384
leak 2384
गुल@@ 2384
टुकड़ा 2384
ट्रंप 2384
demonstrations 2383
upgraded 2383
wadi 2383
अंधेरा 2383
अब्दुल्ला 2383
सुलझाने 2383
announcements 2382
grip 2382
orbit 2382
केयर 2382
होटलों 2382
31,@@ 2381
shyam 2381
समर्थ 2381
banning 2380
frequency 2380
hurdles 2380
injustice 2380
pran@@ 2380
underlying 2380
कियों 2380
कौशिक 2380
खामोश 2380
सिरसा 2380
ant@@ 2379
consciousness 2379
down@@ 2379
इनकम 2379
थोक 2379
69@@ 2378
bet 2378
mom@@ 2378
घटी 2378
मिला@@ 2378
64@@ 2377
anderson 2377
chu@@ 2377
rendered 2377
setup 2377
bandipora 2376
sends 2376
varied 2376
अमेरिकन 2376
द्ध 2376
१२ 2376
lashkar 2375
pujara 2375
कृत्य 2375
bashir 2374
educate 2374
ished 2374
las 2374
tele@@ 2374
wuhan 2374
आदेशों 2374
बदलकर 2374
मलेशिया 2374
विमोचन 2374
संगीतकार 2374
aggression 2373
spy 2373
अधूरी 2373
bles 2372
heels 2372
kalam 2372
एमए 2372
गुजराती 2372
चंबा 2372
मीट 2372
रुके 2372
concentration 2371
ज़ी@@ 2371
निकलती 2371
संगोष्ठी 2371
T 2370
bud@@ 2370
istic 2370
subramanian 2370
पसन्द 2370
मीन 2370
सातवें 2370
साधा 2370
battalion 2369
exploitation 2369
mandated 2369
rampant 2369
पंचकूला 2369
surfaced 2368
vigil 2368
निफ्टी 2368
पंत 2368
पुन 2368
रोमांचक 2368
App 2367
karunanidhi 2367
ades 2366
cra@@ 2366
दिल्लीः 2366
बेचा 2366
सादर 2366
सिक्के 2366
R 2365
helpful 2365
intact 2365
सम्बंधित 2365
हादसों 2365
AM@@ 2364
आजीवन 2364
ख़राब 2364
हज 2364
adarsh 2363
lunar 2363
safely 2363
vp 2363
अधूरा 2363
रोकना 2363
240 2362
neet 2362
peer 2362
गानों 2362
दवाएं 2362
ade@@ 2361
maturity 2361
southeast 2361
पैक 2361
सब्@@ 2361
assembled 2360
cellular 2360
ink 2360
profitability 2360
speeding 2360
stalls 2360
बंगला 2360
bhardwaj 2359
dered 2359
fying 2359
करनाल 2359
किडनी 2359
किस्से 2359
क्ति 2359
क्स@@ 2359
4/@@ 2358
haq 2358
ratan 2358
बाबूलाल 2358
राव@@ 2358
सुखदेव 2358
khar 2357
magnitude 2357
medallist 2357
steep 2357
टमाटर 2357
मुजफ्फरपुर 2357
laxman 2356
यूएस 2356
सिंधिया 2356
ner@@ 2355
palestinians 2355
pray 2355
residing 2355
छिपे 2355
ध् 2355
प्रीमियम 2355
बहने 2355
रवैये 2355
farhan 2354
rout 2354
काँ@@ 2354
छपी 2354
भूखे 2354
sequence 2353
shoulders 2353
woo 2353
खुदकुशी 2353
county 2352
kit@@ 2352
rulers 2352
जानलेवा 2352
बुध 2352
शंस 2352
mysterious 2351
कुशवाहा 2351
डेड 2351
बेचारे 2351
गिलास 2350
लिप्त 2350
और@@ 2349
सप्तर्षि 2349
स्वरुप 2349
behera 2348
cil 2348
छठे 2348
जाग 2348
भावनात्मक 2348
लेस 2348
1948 2347
berlin 2347
mea 2347
okay 2347
teenager 2347
नाश्ता 2347
wooden 2346
ओह 2346
कोठी 2346
carriers 2345
damages 2345
dharna 2345
inconvenience 2345
कॉमेडी 2345
गोष्ठी 2345
ध्वज 2345
हरियाली 2345
bj@@ 2343
chil@@ 2343
नाओं 2343
स्टडी 2343
ron@@ 2342
tide 2342
उपलब्धियों 2342
उपासना 2342
घुटने 2342
बूढ़े 2342
मालिश 2342
मीठा 2342
वायदा 2342
ballot 2341
mango 2341
sometime 2341
थिएटर 2341
ble@@ 2340
infiltration 2340
mapusa 2340
themes 2340
परे@@ 2340
सिल 2340
1973 2339
cen@@ 2339
cope 2339
disrupted 2339
‘‘@@ 2339
errors 2338
nets 2338
rage 2338
venkaiah 2338
उपलब्धता 2338
एट 2338
कविताएँ 2338
रास्तों 2338
xi@@ 2337
अम्मा 2337
diplomat 2336
dn@@ 2336
slowing 2336
zimbabwe 2336
चंद्रमा 2336
जुर्म 2336
दान@@ 2336
पावन 2336
सराहनीय 2336
csk 2335
tesla 2335
फर्@@ 2335
स्वतः 2335
constructing 2334
fulfill 2334
thrashed 2334
zonal 2334
किट 2334
पाँव 2334
प्राइमरी 2334
1.1 2333
N 2333
mistry 2333
कना 2333
नॉन 2333
रना 2333
वीसी 2333
fore 2332
notch 2332
portugal 2332
अकाल 2332
इशारे 2332
congestion 2331
helpline 2331
rat 2331
पात 2331
1,3@@ 2330
juice 2330
गंध 2330
फास्ट 2330
भलाई 2330
classified 2329
किसकी 2329
छे 2329
ट्रेनें 2329
थियेटर 2329
offline 2328
1,6@@ 2327
purely 2327
अनुचित 2327
अन् 2327
कैंट 2327
प्रोडक्शन 2327
लीड 2327
vin 2326
चलिए 2326
जीवों 2326
धमाकों 2326
संबोधन 2326
tvs 2325
टकरा 2325
फटकार 2325
ry@@ 2324
नेपाली 2324
लान 2324
सरिता 2324
additionally 2323
contentious 2323
jose 2323
vowed 2323
अनि@@ 2323
मांगें 2323
finances 2322
floors 2322
veterans 2322
पढ़@@ 2322
issuance 2321
kers 2321
rituals 2321
इस्तीफे 2321
shake 2320
vessel 2320
रोकथाम 2320
सेक्सी 2320
refugee 2319
rekha 2319
गांगुली 2319
दिलों 2319
प्पा 2319
सतर्कता 2319
lac 2318
varieties 2318
काई 2318
नील 2318
्रा 2318
1,200 2317
4000 2317
apathy 2317
cultures 2317
recognized 2317
widening 2317
त्व@@ 2317
नजदीकी 2317
परत 2317
मोक्ष 2317
gurdwara 2316
लपुर 2316
freely 2315
pathankot 2315
sudhir 2315
tail 2315
कली 2315
जिंदल 2315
बाव@@ 2315
महा 2315
,2019,3@@ 2314
डिप्लोमा 2314
विसर्जन 2314
arya 2313
caption 2313
dignitaries 2313
ov 2313
खरा 2313
डेयरी 2313
व्यापारिक 2313
refer 2312
आपरेशन 2312
कुएं 2312
पहिया 2312
शिवाजी 2312
amethi 2311
lin 2311
sushant 2311
उपचुनाव 2311
रवींद्र 2311
शॉट 2311
A4 2310
inevitable 2310
predecessor 2310
stalled 2310
toyota 2310
दूतावास 2310
नीम 2310
नॉर्थ 2310
पंचायती 2310
वहा 2310
conceded 2309
ica 2309
drains 2308
layer 2308
tab 2308
नमी 2308
मुस्@@ 2308
composed 2307
focuses 2307
grandfather 2307
hostile 2307
eu@@ 2306
krish@@ 2306
zar@@ 2306
नक्सल 2306
समझदार 2306
glimpse 2305
offshore 2305
मलेरिया 2305
विश् 2305
सरोज 2305
सिंगल 2305
bn 2304
offerings 2304
pressing 2304
regardless 2304
switched 2304
wash 2304
चोटी 2304
लाय@@ 2304
ci 2303
intentions 2303
आवाजाही 2303
इंडि@@ 2303
चित्त 2303
चित्र@@ 2303
ज़े@@ 2303
पक्की 2303
forwarded 2302
उछाल 2302
पांचवें 2302
ought 2301
una 2301
beats 2300
communicate 2300
exceptional 2300
जासं 2300
डिब्बे 2300
lou@@ 2299
reacted 2299
अन्न 2299
br 2298
ंडे 2298
गांधीजी 2298
chandrababu 2297
con 2297
आरबीआई 2297
सीखना 2297
हरभजन 2297
maha 2296
rr 2296
solving 2296
wada 2296
काने 2296
ठु@@ 2295
मुश्किलें 2295
1,8@@ 2294
laxmi 2294
sang 2294
कांस्य 2294
मरा@@ 2294
वाणिज्यिक 2294
marriages 2293
vijayan 2293
गिरकर 2293
सरा@@ 2293
kills 2292
partnerships 2292
केन 2292
ड़ते 2292
थी@@ 2292
निस्तारण 2292
मज@@ 2292
cop@@ 2291
florida 2291
traced 2291
कॉमर्स 2291
ठेकेदारों 2291
थकान 2291
पर्दा 2291
मची 2291
रज@@ 2290
वर्णित 2290
accorded 2289
aji 2289
ekta 2289
टंकी 2289
ट्रांसफार्मर 2289
रॉयल 2289
flavour 2288
shir@@ 2288
ऊं 2288
औसतन 2288
रस्सी 2288
metric 2287
soren 2287
टिप्पणियों 2286
deol 2285
jem 2285
ताएं 2285
हल्ला 2285
blaming 2284
rey 2284
seemingly 2284
मणि@@ 2284
मुख्य@@ 2284
येंगे 2284
27.@@ 2283
conflicts 2283
cher 2282
vocal 2282
आरटीआई 2282
उत्थान 2282
एका@@ 2282
पिच 2282
लड@@ 2282
absconding 2281
hip 2281
mitchell 2281
nal@@ 2281
ऑडियो 2281
दाद 2281
दौलत 2281
पीके 2281
लुटेरों 2281
glad 2280
newer 2280
pv 2280
ren 2280
watches 2280
टोपी 2280
बाध्य 2280
09:@@ 2279
caution 2279
mounted 2279
transformed 2279
हवाओं 2279
painful 2278
pandits 2278
prompting 2278
sim@@ 2278
आज्ञा 2278
सत्यापन 2278
worries 2277
उठा@@ 2277
जहा 2277
डिजाइनर 2277
ड्राइविंग 2277
नामा 2277
पुकार 2277
भारत@@ 2277
१५ 2277
innovations 2276
showroom 2276
महि@@ 2276
aziz 2274
benefited 2274
cheese 2274
expense 2274
extradition 2274
obligations 2274
penalties 2274
आवश्यकताओं 2274
दबंग 2274
दूरसंचार 2274
प्रेसिडेंट 2274
apprised 2273
gorakhpur 2273
refuses 2273
teen 2273
tran@@ 2273
आयाम 2273
एक्टिंग 2273
प्रसन्नता 2273
बचना 2273
बेसिक 2273
भत्ता 2273
रास 2273
post@@ 2272
swearing 2272
इला@@ 2272
analytics 2271
currencies 2271
उद@@ 2271
चिन्ता 2271
पीले 2271
बीजिंग 2271
शर्मनाक 2271
confused 2270
norm 2270
observations 2270
outing 2270
टक 2270
बरतने 2270
रुकने 2270
विजिलेंस 2270
12:0@@ 2269
vessels 2269
बुआ 2269
मंड@@ 2269
महासंघ 2269
वक्तव्य 2269
8th 2268
dg 2268
ef@@ 2268
fulfilling 2268
scanner 2268
shiromani 2268
tarun 2268
मक 2268
मस 2268
सुनो 2268
ast@@ 2267
produces 2267
असिस्टेंट 2267
जर्जर 2267
बैडमिंटन 2267
pleased 2266
welcoming 2266
ंज@@ 2266
फुटपाथ 2266
मृतकों 2266
amm@@ 2265
devastating 2265
feat 2265
pati 2265
ryan 2265
याल 2265
वहीँ 2265
समाजसेवी 2265
fights 2264
क्रीम 2264
akash 2263
flooding 2263
realize 2263
testimony 2263
कैच 2263
जुड़ने 2263
दबाने 2263
30.@@ 2262
bharati 2262
divine 2262
sana 2262
shouting 2262
कबड्डी 2262
कोटे 2262
ताले 2262
नानक 2262
वतन 2262
emirates 2261
minimal 2261
कृत्रिम 2261
शियन 2261
grains 2260
नुमा 2260
बृहस्पतिवार 2260
भटक 2260
ear@@ 2259
eli@@ 2259
spicejet 2259
उर्@@ 2259
बर्खास्त 2259
लाला 2259
सराय 2259
textiles 2258
अद्यतन 2258
कहर 2258
घटक 2258
न्द्र@@ 2258
प्री@@ 2258
रविशंकर 2258
cafe 2257
cont@@ 2257
edited 2257
est@@ 2257
fatal 2257
jong 2257
नार 2257
discounts 2256
mohit 2256
प्रीमियर 2256
हटाकर 2256
accounted 2255
digit 2255
favourites 2255
inducted 2255
rang 2255
यहा 2255
cigarettes 2254
essar 2254
mes@@ 2254
outer 2254
translated 2254
vedanta 2254
आटा 2254
गुम 2254
पसीना 2254
सत्@@ 2254
chautala 2253
patra 2252
खोली 2252
जनाब 2252
edged 2251
inspected 2251
legally 2251
terrible 2250
करंट 2250
ठेके 2250
ढूंढ 2250
त्रिवेदी 2250
निमंत्रण 2250
पूछना 2250
सेल्स 2250
॰ 2250
cave 2249
pressures 2249
वरी 2249
sedition 2248
फ्रा@@ 2248
,2019,1:@@ 2247
ame@@ 2247
karthik 2247
psu 2247
दृ@@ 2247
मुबारक 2247
वारी 2247
शीतल 2247
सितारा 2247
सैयद 2247
इन्द्र@@ 2246
एप 2246
धे@@ 2246
मान्य 2246
1,5@@ 2245
cancel 2245
kaushik 2245
litres 2245
ney 2245
patrolling 2245
पौने 2245
मसाला 2245
रियन 2245
शिल्प 2245
damaging 2244
ratna 2244
tonight 2244
é@@ 2244
आयेगा 2244
बसा 2244
dutch 2243
intensified 2243
जबरदस्ती 2243
फलस्वरूप 2243
संभाला 2243
fisheries 2242
hegde 2242
juhu 2242
काएं 2242
निर्वाचित 2242
पन्ना 2242
रखरखाव 2242
सिया@@ 2242
captioned 2241
एमसी 2241
धौनी 2241
बाँध 2241
jindal 2240
justify 2240
उत्तर@@ 2240
सहानुभूति 2240
हारा 2240
7/@@ 2239
donations 2239
jr 2239
unchanged 2239
जना@@ 2239
हड़कंप 2239
इए 2238
समझी 2238
rightly 2237
uploaded 2237
अमर@@ 2237
जॉर्ज 2237
objected 2236
अफ़@@ 2236
पौराणिक 2236
यूजर्स 2236
ear 2235
tyagi 2235
अधिवेशन 2235
गुड 2235
जीवन@@ 2235
श्वरी 2235
af 2234
breathing 2234
motor@@ 2234
उजाला 2234
टस 2234
नतीजों 2234
बहती 2234
5:@@ 2233
96@@ 2233
crying 2233
gam 2233
moto 2233
क्ला@@ 2233
जीएम 2233
परिचालन 2233
मुन्ना 2233
वारंट 2233
हाईस्कूल 2233
amy 2232
boosting 2232
hang@@ 2232
आक्रोशित 2232
विरोधियों 2232
landslide 2231
loyalty 2231
tem@@ 2231
utilised 2231
थ्री 2231
[...]
